с т
е н
р а
р о
н о
к о
р е
п о
н и
т о
н а
л ь
в о
н ы
ен и
в а
т е
р и
t ;</w>
q u
qu o
& quo
&quo t;</w>
г о</w>
д е
з а
с о
ц и
л и
к а
н а</w>
г о
л е
в е
д о
п ро
л а
в и
т а
т и
л о
н е
д а
о б
м о
ч е
т ь</w>
м е
с я</w>
д и
р у
л и</w>
т о</w>
ст в
с и
б о
ст а
п е
м а
н о</w>
в ы
с е
п ре
к и
н е</w>
м и
с ко
- @</w>
@ -@</w>
п ри
ны х</w>
ч а
о т
ени я</w>
м и</w>
е т</w>
п а
ч и
но й</w>
т ся</w>
с у
п о</w>
д а</w>
ч то</w>
ст о
но ст
щ и
г а
к и</w>
х о
те ль
но го</w>
м ен
ци и</w>
с а
ра з
л а</w>
т а</w>
в л
с ки
д у
л я</w>
и н
п ра
ени е</w>
к а</w>
б ы
р ы
л у
о с
ны е</w>
г и
о р
щ е
ж и
ж е</w>
ко то
с ь</w>
е р
2 0
ш и
н у
ны й</w>
к у
п и
з о
м у</w>
л ю
ва ни
пре д
б у
ве р
г ра
л о</w>
о н
ст ра
по д
ко н
б е
р а</w>
с по
ж а
и з
п у
то м</w>
ст и
н ы</w>
т у
е м</w>
д ля</w>
ност и</w>
е тся</w>
з а</w>
в а</w>
к о</w>
т ы</w>
т ь
е й</w>
ра с
б а
з и
ц е
и з</w>
ст и</w>
ф и
ны м</w>
ств а</w>
т е</w>
н я
кото ры
ю т</w>
л я
л е</w>
ско й</w>
д ен
ств ен
б и
с во
с ка
пе ре
до л
д у</w>
с пе
ю щи
ра бо
мо ж
с ле
е го</w>
во з
с си
м ы</w>
ско го</w>
то в</w>
б ы</w>
ени и</w>
к е</w>
л ь</w>
а ль
го да</w>
з на
20 1
г ла
о т</w>
но е</w>
ре д
де р
вл я
ва ть</w>
т ы
ст ви
ко в</w>
но м</w>
ж е
с лу
ка к</w>
а к
м ы
на я</w>
ть ся</w>
Н а
щ а
ра н
ств о</w>
к у</w>
л ен
э то
к ра
Р ос
ко м
е к
те р
т и</w>
ф ор
д е</w>
ро в</w>
с е</w>
ски х</w>
ти в
пе р
К а
м а</w>
П о
ст у
т р
о на
ш е
да р
в ре
ц ен
Рос си
га ни
м у
в се
ни я</w>
р я
г у
де т</w>
т ре
К о
р ы</w>
ени ю</w>
п ла
го во
д о</w>
ле й</w>
ст ь</w>
с ло
та к
хо ди
ж ен
о н</w>
ч ен
в я
сто я
ве т
вани я</w>
ро д
ност ь</w>
д ни
ка за
но в
по л
з ы
и х</w>
а р
и с
д ы</w>
ци я</w>
ци й</w>
ни и</w>
э то</w>
С о
ро ва
и ли</w>
со об
е ди
гани за
ни ма
ча ст
в то
так же</w>
ски й</w>
20 0
ени й</w>
ш а
р е</w>
ну ю</w>
с а</w>
ста ви
к ре
т ра
р и</w>
т у</w>
ро в
л ся</w>
д ру
ль ко</w>
к лю
ме ст
да н
р я</w>
с я
ни е</w>
б ли
ру п
ме ж
н и</w>
су дар
пра ви
т ру
де й
бо ль
ст ро
ж д
ны ми</w>
н ен
по ли
во й</w>
ци аль
х а
к ла
в о</w>
ли сь</w>
о д
ле к
которы е</w>
с мо
1 9
ст е
со б
ю тся</w>
ко но
па р
в се</w>
бо ле
ств у
она ль
во про
по лу
бу дет</w>
с ред
об ла
я х</w>
а н
г да</w>
го судар
ь ю</w>
н я</w>
ло ве
м е</w>
ти че
0 0</w>
з у
с вя
ко й</w>
ве д
че лове
от вет
ти я</w>
м я</w>
в у
ски е</w>
Росси и</w>
об е
т ро
с ле</w>
вл ен
т я
ч то
ст во
щ е</w>
в ши
ци ю</w>
н к
ло сь</w>
дол ж
во ди
е с
ло ж
раз ви
то го</w>
ри и</w>
л ения</w>
на род
го ду</w>
т ри
су ще
за я
ш е</w>
фор ма
П о</w>
от но
вы х</w>
об ъ
ми ни
е е</w>
кото ро
и спо
па с
боле е</w>
до в</w>
О б
бы ло</w>
те ль</w>
в ы</w>
ф е
что бы</w>
э том</w>
к ры
во д
ре ш
ре ги
ю ще
на ча
ци он
вре мя</w>
ж да
ен е
ду народ
со в</w>
i n
ст в</w>
гра м
те лей</w>
ль та
но в</w>
дей стви
э к
ст ре
б ле
з да
бы л</w>
при ня
ени ем</w>
де ла
ра ль
зы ва
вани е</w>
не е</w>
о на</w>
у же</w>
ганиза ции</w>
ска за
мож ет</w>
к то
я ми</w>
ме р
п ри</w>
ска я</w>
я вля
воз мож
Р а
дер жа
Т а
про ек
т вер
м л
З а
обла сти</w>
б ря</w>
ла сь</w>
со ответ
вл ения</w>
М а
го то
об раз
ро сси
ста но
вы е</w>
ва м</w>
по мо
ин форма
бы ли</w>
та к</w>
ч ения</w>
спо р
от ме
г и</w>
об ще
г а</w>
с о</w>
о ру
ни к</w>
ма н
р ь
ми те
тру дни
сто ро
еди нен
то лько</w>
ду т</w>
ств е</w>
ни й</w>
со трудни
в е</w>
зи ден
ка н
коно ми
я м</w>
тель но</w>
О р
сту п
а вто
пу бли
Н а</w>
ком па
з е
г руп
дру ги
те м</w>
отно ш
про грам
пред стави
g t;</w>
& gt;</w>
ц а</w>
в ро
ка х</w>
ль зо
обе спе
чи та
ско м</w>
п ы
ко м</w>
e r
a n
и ме
ч ение</w>
по сле
во го</w>
в ра
М и
ле т</w>
ру б
С е
се да
фи на
он и</w>
го ло
по сле</w>
то ч
ющи х</w>
1 0</w>
ло ги
те ли</w>
но му</w>
че м</w>
ци а
прави тель
е з
о к
ци ональ
ста вля
е ще</w>
ни ков</w>
К он
гово ри
хо д
рабо та
э кономи
го д
e n
которы й</w>
с т</w>
не об
с ы</w>
В о
меж дународ
росси й
н д
ни х</w>
ли ч
са мо
Об ъ
у част
ки х</w>
т ен
t h
ро м</w>
вре мен
со зда
у р
си сте
не т</w>
не й</w>
ш ен
М е
н у</w>
ц ы</w>
19 9
ст а</w>
в ла
П ро
ф ер
зу льта
м о</w>
единен ных</w>
l t;</w>
& lt;</w>
С Ш
образ о
г е
СШ А</w>
со гла
го ро
те х
л ы
ч и</w>
у ча
сле до
ви л</w>
у ч
ле т
де я
Н о
слу ча
г ро
необ ходи
с ен
с ы
это го</w>
вы й</w>
суще ств
С а
ре зульта
ко гда</w>
ос нов
сси и</w>
е мы
ла га
п ло
м но
ва н
помо щ
те ля</w>
ц а
а д
o r
не го</w>
ц е</w>
пре де
Н о</w>
про ти
то р
в з
ве ст
пре зиден
пе ра
a r
ин те
при я
г ен
ме р</w>
Объ единенных</w>
На ций</w>
в ен
о б</w>
у ров
о ста
п я
про це
про из
о существ
смо тр
бы ть</w>
за щи
ба н
Ка к</w>
ко р
ни че
зо пас
М ос
х и
фина н
с ни
Ор ганизации</w>
ра й
свя з
сле ду
2 0</w>
Н е
пра во
об ра
К и
пи са
ва ет</w>
П е
Б о
с чита
вл ение</w>
ни ка
те ле
Б е
ес ли</w>
по д</w>
у пра
на ли
ски м</w>
полу чи
п ы</w>
дея тель
ма р
ни ки</w>
м пи
ва л</w>
И н
до м</w>
э ти
t i
та м</w>
с с</w>
про бле
л ы</w>
е в</w>
ст ру
Мос к
под дер
бу дут</w>
пу нк
. .
ста в
ене раль
гу т</w>
ди н</w>
У кра
е сть</w>
это й</w>
все х</w>
в клю
с ла
ку мен
и сто
ж ения</w>
М о
б е</w>
ки е</w>
на ру
мож но</w>
В а
Д о
ру ко
ф у
л ение</w>
t e
Э то</w>
т ран
к ри
д ви
рова н
те ри
сооб ща
ча с</w>
о х
до кла
1 2</w>
жен щи
ку ю</w>
до б
са м</w>
& #
Д е
ва я</w>
р ен
&# 9
с ки</w>
до ро
челове ка</w>
которы х</w>
ющи е</w>
испо льзо
А лек
л у</w>
чен ь</w>
сооб щи
ва ли</w>
o n
бы ла</w>
рабо т
1 5</w>
на ко</w>
щ ен
во с
по р
до кумен
и ю
явля ется</w>
це в</w>
мо й</w>
ло м</w>
по з
o n</w>
Е вро
об и
ра м
я за
ко го</w>
ш ения</w>
лю д
слу ж
разви тия</w>
к е
3 0</w>
про ве
Р е
р у</w>
зопас ности</w>
ор ганиза
ро вать</w>
к ва
ство м</w>
сто и
чи с
сказа л</w>
o s
я н
на циональ
связ и</w>
боль ш
ка че
пре до
р о</w>
челове к</w>
П а
м ь
у да
л ли
на м</w>
ци ей</w>
гра ни
мини ст
я т</w>
ф ак
Г енераль
С и
д ву
ко ман
п ен
и м</w>
при нима
r e
б а</w>
на ш
у сло
при зна
жи з
й час</w>
меж ду</w>
Н и
ме ри
п а</w>
со стоя
г е</w>
ва ж
стра ны</w>
н ения</w>
.. .</w>
инте ре
В ла
о пера
ра в
ра я</w>
бо р
ор га
б ра
об о
пе ри
т ных</w>
ч лен
ту а
Со ве
со ве
уча сти
о преде
1 1</w>
г де</w>
ль но</w>
с ро
х ся</w>
щ ения</w>
че р
ско лько</w>
ста н
лу ч
си ли
П у
ва ри
об яза
по тре
П ри
ми ра</w>
М ы</w>
в не
отме ти
на стоя
за ме
б ю
мо гут</w>
се кре
не р
ни тель
ви де
с ли</w>
на д
Р Ф</w>
го д</w>
о фи
о каза
жд ения</w>
ни ка</w>
о чень</w>
про дол
у ве
ско е</w>
Б а
ч но</w>
отнош ении</w>
О н</w>
стро и
вы м</w>
Г а
это му</w>
по лож
под гото
пере да
ин ы</w>
о в</w>
ри то
пери о
ши х</w>
би ра
ф ек
Г о
м я
и мен
у ю</w>
ль ных</w>
o u
ста ть
ни м</w>
стру к
ре а
ми на
Т е
че ских</w>
не м</w>
со вер
Л и
рабо ты</w>
с дела
в стре
гла в
П ред
ност ью</w>
ти и</w>
бе з</w>
на пра
Ко мите
по зи
то й</w>
с са
соответ ству
ло в</w>
тель ства</w>
В е
к то</w>
ро вания</w>
ри я</w>
тер рито
во ен
секре та
поддер ж
про ш
в мест
ло жи
a l
5 0</w>
те й</w>
ти е</w>
ки м</w>
от кры
год ня</w>
т но</w>
мо сти</w>
С ер
вы со
в ле
Р о
поли ти
О д
да же</w>
ни ю</w>
с че
кото рая</w>
проти в</w>
по каза
усло ви
ка ми</w>
пре ду
зая вил</w>
Вла ди
е м
си туа
ро ме</w>
д ы
ма т
ш ь</w>
К у
ла го
ре зо
э ф
e r</w>
с ь
тя бря</w>
ш его</w>
че ской</w>
м ени
за коно
О О
по я
сло вам</w>
не й
ко мите
до сти
ра к
сто в</w>
компа нии</w>
спе р
ф о
долж ны</w>
ту р
ж но</w>
со циаль
че ского</w>
за ции</w>
у че
чи ть</w>
свя за
стви и</w>
1 4</w>
бо й</w>
ты ся
все го</w>
во м</w>
ш ение</w>
2 5</w>
ч а</w>
деятель ности</w>
о ко
м оби
ка р
рам ках</w>
от де
други х</w>
щи х</w>
т ра</w>
ф а
сту пи
и гра
1 3</w>
фер ен
ва ться</w>
вы бо
стра н</w>
ств у</w>
д же
ющи й</w>
ч у
за клю
вклю ча
с кую</w>
th e</w>
А р
ро й</w>
1 6</w>
из вест
ти й</w>
о дин</w>
эф фек
с со
это т</w>
вы пол
пи та
ка са
ре кто
от ве
ч ь</w>
голо в
те ля
П ре
с ма
государ ствен
В и
поли тиче
резо лю
бе зопасности</w>
д ва</w>
с у</w>
де й</w>
ко мен
про вед
о че
на ми</w>
мен т</w>
та х</w>
1 8</w>
ла н
б я</w>
мини стра
за кон
кон тро
ку р
ре з</w>
поз во
ль ного</w>
та ми</w>
ту ры</w>
руб лей</w>
н ение</w>
a p
на с</w>
г ре
то му</w>
офи циаль
же н</w>
уч ре
и г
бу р
ж ден
ж ение</w>
сво ей</w>
Ф е
ва ется</w>
к ти
Е сли</w>
ку ль
по бе
ос но
е му</w>
у до
че мпи
объ я
с но</w>
О т
б о</w>
реш ение</w>
h t
б ер
н ению</w>
на х</w>
ка ж
ли к
на се
ль ной</w>
Р у
г у</w>
д стви
ме ся
ш та
хо де</w>
i t
Д а
сти ту
1 7</w>
де ка
боль ше</w>
за ви
ра з</w>
м ного</w>
Алек са
ва ют</w>
пра в</w>
во е</w>
пла ни
ре комен
Ме ж
во й
б лаго
Алекса нд
вопро сам</w>
за седа
юще й</w>
г ру
сотрудни че
ско ль
са мы
ко ми
ф он
мо ло
финан со
у стано
пра в
П ос
зна чи
ка зыва
про стра
чи сле</w>
ш ко
щ ение</w>
А н
сма три
ре гу
Ч е
ве сти
К роме</w>
ма я</w>
ч е</w>
сообща ет</w>
ц у</w>
e s</w>
сво ю</w>
ста влен
о не</w>
с ка</w>
за нима
из мен
эк спер
де ся
реги ональ
Р ес
ти н
не сколько</w>
се бя</w>
Рес публи
пре ступ
по вы
тран спор
ми лли
про ду
Т о
эффек тив
д ра
де ж
с к</w>
не де
се йчас</w>
ма тери
на ходи
су р
тр и</w>
ча ет</w>
мери кан
ко в
и зо
случа е</w>
информа ции</w>
ност ей</w>
че рез</w>
Од нако</w>
ва ми</w>
мл р
ше л</w>
хо ро
по м
тель ство</w>
произ вод
систе мы</w>
ль ный</w>
су т
тр ен
эти х</w>
ст о</w>
ти ть</w>
И з
тор го
в ну
у твер
по ч
при мен
мл н</w>
де тей</w>
ст ы</w>
ди ректо
в но</w>
1 0
действи я</w>
ры н
раз ме
о цен
соответ ствии</w>
р ь</w>
ни з
ру ет</w>
2 2</w>
со ста
мо сть</w>
s t
в нима
продол жа
ад министра
пы та
П ри</w>
2 1</w>
спо соб
э ти</w>
испо л
ход я
спе к
ра х</w>
сту па
ля х</w>
проду к
1 9</w>
ре б
бю дже
се р
201 2</w>
око ло</w>
w w
ка м</w>
женщи н</w>
сторо ны</w>
ре й
ско в
С у
гра жда
ком п
настоя ще
пу та
вани и</w>
и м
in g</w>
ре сур
с .</w>
ре ши
о нов</w>
е ся</w>
в ли
сво бо
образо м</w>
ми р</w>
при мер</w>
ми ро
ш ей</w>
a c
сво их</w>
до ста
пе й
част ности</w>
i s</w>
зави си
государ ства</w>
й те</w>
д ня</w>
ре з
ор ганизации</w>
201 3</w>
мо в</w>
которо й</w>
е в
у слу
с пи
па д
к ру
ря д
помощ и</w>
201 4</w>
вер си
ко л
т р</w>
про цен
и то
к ли
мо н
за ко
про води
подгото в
у ни
пре сс</w>
ль ные</w>
ж дан
руб .</w>
об су
2 4</w>
б ри
сво и</w>
ко е</w>
э лек
б ро
про да
о соб
i c
р ения</w>
при н
стоя н
по ка</w>
емы х</w>
но я
ме ры</w>
к руп
до пол
r o
с са</w>
руко вод
ки й</w>
мно ги
вла сти</w>
каче стве</w>
2 3</w>
э нер
циа ли
ч ной</w>
ди с
201 1</w>
пра ва</w>
оче ред
у сили
П ер
бо рь
результа те</w>
д и</w>
мест о</w>
вопро с</w>
Укра ины</w>
a m
ь я</w>
а в
й ти</w>
к ну
за да
дан ным</w>
м бле
на б
не ф
соб ствен
но р
ме ди
ден ь</w>
лю дей</w>
со держа
вши й</w>
дру го
ди на
мен ь
T h
ско му</w>
3 ;</w>
&#9 3;</w>
му ж
ли че
т ные</w>
п ря
ты с.</w>
реш ения</w>
ра спо
ви ть</w>
вани ю</w>
а мерикан
ству ет</w>
вани й</w>
ра ции</w>
по се
сред ств</w>
сса мбле
потре б
ак тив
говори т</w>
после дни
201 6</w>
по да
r u</w>
з я
Ц ен
С та
все м</w>
груп пы</w>
ени ях</w>
реа ли
про изо
п е</w>
Пу ти
об ви
при чи
Росси я</w>
мно го
ме ро
програм мы</w>
Д ля</w>
ло жен
пере д</w>
ра ми</w>
з ы</w>
Но во
ени ями</w>
ми р
у спе
жиз ни</w>
ле га
слу жи
кре п
ht t
с и</w>
из не
на ро
да ль
ходи т</w>
ин тер
ски ми</w>
ющи хся</w>
че й</w>
о жи
перио д</w>
у голов
тре бо
с па
тех ниче
ми ну
н ь</w>
Л е
к лу
ва ла</w>
се годня</w>
х от
т ной</w>
ян ва
спе циаль
н ных</w>
Г ла
ли чи
те ги
проек т</w>
дека бря</w>
те к
упра вления</w>
то т</w>
до гово
c o
гра ждан
но логи
к ро
на зна
ре жи
e l
4 0</w>
х ра
по до
горо да</w>
htt p</w>
А ссамбле
ис следо
меро прия
й ся</w>
мен та</w>
В ы
ле н</w>
раз де
дву х</w>
та й
па ра
раз и
про си
отмети л</w>
ч ных</w>
ли бо</w>
о п
ща я</w>
ши е</w>
стро й
ли шь</w>
обще ствен
млр д</w>
ква р
201 5</w>
пред лож
тель ных</w>
на з
i n</w>
рас хо
ли ц</w>
авто моби
ци о
201 0</w>
1 ;</w>
&#9 1;</w>
Т А
фу т
ст ри
о грани
ющи м</w>
i l
э та
прин ци
по лага
кре ди
Сове та</w>
Меж дународ
Росси й
у кра
законо да
ста л</w>
ответ ствен
та ких</w>
вши х</w>
пред ставля
ко не
со ю
у чи
под чер
включа я</w>
e s
рас смотр
про ис
с бор
террито рии</w>
П ра
ност ран
e d</w>
е р</w>
су м
у каза
гра фи
сообщи л</w>
т ров</w>
1 ,
тыся ч</w>
за пре
к си
пред лага
пло ща
под твер
та р
за вер
юще го</w>
ву ю</w>
руко води
участи е</w>
со кра
да х</w>
це лях</w>
ок ру
В се
ка я</w>
г .</w>
то р</w>
a t
л ю</w>
с ня
б изне
рас простра
об ы
со ставля
президен та</w>
. ru</w>
во р
an d</w>
ри й</w>
го род
смо тре
у би
ж а</w>
хо д</w>
мы ш
тель ной</w>
которо го</w>
ви д
раз лич
ж и</w>
сси я</w>
а пре
М ин
a l</w>
дол жен</w>
2 6</w>
до й</w>
обо ро
хо зя
Б у
пре ж
ч у</w>
тех нологи
Фе де
про вер
с фер
совер шен
л ению</w>
r i
и ностран
ст ер
де сь</w>
про сто</w>
щи й</w>
стра теги
щи е</w>
больш о
стра да
матери а
су д</w>
уров не</w>
2 7</w>
т ки</w>
З а</w>
200 9</w>
которо е</w>
т ного</w>
ен но</w>
че ские</w>
Д и
t o</w>
ис клю
на д</w>
спе циали
с ке</w>
ве до
ж ур
ох ра
пер ь</w>
пу сти
те х</w>
че ты
2 8</w>
a n</w>
элек тро
Пос ле</w>
е мо
вани ем</w>
се ссии</w>
мен я</w>
пар та
ор гани
ко личе
де пута
су льта
други е</w>
же ла
ле жа
обеспе чения</w>
бу ду
зе м
зи и</w>
фор ми
ля р
a g
вл ении</w>
О б</w>
до ба
резолю ции</w>
во ль
го ды</w>
та н
государ ств</w>
Л а
ру с
возмож ность</w>
за держа
ap os
& apos
&apos ;</w>
раз работ
ору жи
ви ли</w>
су б
Комите т</w>
х а</w>
жд ение</w>
правитель ства</w>
о ри
ствен но</w>
де ло</w>
а нали
комп лек
времен и</w>
чемпи она
a s
с ве
ф ри
ль зу
е те</w>
г ли</w>
у ли
ри а
По д
u r
ген т
то к</w>
вен ции</w>
ство вать</w>
объ ек
пар т
тель ного</w>
дан ных</w>
те р</w>
исто ч
че твер
en t
ро ди
С К
o f</w>
проек та</w>
ту ра</w>
следу ет</w>
се рь
пред прия
2 9</w>
насе ления</w>
Г ос
стои т</w>
финан си
сто й
ни ть</w>
де л</w>
то ра</w>
ты х</w>
Х а
Д ми
ь е</w>
б ло
те чение</w>
пре мь
а ви
ди и</w>
ря д</w>
ша я</w>
но вых</w>
сколь ку</w>
ч ного</w>
со м</w>
со стави
з у</w>
Ф ран
В ер
де б
ха рак
х ва
Ко ми
ра нее</w>
А нд
фе вра
за ня
ти ю</w>
м .</w>
Влади мир</w>
С то
я зы
ди а
тер ро
ОО Н</w>
В се</w>
рабо ту</w>
г ей</w>
ди ть</w>
200 8</w>
ч ный</w>
3 1</w>
фе де
и мо
муж чи
не му</w>
Н И
o l
го р
Дми три
фи ль
тер бур
Г ер
тиче ски</w>
Н е</w>
од ной</w>
полу ча
Моск ве</w>
б ре</w>
внима ние</w>
счита ет</w>
Александ р</w>
при ве
ст е</w>
че го</w>
и ни
по ги
со бы
ши й</w>
доста точ
но ва</w>
по ло
Та к</w>
бе с
ли и</w>
ль ю</w>
серь ез
т ный</w>
мен ее</w>
на ло
Укра и
се ль
е ха
ле г
по ряд
Сер гей</w>
нача ла</w>
рас ши
терро ри
ну жно</w>
6 0</w>
щ ении</w>
ию ня</w>
в ше
вну трен
осуществ ля
з е</w>
укра ин
Ко м
Th e</w>
основ е</w>
сред и</w>
стра не</w>
ж ер
хо да</w>
имен но</w>
ко ва</w>
фу нк
ва х</w>
ши м</w>
пол но
М у
од но
вз я
се мь
тель ные</w>
l y</w>
та кой</w>
стать и</w>
кон ферен
i s
су д
в у</w>
теле м</w>
б у</w>
фи ка
од нако</w>
2 .
ме ха
1 00</w>
допол нитель
пред седа
ожи да
л ении</w>
е ва</w>
са ми</w>
президен т</w>
М ар
гла ва</w>
мар та</w>
необходи мо</w>
ду ма
проце ду
ста р
ча сти</w>
кон ф
мыш лен
мест е</w>
ен ы</w>
и му
га н
вер ну
го в</w>
l e</w>
г ло
действи й</w>
o o
зыва ет</w>
после д
ви ч</w>
лю да
ва н</w>
м не</w>
се кто
ч ные</w>
ста ли</w>
ма с
мо мент</w>
од ного</w>
сен тября</w>
работа ть</w>
ще го</w>
ш ин
м ся</w>
ав гу
сторо н
информа цию</w>
сво его</w>
a y</w>
ию ля</w>
О ни</w>
I I</w>
ча сть</w>
ш ли</w>
и гро
Р И
ок тября</w>
де ла</w>
регу ли
проти во
на р
Ч то</w>
ен ь</w>
фи ци
янва ря</w>
ствен ной</w>
ин вести
ле з
эти м</w>
вы я
сче т</w>
пере гово
н ные</w>
про ку
дер жи
комите та</w>
не ш
хозя й
ведо м
е вро
фут бо
ва ются</w>
конф лик
ноя бря</w>
по льзо
пар ла
ли я</w>
по тен
с ме
ра м</w>
кон кре
ст ы
в за
с мен
сове ща
пом ним</w>
явля ются</w>
Пред седа
дол ла
еди н
с мер
по нима
на пример</w>
, 5</w>
учре жд
име ет</w>
ста ло</w>
член ов</w>
вед ения</w>
м нению</w>
люд и</w>
по жа
д ли
о м</w>
полити ки</w>
кон тра
ст ей</w>
об ре
мо р
меди ци
ю ри
з до
a d
u s
при вле
вопро сы</w>
поч ти</w>
С М
рекомен да
де т
у ста
мо м</w>
но си
Ф и
секрета ря</w>
которо м</w>
су деб
г ля
на ла</w>
вы ра
служ бы</w>
з десь</w>
ло го</w>
про во
напра влен
се зо
ини циа
во ору
реб ен
г но
пра кти
отно си
С пе
со вмест
та кие</w>
Ин тер
ру ю</w>
д ь</w>
ени ям</w>
Моск вы</w>
иму ще
пер со
го с
ро вание</w>
че ский</w>
пробле мы</w>
a s</w>
по тер
1 8
ди да
про фе
щ ую</w>
соб ра
бе ре
долж на</w>
1 .
ли мпи
Б ы
до ма</w>
ствен ных</w>
по скольку</w>
пя т
М В
Ра нее</w>
ави а
На помним</w>
дол л</w>
ак ти
ди я</w>
у гро
ре в
апре ля</w>
Пе тербур
теля ми</w>
по стоян
настояще е</w>
хо в
ш а</w>
с сы
а гент
пра во</w>
u n
обеспе чи
тре бу
тре ть
по ня
удо в
о пас
кон сульта
цион ных</w>
бо е
на и
у креп
ре й</w>
мен та
опреде лен
ви ла</w>
ше е</w>
1 5
меха низ
ер а</w>
ли де
ц ени
по па
з ор
п ли
Л у
жд ы
сво ем</w>
мо сков
произ води
а т
на чи
ж ении</w>
ри ю</w>
ро б
под писа
все гда</w>
сред ства</w>
Ново сти</w>
под держа
са х</w>
тель ный</w>
то ва
провед ения</w>
ре с
осуществ ления</w>
жур нали
по ку
на ходя
возмож но</w>
пе ча
С С
сво й</w>
с се
мы х</w>
до ступ
Генераль ной</w>
Т ак
л ений</w>
зо в</w>
сотрудни ков</w>
в шего</w>
te d</w>
e c
о пы
ст вами</w>
сдела ть</w>
e n</w>
К ры
кан дида
рас сматри
к т</w>
a ti
са нк
Кон венции</w>
поя ви
подчер кну
Генераль ного</w>
стви я</w>
рабо те</w>
орга нов</w>
позво ля
че т
стви е</w>
за д</w>
поги б
вы ше</w>
со бой</w>
га м</w>
пред ставлен
200 7</w>
о те
Алек се
ра и
А О</w>
ц ер
Ми ни
рас сказал</w>
й дет</w>
пен си
та ции</w>
по тому</w>
образо вания</w>
ча ется</w>
ден ь
емы е</w>
ж ной</w>
то ров</w>
де н</w>
Республи ки</w>
теля м</w>
на зад</w>
квар ти
за кры
рова л</w>
це лью</w>
0 00</w>
ор дина
сте пен
гла вы</w>
по страда
Гер ма
ту ри
e t
воз ра
профе сси
В о</w>
во т</w>
помощ ь</w>
во ду</w>
я дер
раз у</w>
вы ступа
испо льзу
и де
но во
воз ду
ме то
ш ем</w>
ран ения</w>
Ми ха
проце с
Так же</w>
тив ных</w>
се бе</w>
ще й</w>
а ре
1 3
ло н
возмож ности</w>
Со гла
n o
рас следо
ри ть</w>
медици н
200 6</w>
ден е
201 7</w>
ле е</w>
да вно</w>
по доб
защи ты</w>
пер вые</w>
те го
стра нах</w>
А л
приня ть</w>
дан ные</w>
ти л</w>
7 0</w>
гражда н</w>
лю бо
рай оне</w>
от сут
ресур сов</w>
сотрудниче ства</w>
за во
февра ля</w>
особ енно</w>
сло ва</w>
Се йчас</w>
с к
К рас
Ка за
вли я
по сред
э ту</w>
го спо
ши ро
Л ю
хот я</w>
ты й</w>
a t</w>
ги и</w>
поли ции</w>
де ли
на зыва
переда ет</w>
заме сти
жа й
пер вый</w>
тру д
ве сти</w>
- -</w>
э ро
са й
но вые</w>
находи тся</w>
пя ть</w>
Ки та
Н А
смотр я</w>
че му</w>
ци ями</w>
г ну
ня я</w>
во в</w>
по вест
здо ров
мо кра
спо ко
во сто
организа ций</w>
ви ди
И ра
Е в
чис лен
ситуа ции</w>
та ль
ф он</w>
обла ст
об но
те м
на до</w>
сво е</w>
ре аль
рес публи
ру ется</w>
В ы</w>
минист р</w>
ны неш
ч ению</w>
тр е</w>
дей ству
с рав
Пути н</w>
ра б
вмест е</w>
ве з
россий ских</w>
ч ении</w>
ми и</w>
ль ник</w>
правитель ство</w>
пра к
компа ния</w>
бер на
публи ко
ро ль</w>
СМ И</w>
то же</w>
во к</w>
по этому</w>
органи зо
которы м</w>
о щ
Во сто
вы пла
С С</w>
a i
стой чи
де к
и дет</w>
больш ин
жер т
груп па</w>
ин ф
я сь</w>
ствен ного</w>
полно мо
1 4
ни цу</w>
международ ного</w>
ка тего
w .
вто рой</w>
Д у
из да
докла д</w>
вза имо
ъ я
Д ж
от каза
н .</w>
позво ли
бе з
вы ми</w>
защи т
Т ур
ни ем</w>
М ак
феде раль
Ра бо
действи е</w>
О на</w>
даль ней
С ле
об служи
голо со
над лежа
цен тра
ка пита
поддер жи
мы е</w>
o r</w>
говори тся</w>
200 5</w>
у бе
д ней</w>
c h
на у
бан ка</w>
Пре зиден
де лега
каса ется</w>
ма ни
це й
ход ят</w>
ш и</w>
Г руп
ш ла</w>
дни м</w>
ад ре
ш ло</w>
пред принима
стан дар
рова ли</w>
му ни
пар тии</w>
си л</w>
у ди
на л</w>
по ме
об нару
Се годня</w>
ки н</w>
те перь</w>
с виде
премь ер</w>
А фри
у луч
то гда</w>
участ ников</w>
воз вра
лы х</w>
директо р</w>
сто ли
не зависи
ww w.
си ль
Ни ко
кри зи
ми гра
л ле
да ть</w>
по ра
3 5</w>
вши е</w>
устано влен
ми ре</w>
про мышлен
уда лось</w>
долж но</w>
ни л</w>
ре н</w>
з ер
пред ложи
со хра
ви зи
день ги</w>
к рас
смотре ть</w>
уби й
ж ных</w>
ма тиче
пра вам</w>
поддерж ку</w>
Се вер
су да</w>
o m
Х о
международ ных</w>
сообщи ли</w>
ш о
деятель ность</w>
пре кра
ло в
авгу ста</w>
вл ению</w>
отме чает</w>
л ко
уров ня</w>
ци ях</w>
п раз
М И
но к</w>
услу г</w>
рован ных</w>
е же
n e
ри н
бли жай
ма ссо
о цени
ча ть</w>
тре х</w>
1 6
поддерж ки</w>
жды й</w>
8 0</w>
ва лись</w>
R e
г лу
С ан
с ре
наб люда
во бо
да м</w>
подо з
ста на</w>
евро пей
з ма</w>
при мер
ф из
после дстви
кото рую</w>
Дмитри й</w>
ма ш
по ль
по р</w>
полож ения</w>
тель ств</w>
но вого</w>
извест но</w>
тив ного</w>
парт не
По этому</w>
со времен
в с
тра ди
ты е</w>
эк с
МВ Д</w>
пи сь
и ми</w>
4 5</w>
ко с
сбор ной</w>
объ е
пунк т</w>
вла де
де ле</w>
се м
чен ы</w>
че т</w>
чу в
ра ди
у стойчи
ко ордина
ме ре</w>
коман ды</w>
Ве ли
цион ной</w>
об ору
представи тель</w>
ли н
0 1</w>
ющи еся</w>
ста ла</w>
она х</w>
уче том</w>
нор ма
ше д
га ран
у з
Гла в
d i
юще е</w>
мен я
ин ститу
ни ком</w>
наш ей</w>
ру ют</w>
те а
но вый</w>
Спе циаль
не закон
бо ро
програм м</w>
с пра
у строй
обору до
П Р
при лож
нару ш
ва р
очеред ь</w>
ста ть</w>
э ко
тель ным</w>
о кон
да ми</w>
обеспе чить</w>
из бира
ро с
удов лет
э та</w>
сле дстви
с ли
смотр ен
1 7
ша ть</w>
ри й
кри мина
при з
последни е</w>
ан ти
РИ А</w>
вл ением</w>
ще м</w>
по стано
уве ли
кон це</w>
дви жения</w>
лет ний</w>
друго й</w>
тя же
гу берна
Комите та</w>
пред вари
т ным</w>
но вой</w>
торго в
да ет</w>
ни цы</w>
ти ки</w>
кор ре
Р и
гло ба
стави ть</w>
чен ных</w>
пробле м</w>
про сь
по ложи
горо де</w>
обра ти
жиз нь</w>
потен циа
получи ть</w>
став ки</w>
ва ны</w>
со бира
ца м</w>
оружи я</w>
ви н
хо те
ве де
Евро пей
чи ты
т ю
2 ,
мо де
ме тров</w>
Е С</w>
сооб ще
би р
пол ностью</w>
ди л</w>
Ра з
преду сматри
при обре
пред ста
д ж
на уч
ст ью</w>
Бе зопасности</w>
вы пу
по в</w>
ь ю
га зе
процен тов</w>
со ван
Ко гда</w>
предо ста
ста би
мас шта
. 1</w>
вос стано
с разу</w>
на сили
w s</w>
усили я</w>
многи е</w>
у точ
до би
помощ ью</w>
з дра
цион ного</w>
ве ро
ве ду
ш о</w>
0 ,
продол жи
жа ть</w>
Ю Н
нар ко
предо ставля
согла си
услови ях</w>
то ко
во ды</w>
реги она</w>
вне ш
0 5</w>
ю щая</w>
то н</w>
Т у
ва ли
сло ж
ч ки</w>
не до
н ной</w>
мл н.</w>
ль ным</w>
На циональ
тур ни
0 4</w>
по ез
ле та</w>
л ки</w>
ло й</w>
поли цей
ста ти
щи м</w>
Евро пы</w>
ст вам</w>
чис ло</w>
количе ство</w>
нов ь</w>
са жи
нача ле</w>
д ве</w>
та ким</w>
сфер е</w>
ро к</w>
разви ва
професси ональ
вари ан
разви тие</w>
Е го</w>
ющи ми</w>
на каза
гро м
ника ми</w>
достаточ но</w>
проек тов</w>
чен о</w>
производ ства</w>
утвер жда
со вет
0 2</w>
ки ми</w>
на мер
му зы
ниче го</w>
компа ний</w>
во ро
ль ное</w>
вы ступи
то ры</w>
использо вания</w>
Б и
во ка
преду пре
Нико ла
вто р
долла ров</w>
чи нов
ни ца</w>
в новь</w>
ж у</w>
Бо ль
ста ту
верси те
че ра</w>
согла сно</w>
кон кур
жа ло
вопро су</w>
ТА СС</w>
физ и
l e
i m
ва с</w>
о з
па мя
Те ле
от ра
ству ют</w>
воз гла
разви тию</w>
вы да
ня ть</w>
обе ща
дар я</w>
3 2</w>
Миха и
бюдже та</w>
подготов ки</w>
иностран ных</w>
а эро
уче б
при води
с бо
вопро сов</w>
дви га
сказа ть</w>
уве личи
минист ра</w>
це лом</w>
росси я
ма н</w>
200 4</w>
о публико
пи ш
ма ши
се к
Пе ре
минист ер
ди ли</w>
ли зации</w>
пред полага
различ ных</w>
пас сажи
ме й
Б ар
0 6</w>
получи л</w>
рабо чи
ре ли
Ш а
спо н
емо го</w>
си лу</w>
в кла
рас ска
ци ям</w>
спор та</w>
кон ку
россий ского</w>
мест а</w>
де мон
ста н</w>
0 3</w>
ча й
ст ин
С Т
не с
со к</w>
Гос ду
са йте</w>
тель ное</w>
ен а</w>
со еди
п у</w>
заседа нии</w>
Т и
А мери
борь бе</w>
ка кой</w>
Сове т</w>
мо щ
ли й
te r</w>
со бо
многи х</w>
Ор ганиза
сове та</w>
большо й</w>
С П
ца ми</w>
все й</w>
четы ре</w>
то н
19 8
м э
ча я</w>
ка м
оп пози
ва на</w>
Го судар
Ка р
фо то
кто р</w>
лю би
се ти</w>
че ским</w>
прове ден
вз ры
сро к</w>
Ассамбле и</w>
И з</w>
составля ет</w>
экономи ки</w>
до к</w>
ствен ный</w>
наи более</w>
име ют</w>
ва ло</w>
окон ча
пре вы
представи тели</w>
дис кримина
комите т</w>
х у
Феде рации</w>
ль ная</w>
200 0</w>
ну ж
тив ы</w>
9 0</w>
У пра
про те
s i
про гре
использо вать</w>
Д а</w>
. co
ни ми</w>
Пра ви
Во з
ма х</w>
де м</w>
Ч ер
уров ень</w>
поя сни
вы з
му ли
ба ты
ка кие</w>
че н</w>
проку ра
ствен ные</w>
3 3</w>
та кого</w>
од на</w>
о дним</w>
упра вля
доб ро
разме ре</w>
реш ений</w>
цен тра</w>
представи телей</w>
о казыва
А в
ш тра
к ни
ста нет</w>
об ще</w>
Кон ферен
те ку
зы вать</w>
про жи
ле м</w>
конферен ции</w>
ч ка</w>
доро ж
свя щен
en t</w>
ти в</w>
ев ро</w>
Г у
ди н
имен и</w>
ф ран
мо гли</w>
о зна
а та
де ля
куль тур
Мо сков
п си
0 7</w>
н ю
мен ти
т вор
тран с
a v
хоро шо</w>
на писа
це п
у вер
не которые</w>
тив ные</w>
Из раи
0 9</w>
из мени
го ся</w>
ку с
ку пи
измен ения</w>
не в
ро ст</w>
вед ли
4 8</w>
са н
коми ссии</w>
0 8</w>
про гно
начи на
ма м</w>
че ски</w>
ко му</w>
ре фор
кол лек
ви тся</w>
ве ли
ти ли</w>
ко ло
расхо дов</w>
Цен тра
бан к</w>
участ во
пер вой</w>
по пу
Ч а
мани тар
окру жа
Р А
те ра</w>
ли ца</w>
Б ан
реали зации</w>
самы х</w>
П и
o c
ребен ка</w>
пу тем</w>
Т О</w>
ш ению</w>
I n
ч ном</w>
у по
тив ной</w>
моло деж
проце сс</w>
пере во
ос вобо
кли ен
милли онов</w>
ва лся</w>
примен я
струк ту
го м</w>
рын ке</w>
ре е</w>
информа ция</w>
ма кси
обще ства</w>
Украи не</w>
Коми ссии</w>
ла й
те ра
ко ро
Э к
рай она</w>
i g
относи тельно</w>
каж до
Мини стер
по том</w>
e m
ба р
воз бу
администра ции</w>
ком му
торгов ли</w>
меся цев</w>
кра й
соответству ющих</w>
Анд рей</w>
че ская</w>
Согла сно</w>
ве ден
сто м</w>
д ки</w>
ь я
исто рии</w>
государ ство</w>
гу манитар
a b
o v
ч .</w>
ссы л
рова ны</w>
конку рен
экспер тов</w>
ве й
К О
ка ждый</w>
лимпи й
5 5</w>
цен тре</w>
вед ение</w>
преж нему</w>
созда ния</w>
ба л
прове сти</w>
3 4</w>
воору жен
аэро пор
ку да</w>
прош лом</w>
де мокра
рын ка</w>
ров ки</w>
Ш та
3 7</w>
ви де</w>
обяза н
3 .
эко логи
регу ляр
ро ста</w>
куль туры</w>
3 6</w>
ла х</w>
ле в
це лей</w>
Ме д
му ю</w>
ито гам</w>
ходи ть</w>
сво им</w>
ря т</w>
ника м</w>
за интере
реги оне</w>
ж ей</w>
про па
цион ные</w>
д .</w>
20 0</w>
о пла
П ар
чен ко</w>
По ли
про с</w>
член а
е мой</w>
ви и</w>
получи ли</w>
Сто ро
i r
Си рии</w>
ни н</w>
емы й</w>
цио не
Г е
лы й</w>
за пи
Президен т</w>
дела ть</w>
ша ет</w>
повест ки</w>
спор т
ми мо</w>
зна чение</w>
ка та
националь ных</w>
поряд ка</w>
на й
не сколь
чемпиона та</w>
Из вести
о но</w>
обще го</w>
хо дов</w>
мен ты</w>
струк туры</w>
националь ной</w>
точ ки</w>
Все мир
Алексе й</w>
тр ене
полномо чи
ги е</w>
200 3</w>
ще е</w>
с цен
жа ет</w>
С ек
тив ный</w>
преду смотрен
201 8</w>
отнош ения</w>
ва лю
участи я</w>
оцен ки</w>
обще й</w>
луч ше</w>
ч ным</w>
ль ном</w>
выбо ров</w>
не которых</w>
С ред
чи к</w>
свобо д
ф ору
завер ши
ме н</w>
прави л</w>
ш ении</w>
m e</w>
л ением</w>
о ст
сто л
во л
дру г</w>
пользо ва
ча сов</w>
подчеркну л</w>
кон струк
поло ви
з рения</w>
други ми</w>
ку п
об у
проце сса</w>
ба й
контро ля</w>
вой ны</w>
ка з
право охра
A M</w>
ж ению</w>
сы гра
ла ми</w>
жи телей</w>
э ле
систе ма</w>
щи ков</w>
юри ди
тра в
Про грам
4 9</w>
п лу
мат че</w>
соста в</w>
з я</w>
г ла</w>
Вер хов
приня тия</w>
н тов</w>
бе зопас
о к</w>
ис пыта
соб люд
н ении</w>
вы ступ
ре мон
Я по
А на
россий ской</w>
дол го
успе ш
цен тр</w>
необходи мости</w>
3 8</w>
а п
ц ве
услови я</w>
д ро
д жа
стати сти
Т ем</w>
здра во
р ение</w>
встре чи</w>
ы ду
Теле фон</w>
игра ть</w>
u l
учи ты
бли з
ме ста
ц ов</w>
Во л
исто ри
по воду</w>
контра к
ю щую</w>
о то
щи хся</w>
Моск ва</w>
О с
вто ро
тя бре</w>
зако н</w>
ру бе
коне чно</w>
секрета рь</w>
основ ных</w>
с читы
на ших</w>
т ное</w>
ч ная</w>
за тем</w>
да л</w>
зако на</w>
в спо
щ ению</w>
времен но</w>
на вли
Каза х
200 2</w>
ен ных</w>
пу ска
пре тен
при сут
ме д
служ ба</w>
Сер ге
о стано
на деж
обви ня
че ское</w>
ц о
сою за</w>
вед ь</w>
случа ях</w>
пер вого</w>
t er
си лы</w>
нали чи
ско в</w>
де лу</w>
праз дни
здраво ох
у м
тру да</w>
уни версите
И р
Ев г
Е ще</w>
ссо циа
ци па
шен ко</w>
цио ни
А д
мероприя тий</w>
ф а</w>
стра хо
на де
И го
o p
со в
.co m</w>
по со
кол ле
Россий ской</w>
ни ку</w>
во ри
жи ль
у ще
во обще</w>
вы с
ва но</w>
ис кус
4 2</w>
коне ц</w>
це ли</w>
стать е</w>
та кое</w>
фика ции</w>
за ция</w>
ни к
экономи ческого</w>
четы ре
бе жен
прак тически</w>
мень ше</w>
па да
г ер
т ка</w>
в и</w>
мен тов</w>
А вто
ско ро
на ме
инф ра
ар ен
го дов</w>
реги стри
пунк та</w>
связа нных</w>
тро м</w>
С Р</w>
5 1</w>
ш ки</w>
ма га
4 4</w>
результа ты</w>
ю сь</w>
це ле
4 .
докумен тов</w>
фран ц
зая вление</w>
пример но</w>
мы с
адре с</w>
при ме
я тся</w>
ло г</w>
. R
слу жа
та ри
спон ден
де вя
ве ри
до каза
вер х
прош лого</w>
ори те
тель ность</w>
чен ы
5 00</w>
200 1</w>
влен о</w>
l i
ст у</w>
ман да
К ре
г ри
рас сказа
чис ла</w>
пиш ет</w>
ви да
5 2</w>
ст вах</w>
Мед веде
рова н</w>
вля ет</w>
дан ный</w>
ак ции</w>
ответствен ности</w>
тиче ской</w>
счита ют</w>
4 1</w>
d e
тель ная</w>
свобо ды</w>
е н</w>
под разде
в ью</w>
муни ципа
3 9</w>
a r</w>
неф ти</w>
ту аль
ag e</w>
ч рез
ка з</w>
ре ва
с ко</w>
ни же</w>
зор а</w>
ри на</w>
энер ге
ч ением</w>
Ц И
милли ар
ж ений</w>
сем ь</w>
х и</w>
международ ной</w>
служ бе</w>
P M</w>
т ная</w>
ве л</w>
О В
рабо та</w>
ль зя</w>
Ф а
де парта
3 ,
обсу жда
ли ц
по пы
состоя нии</w>
Герма нии</w>
сти ва
за па
Л о
н ю</w>
пред ыду
веро я
с м.</w>
член ы</w>
за бо
об стоя
ан г
докла да</w>
иг ры</w>
приня л</w>
чи л</w>
вы рази
си ст
ду ет</w>
Ц е
с пу
экс плу
услу ги</w>
за м
ква ли
се н</w>
мы м</w>
примен ения</w>
цион ный</w>
при ходи
ем ся</w>
дости гну
ма ми</w>
вши хся</w>
Х от
жи во
га р
o t
О ле
сле д
про токо
По стоян
ди пло
о г
Э ти</w>
ох ва
само м</w>
сотрудни ки</w>
4 7</w>
И та
4 6</w>
s p
созда ние</w>
ш у
Ф он
га зо
работа ет</w>
Сан кт</w>
дву х
ин стру
пер вом</w>
не тся</w>
зо р</w>
гру з
при орите
горо д</w>
о логи
ве ще
стре ми
бри та
за р
Ж и
дей ствовать</w>
при гла
ви це</w>
ад вока
СК А</w>
говори ть</w>
су аль
о доб
за боле
Хот я</w>
но ва
5 8</w>
социаль ной</w>
борь бы</w>
Вели ко
до сту
4 3</w>
строи тельства</w>
Э тот</w>
ча ют</w>
о ши
лен а</w>
ситуа ция</w>
ки на</w>
Гла ва</w>
част о</w>
спра ведли
Ра с
Фран ции</w>
ка ну
за тра
действи тельно</w>
Б ер
за й
лен ы</w>
произо шло</w>
на гра
груп п</w>
ша н
П ла
опера ции</w>
За ко
со м
ссыл кой</w>
Г ен
ки ло
ра баты
ну ть</w>
тив но</w>
бе се
объ ем</w>
та я</w>
су ль
Росси ю</w>
5 3</w>
учрежд ений</w>
сум му</w>
благо даря</w>
д ь
Э кономи
a m</w>
мероприя тия</w>
не смотря</w>
кор руп
б ин
ком менти
об щи
предлож ения</w>
бы ст
суще ству
обра ща
финанси рования</w>
си м
па ла
ро н
по ки
пер во
ком мер
ни кто</w>
услови й</w>
ou n
у стра
пер вую</w>
5 7</w>
по ста
по священ
наш и</w>
ди ви
по ощ
Велико брита
те лю</w>
5 6</w>
приводи т</w>
r u
Та ким</w>
ин форми
у па
представи ть</w>
суд ь
стан ции</w>
женщи ны</w>
вз но
сту ден
самы м</w>
необходи мость</w>
созда ть</w>
пу ти</w>
соста ве</w>
потенциа ла</w>
полож ение</w>
Ч и
ту т</w>
х е
am p
заме ча
P os
ме та
де тся</w>
семь и</w>
пере воз
И спа
макси ма
ти рует</w>
ти на</w>
И сто
кон ца</w>
га х</w>
мо го</w>
у зна
ли ть</w>
пер вых</w>
пунк те</w>
ь ми</w>
про чем</w>
лю бы
рей тин
клу ба</w>
а б
раз а</w>
ла м</w>
спе ц
ь ше</w>
пе с
фон да</w>
Д ру
рас преде
с де
о гром
д ца
мо г</w>
уще р
раз работа
поряд ке</w>
Ре ги
по став
Со вет
объ еди
5 9</w>
под вер
кру г</w>
ра ке
в первые</w>
Г ру
5 4</w>
под роб
од но</w>
ъ ез
при вет
реги стра
несколь ких</w>
еже год
З ени
в шей</w>
площа д
Председа тель</w>
ли нии</w>
со л
выбо рах</w>
поку па
си я</w>
попу ляр
от пра
199 8</w>
докла де</w>
директо ра</w>
В И
де во
те сь</w>
Бе ло
кос ми
ответствен ность</w>
па н
лы е</w>
кану не</w>
по чему</w>
фа й
ш ком</w>
щ ений</w>
e b
опреде ля
ня х</w>
ч ное</w>
жи ть</w>
мож ете</w>
по ру
а на
находя тся</w>
п ле
ре чь</w>
ве че
ито ге</w>
со х
орга ны</w>
коман да</w>
го н
лик вида
ти м</w>
ati on</w>
фе стива
г ене
из бе
ни це</w>
ци ден
катего рии</w>
оста ется</w>
бизне с</w>
х удо
о су
пред ме
политиче ских</w>
че к</w>
степен и</w>
тру до
по прав
простра н
моло ды
от рас
стои мость</w>
ни ях</w>
К ри
со се
к ло
i t</w>
ш ую</w>
6 5</w>
правоохра нитель
199 9</w>
распо ложен
оборо ны</w>
отнош ений</w>
футбо ли
на ч
Е Д
приня ли</w>
ро ва</w>
фи гу
согла шения</w>
интер вью</w>
тиче ских</w>
ни когда</w>
e t</w>
мину т</w>
од ном</w>
кон цер
экономи ческой</w>
Г ра
до во
со пер
ти н</w>
здоров ья</w>
при гово
ин ве
ин вали
по ступи
да ли</w>
окружа ющей</w>
дене г</w>
л ка</w>
мен а</w>
ле тов</w>
сни зи
В то
име ть</w>
гово рят</w>
С тра
A d
вл ений</w>
Те перь</w>
к ров
ствен ным</w>
На пример</w>
Интер фак
зо ло
клю че
здравоох ранения</w>
7 5</w>
ста м</w>
а спек
Д о</w>
з ло
дела м</w>
ок е
секрета риа
продук ции</w>
же лез
5 .
уни что
Н ью</w>
Ко ро
дости жения</w>
от прави
доба вил</w>
цен ы</w>
круп ней
ню ю</w>
юще м</w>
но ме
3 00</w>
те й
по ст</w>
бо в</w>
до воль
мы й</w>
вы чай
Пред стави
докумен ты</w>
не льзя</w>
К П
насили я</w>
мат ч</w>
ули це</w>
с ной</w>
a y
ты м</w>
чен ные</w>
провед ение</w>
рекоменда ции</w>
зо м</w>
Михаи л</w>
региональ ных</w>
Со ю
це н</w>
го до
програм ма</w>
жд ении</w>
по ле</w>
отве т</w>
w as</w>
предлож ение</w>
ка де
рассмотр ения</w>
з ву
В от</w>
систе му</w>
мат ча</w>
финансо вых</w>
при соеди
у мень
ш ка</w>
п ру
да ле
ситуа цию</w>
Ч С</w>
нару шения</w>
замести тель</w>
ни ли</w>
кам па
си ть</w>
Сек ре
н ный</w>
сообщи ла</w>
воен ных</w>
перегово ров</w>
до бы
га за</w>
владе ль
6 .
w it
че скую</w>
рай он
c e</w>
ре ша
к м</w>
на йти</w>
бес пла
строи тельство</w>
раз но
199 5</w>
р ю
мо ни
п лен
у регули
преж де</w>
сред ы</w>
опера ций</w>
побе ди
потре би
тель ную</w>
расхо ды</w>
v i
следо ва
срав нению</w>
и мя</w>
рабо т</w>
про йдет</w>
се вер
l o
ка на
з м</w>
подтвер жда
сист ем</w>
a .ru</w>
преступ ления</w>
долж ност
ня ш
ле тия</w>
ско н
мо е</w>
т вра
во д</w>
помо га
долж ности</w>
з ри
принима ть</w>
по неде
анг лий
чи ка</w>
важ но</w>
Со единен
Э та</w>
т .
после ду
Т рам
ника ких</w>
год няш
Ш е
ме ст</w>
ле ты</w>
ль ную</w>
во до
повы шения</w>
же сто
госпо дин</w>
дискримина ции</w>
де ву
сто й</w>
жи т</w>
докумен т</w>
при род
с ю
ti on</w>
места х</w>
т ской</w>
н ного</w>
при бы
авто бу
си х</w>
меся ца</w>
досту п</w>
площа ди</w>
S t
Республи ка</w>
государствен ных</w>
a z
Е ди
т ности</w>
на пад
мага зи
террито ри
акти ви
персо нала</w>
на по
Но вый</w>
ско рее</w>
д жи
уголов ное</w>
защи те</w>
Г ре
4 ,
ар хи
уголов ного</w>
д во
с лы
ори ен
Влади мира</w>
пер спек
Е Н
ста не</w>
спи сок</w>
ен о</w>
свиде тель
ле стин
воз ник
систе ме</w>
технологи й</w>
че ском</w>
обла да
сре ду</w>
мест ных</w>
Конферен ции</w>
стои тся</w>
199 4</w>
ли й</w>
про вод
то пли
И спо
процен та</w>
ря да</w>
с ных</w>
квар та
деся т</w>
инте гра
предо твра
М О
лю бой</w>
Крас но
тем пера
за регистри
да в
f or</w>
ма ло</w>
ры х</w>
э н
боле з
бра ть</w>
ап пара
ка зывать</w>
чрез вычай
со стоится</w>
возду ш
199 7</w>
процеду ры</w>
ф е</w>
уста нов
s h
л .</w>
рова но</w>
ви нов
согла со
возмож ностей</w>
вши м</w>
М но
фак т</w>
у казыва
сте р</w>
у виде
лет него</w>
Председа теля</w>
подчер ки
ч ную</w>
франц уз
у ро
пре пят
ле й
распо ря
н ской</w>
ка ких</w>
вс ю</w>
d e</w>
хо ды</w>
председа тель</w>
упра вление</w>
участ ники</w>
Т о</w>
I II</w>
ры нок</w>
спорт смен
выбо ры</w>
тель ности</w>
Украи на</w>
транспор та</w>
террори сти
фи р
обеспе чение</w>
Евро пе</w>
си ло
2 8
ца х</w>
Ма й
програм му</w>
бри тан
республи ки</w>
у н
верси и</w>
чи ков</w>
ка тери
инве сто
при зывает</w>
Г ор
ши ть</w>
сотрудниче ство</w>
э т
ОО О</w>
о стро
жен ы</w>
В В
шко лы</w>
ре кла
эк с</w>
6 4</w>
хо ло
в ки</w>
ту ре</w>
комп ью
чен а</w>
цион но</w>
со р
трене р</w>
обеспе чению</w>
Кон ститу
и ска
вши сь</w>
д но</w>
ма ти
большин ство</w>
выпол нения</w>
ген дер
у ме
ня ется</w>
b er</w>
пя ти</w>
Ди на
раз ных</w>
199 6</w>
Пути на</w>
други м</w>
с се</w>
с не
вя т</w>
погиб ли</w>
на н
нача ль
хоте л</w>
го ди
ну т</w>
рай онах</w>
от че
ана логи
тыся чи</w>
ер ы</w>
само го</w>
со держи
приня то</w>
Феде раль
за дол
програм ме</w>
e d
се годняш
организа ция</w>
6 3</w>
у ва
хи ми
зар пла
ни ц</w>
a k
ти т</w>
пол не</w>
пла н</w>
Александ ра</w>
Секре та
кон тек
ки но
бу дем</w>
Й ор
Га з
га ми</w>
г ря
эффектив ности</w>
за би
сер ви
х о</w>
то ром</w>
проку ро
за пад
Т ре
которы ми</w>
МИ Д</w>
предприя тия</w>
разработ ки</w>
От ме
парт нер
ре я</w>
ре ди
Бе ла
л ки
интер нет</w>
развива ющихся</w>
А ль
со зна
фи кси
у чены
Ф о
со жа
а ли
В ен
сай т</w>
жден ы</w>
позволя ет</w>
ме ц
м би
я р
тр ени
сли шком</w>
и ско
бизне са</w>
М ан
w h
парла мен
Мак си
со н</w>
ОО Н
каче ства</w>
перегово ры</w>
ро ли</w>
Ка на
5 ,
ре да
со всем</w>
f or
ня ет</w>
А к
смо гут</w>
рова ться</w>
ро ванию</w>
ш лось</w>
Ос нов
ки тай
каж ется</w>
Га зе
фото графи
то л
ди т</w>
проводи ть</w>
ко дек
О АО</w>
неф ть</w>
представи теля</w>
материа лов</w>
государствен ной</w>
про тя
ма й
сен а
Пу нк
компа ни
П ор
гото в
про д
ли на</w>
т ную</w>
c h</w>
доступ а</w>
каждо го</w>
актив но</w>
социаль ных</w>
за цию</w>
пен са
де ти</w>
харак тер</w>
случа ев</w>
ча сти
вле н</w>
россий ский</w>
вос кре
до маш
процес се</w>
Н ор
стра нами</w>
вы де
агент ство</w>
л л</w>
ли н</w>
& amp
&amp ;</w>
К ор
У К</w>
вз гля
А б
ща ть</w>
сси й</w>
соответству ющие</w>
вопро са</w>
ни на</w>
спо со
И сла
полу чения</w>
ствен ное</w>
нало го
прове л</w>
u b
Д он
Е катери
пози ции</w>
под пи
со действия</w>
с вед
ге ро
по нен
з вез
По ль
ря дом</w>
О Б
во лю
ак ций</w>
ми кро
ра вен
рассмотр ение</w>
реа ги
Бо ри
са м
наро дов</w>
которо му</w>
неде ли</w>
суб бо
понеде льник</w>
продолжа ть</w>
рекомен до
т ку</w>
контро ль</w>
ше сть</w>
пят ницу</w>
прави ла</w>
гаран ти
кон так
L ent
ван ных</w>
воз обно
Ц СКА</w>
предприя тий</w>
г енераль
M ay</w>
хо к
ска н
нача ли</w>
рован ные</w>
исклю чи
не посред
корре спонден
ар ти
лен ных</w>
В прочем</w>
Пос ле
рели ги
эк спор
россий ские</w>
глав ный</w>
ра то
N e
u t
ран ьше</w>
позволи т</w>
мини му
Ру с
C .
ло ва</w>
политиче ской</w>
стратеги и</w>
осуществ ление</w>
зая вила</w>
рев но
руководи тель</w>
пла не</w>
четыре х</w>
Ю ж
пла те
ведом ства</w>
энер гии</w>
фор мули
использо вание</w>
мен но</w>
хо чет</w>
поясни л</w>
ци ф
Амери ки</w>
б ка</w>
источ ник</w>
го й</w>
результа тов</w>
гра д
т ном</w>
поддерж ке</w>
не давно</w>
Ру ко
объя сня
основ ном</w>
Иго рь</w>
ти ем</w>
Т П</w>
ствен ная</w>
ком пенса
с кры
а ссоциа
став ку</w>
докумен та</w>
контро ли
н ского</w>
ф ы</w>
зая вили</w>
предлага ет</w>
Де парта
Ар м
г на
объек тов</w>
ме тр
ви ча</w>
Коми ссия</w>
ъ ек
М ЧС</w>
постоян но</w>
учре ждения</w>
Груп па</w>
дж ет</w>
на пря
То гда</w>
Е ги
представля ет</w>
ва лась</w>
руковод я
при ем
про фи
6 7</w>
ста ди
сооб щении</w>
ля ции</w>
гру зо
специали стов</w>
C h
груп по
в полне</w>
о й</w>
по стро
ющи мся</w>
мо га
ло к</w>
ко ле
отно ся
2 9
заинтере сован
бежен цев</w>
город ской</w>
н ений</w>
Дина мо</w>
6 1</w>
ща ется</w>
высо ко
по то
гово й</w>
гото вы</w>
по кры
6 2</w>
рез ер
националь ного</w>
раз ору
меся ц</w>
ле жит</w>
сто лько</w>
слу ша
законода тельства</w>
при надлежа
обнару жи
ве сь
Lent a.ru</w>
демон стри
ми ли
Д же
ль я
интере сах</w>
ин циден
весь ма</w>
оте че
И ва
19 7
выя сни
ше ствия</w>
су ди
про ф
м нение</w>
оказа ния</w>
стра нам</w>
од ну</w>
рас считы
осуществ лению</w>
ст р</w>
говори л</w>
подготов ке</w>
быст ро</w>
та ки</w>
2 7
технологи и</w>
точ но</w>
боле ль
само й</w>
re s
Ч то
не ц
же ст
сек суаль
ста ти</w>
З е
провер ки</w>
связа нные</w>
a d</w>
в ской</w>
Re p
исследо вания</w>
О П
ве сь</w>
М А
ti me</w>
тех ники</w>
экономи ческих</w>
Газ про
v er
жд ений</w>
за пу
я с
сла в</w>
Д об
официаль ный</w>
I t</w>
Е сть</w>
ш ру
6 ,
рабочи х</w>
ть я</w>
Ad d
t r
суще ство
от ды
б и</w>
пор т</w>
па лестин
ста ми</w>
то е</w>
обяза тельств</w>
б рь</w>
пор та
ликвида ции</w>
напо мина
Бо лее</w>
бан ков
проек ты</w>
in g
до сто
u m
ком мента
объя сни
ги я</w>
ци тирует</w>
у т</w>
К е
оче вид
мужчи н</w>
Что бы</w>
Л ени
Бела ру
пре имуще
по ро
вя тся</w>
ми н</w>
хо в</w>
си рий
ка рь
ку па
Н О
сто лич
ч ку</w>
ь е
с может</w>
лож ение</w>
ци она
го дах</w>
До кла
торго вл
перио да</w>
Н Р</w>
д нев
проис ходит</w>
законода тель
тив ным</w>
фор ме</w>
Г И
обслужи вания</w>
зе ме
no w</w>
сооб щения</w>
вла стей</w>
лимпи а
со лю
суще ствует</w>
жден о</w>
смер ти</w>
государствен ного</w>
нарко ти
агент ства</w>
уста навли
строи ть</w>
при дется</w>
из у
сво ими</w>
со ревно
про ходи
лко го
опы т</w>
по казыва
продолжа ет</w>
ва ющих</w>
у потреб
Великобрита нии</w>
аре сто
ну л</w>
требо вания</w>
влен ы</w>
ва лось</w>
ви дов</w>
персо на
П О</w>
За пад
сторо н</w>
вы игра
A p
ве т</w>
. 0
не га
рова ла</w>
ся т</w>
на пом
кра я</w>
реги онов</w>
режи ссе
Международ ного</w>
вы бро
от да
работа ют</w>
Секрета риа
не с</w>
дви жение</w>
в ступи
ше му</w>
мо ти
заседа ние</w>
Интерфак с</w>
Со чи</w>
глав ным</w>
щ и</w>
Л он
полож ений</w>
6 6</w>
мени ть</w>
ре ц
Ва ле
осуществ лении</w>
комму ника
та кая</w>
рас че
ши ми</w>
Не смотря</w>
втор ник</w>
Тур ции</w>
бу ма
секто ра</w>
ско р
мож ем</w>
буду щем</w>
производ ство</w>
л га
докла д
разработ ке</w>
ви д</w>
пер ен
привле ка
о про
руковод ство</w>
тиче ского</w>
зи я</w>
п ро</w>
ль ности</w>
ста нов
фон д</w>
отнош ение</w>
Госду мы</w>
но вым</w>
до ва
сси ю</w>
председа теля</w>
суб ъек
испол ни
ч ник</w>
А ф
конфлик та</w>
мар шру
С И
Укра ин
ми тин
реши ли</w>
внутрен них</w>
Ассамбле я</w>
рован ной</w>
обе споко
про я
к роме</w>
у доб
потер я
ра ст
Серге я</w>
Сред и</w>
сотрудниче стве</w>
клу б</w>
ди на</w>
де кла
а н</w>
заседа ния</w>
автомоби лей</w>
u s</w>
on e</w>
стави ли</w>
не мец
не те</w>
вне д
проси л</w>
По ка</w>
ш у</w>
т ными</w>
четвер г</w>
стра на</w>
лич но</w>
то рин
ц ей</w>
Pos ted</w>
СС СР</w>
М ур
Росси ей</w>
гото ви
слу чи
ме сти
по ставлен
in e</w>
круп ных</w>
Ц Б</w>
мен е
по лез
бое ви
во му</w>
раз ру
Г У</w>
6 8</w>
ми ру</w>
над ца
ра ти
ж ет</w>
с ку</w>
с нова</w>
внима ния</w>
по хо
о не
плани руется</w>
организа циями</w>
й дут</w>
жен ности</w>
М не</w>
контек сте</w>
кли ма
П я
воскре сен
ге о
лю б
подоз рева
прави ло</w>
ста ра
хо ждения</w>
d ay</w>
в шая</w>
та бли
исследо ваний</w>
пла на</w>
фор мы</w>
вла ст
публи ка
С от
обяза тельства</w>
ма ль
Петербур ге</w>
пре вра
Ш и
ориен ти
долж ность</w>
координа ции</w>
дале ко</w>
Медведе в</w>
отмети ть</w>
в чера</w>
а лкого
зая вления</w>
осно ван
p h
ст .</w>
ен ность</w>
зда ние</w>
оп ти
инвести ций</w>
самы й</w>
ту ру</w>
диви ду
следу ющие</w>
произо шел</w>
ро з
пра вах</w>
само е</w>
фри кан
Г А
глу бо
во круг</w>
Д ТП</w>
региональ ного</w>
Лон до
че скими</w>
споко й
млр д.</w>
при еха
экспер ты</w>
зер бай
Ко не
наш его</w>
проси т</w>
зербай джа
er e</w>
эк спе
по н
граждан ского</w>
ст ен
миро вой</w>
Г и
по ко
С Е
рас смотреть</w>
п ти
В месте</w>
к нов
p l
ж ные</w>
ж ением</w>
Про ек
кон цеп
соста ва</w>
при шлось</w>
щен ы</w>
вы гля
т ви
по вре
Б рази
участи ем</w>
ме ша
това ров</w>
а фрикан
сдела л</w>
дви жи
да лее</w>
зда ния</w>
дан ной</w>
вы ну
ба лан
о собо
х е</w>
удовлет во
Г ри
бо й
м ной</w>
ли зи
сообща лось</w>
вши еся</w>
члена ми</w>
Пунк т</w>
а уди
на ш</w>
режи ма</w>
по ис
зависи мости</w>
строи тель
т ских</w>
c on
d o
совмест но</w>
воз ника
милли она</w>
С К</w>
пробле ма</w>
ля ть</w>
усили й</w>
пе л
поль зу</w>
О ль
измен ений</w>
раз бира
приходи тся</w>
199 3</w>
с част
ступ ления</w>
Евг ений</w>
К ур
p ro
ко пи
Ка н
груп пе</w>
лен ь
россия н</w>
реали зо
упо мя
бо га
аб солю
е шь</w>
щ а</w>
ко вой</w>
д вое</w>
не правитель
К С</w>
от мен
Ф А
государ ствами</w>
Никола й</w>
бе д
б ре
ть я
со з
согла ш
тер на
по ступа
Ком мер
совеща ния</w>
потре бо
де рев
груп пи
бы вший</w>
О ба
пу те
кри ти
ро вании</w>
о пи
все ми</w>
вто ром</w>
ни ще
пре дела
О Р
се ть</w>
с наб
пол ной</w>
ин дивиду
еди но
таль ян
укреп ления</w>
шин г
три бу
ч ений</w>
ро да</w>
мони торин
з ен
т рас
т ского</w>
ка за</w>
Д ан
ху д
согла шение</w>
при зы
исследо ва
по ве
хот ят</w>
бю джет</w>
Ю НИ
И с
чу ть</w>
работа л</w>
пред назна
c ur
ст я</w>
газе та</w>
л ла
от личи
у деля
це ль</w>
Все го</w>
спа са
во спо
э пи
ми ся</w>
про доволь
ру дни
хок ке
ра л</w>
води тель</w>
за плани
Н Д
побе ду</w>
маш ины</w>
воен но
ри л</w>
щи ки</w>
матери аль
Организа ция</w>
столи цы</w>
И ль
предложи л</w>
охра ны</w>
оказа лся</w>
ство вали</w>
у г
ля н
ми нима
люд ьми</w>
t s</w>
кла ды
p or
п ин
кризи са</w>
дово льно</w>
ще н</w>
ar e</w>
ле том</w>
Об ще
Ю рий</w>
НА ТО</w>
оборудо вания</w>
И менно</w>
област ях</w>
Кита й</w>
тель ном</w>
требу ет</w>
реши ть</w>
за мен
нача л</w>
ли цен
ядер ного</w>
тон н</w>
ми н
Б ри
социаль ного</w>
се мей
реши л</w>
значи т</w>
ком на
кла сси
продук тов</w>
фут боль
ли зо
гря з
Д жа
вмест о</w>
теле фон
дру з
неде ле</w>
Та м</w>
встре че</w>
Х Л</w>
переда чи</w>
ек ла
Ва шинг
работ ников</w>
наб люд
и но
ощ у
послед нее</w>
необходи мые</w>
су пру
L .
У В
де р</w>
бы вшего</w>
кра т
но чь</w>
сове т</w>
ро ждения</w>
при чем</w>
прода жи</w>
дека бре</w>
4 00</w>
осно вании</w>
наз вал</w>
значи тельно</w>
кто ра</w>
i a</w>
воскресен ье</w>
тю рь
т ность</w>
сла в
протя жении</w>
ограни чи
b e
М он
не возможно</w>
мужчи на</w>
ч ью</w>
жд ению</w>
потреб ностей</w>
отсут ствие</w>
Ка ли
докумен те</w>
поку п
н ным</w>
В О
печа т
за хва
д ни</w>
Постоян ный</w>
раз гово
результа т</w>
б ен
Ви ктор</w>
з во
о ф
вани ям</w>
санк ций</w>
большо е</w>
с да
до мов</w>
пусти ть</w>
каса ющихся</w>
функ циони
стра ну</w>
расследо вания</w>
не сти</w>
нару шение</w>
дан ного</w>
er s</w>
ност ями</w>
следстви я</w>
совер ши
o u</w>
жи тели</w>
второ го</w>
емы м</w>
следстви е</w>
наруш ений</w>
пар ти
сообще ства</w>
при над
правитель ством</w>
санк ции</w>
дума ю</w>
С ен
последни х</w>
1 50</w>
Н у</w>
ближай шее</w>
пред ложен
образо вание</w>
со ли
ж ден</w>
Е Л
д нее</w>
особ ен
са д
рова на</w>
о ч
хозяй ства</w>
бо к</w>
депута т</w>
ва й
вы ез
Rep ly</w>
работ ки</w>
Прави тельство</w>
г ло</w>
голосо вания</w>
ре кор
О лимпиа
материа лы</w>
ко бы</w>
зо ны</w>
наро да</w>
отмети ла</w>
пере ме
у т
тен ден
ль ными</w>
сезо на</w>
Коммер сан
Россий ская</w>
суббо ту</w>
сезо не</w>
А зии</w>
ва дца
у го
у си
испол нитель
различ ные</w>
О дин</w>
Испо л
го тов</w>
Извести я</w>
Но вые</w>
ф ло
м ской</w>
тив е</w>
Н Ы
ци ен
боль шие</w>
пропа ган
много числен
лы м</w>
зая вля
с ного</w>
рекоменда ций</w>
губерна тора</w>
индивиду аль
р ению</w>
депута тов</w>
Кита я</w>
столи це</w>
кор пора
си льно</w>
глав ного</w>
Оле г</w>
кур с</w>
рав но</w>
помо чь</w>
под ня
ре сто
вши йся</w>
су де</w>
зна ко
бу дь</w>
а гре
обсу ждения</w>
не сен
совершен но</w>
соответ ственно</w>
мя г
ве ка</w>
а каде
v e</w>
само стоя
се ссия</w>
t o
В А
на стро
созда нии</w>
особ о</w>
президен том</w>
стои мости</w>
самы е</w>
до ме</w>
масшта б
С лу
запре щен
ъ ем
Т ри
За па
стави л</w>
Меж ду</w>
се реди
став лен</w>
эта пе</w>
жда ть</w>
полити ке</w>
ф ин
не движи
т ков</w>
тиче ские</w>
религи оз
л ке</w>
Коне чно</w>
из бра
де ше
та ет</w>
объ ем
ресур сы</w>
участво вать</w>
дополнитель ные</w>
б ран
по ле
в ся
н ением</w>
Ж ене
все му</w>
на кануне</w>
Кре м
заседа ний</w>
состоя ние</w>
С об
реги онах</w>
обязан ности</w>
ка д
не н</w>
край не</w>
мо мента</w>
военно служа
оказа лись</w>
По мимо</w>
По лу
Во ро
г ни
пря мо</w>
бло ки
ч ь
Пер вый</w>
П ен
состави л</w>
минист ров</w>
чемпиона те</w>
Ком па
фор миро
повы шение</w>
бо р</w>
ки но</w>
раз вед
кон ститу
зая ви
пе тен
предста вления</w>
cur r
ти ла</w>
филь м</w>
мигра нтов</w>
Япо нии</w>
вос пита
ви ду</w>
сох ран
долго сро
нов ую</w>
неф те
oo k</w>
па три
инфра структуры</w>
устойчи вого</w>
6 9</w>
h t</w>
Ин форма
Сот рудни
Ф ин
финансо вой</w>
сен тябре</w>
парла мента</w>
Аф гани
не одно
ван ной</w>
провед ении</w>
а вари
получи ла</w>
си н
во да</w>
пунк тов</w>
Кон стан
коми ссия</w>
сторо ну</w>
стано вится</w>
харак тера</w>
неде лю</w>
став ка</w>
аль терна
o f
юще йся</w>
Коро лев
1 2
каж дой</w>
оцен ке</w>
co m
ве ли</w>
источ ников</w>
не ц</w>
последстви я</w>
се рии</w>
вше йся</w>
пре крас
би о
международ ным</w>
бо м
па ми</w>
департа мента</w>
7 ,
правоохранитель ных</w>
со прово
се мина
мо гу</w>
со бесе
жен а</w>
фо не</w>
интегра ции</w>
про вин
бан ков</w>
а м
орга нами</w>
Э С</w>
ми ссии</w>
преступ лений</w>
ло га</w>
мо но
ц ар
смо гли</w>
сло жи
доби ться</w>
вне с
от ли
д ной</w>
зада чи</w>
сою з</w>
Э К</w>
участ ник</w>
Т ор
зо не</w>
догово рен
Ф ор
я кобы</w>
последстви й</w>
основ ной</w>
транспор тных</w>
вше гося</w>
озна чает</w>
закон чи
ц ем</w>
потен циаль
я ся</w>
с мыс
ти ка</w>
вкла д</w>
социаль но</w>
Ш ве
вы сказа
О т</w>
ati on
женщи на</w>
те рак
no t</w>
ж ного</w>
ди й</w>
вы ро
боль шая</w>
перио ди
т ник</w>
ту да</w>
па циен
го сти
промышлен ности</w>
Эк спер
Север ной</w>
Ана то
ко раб
t h</w>
ни ке</w>
руковод ства</w>
н ский</w>
по хи
мар те</w>
плани рует</w>
пере се
п ля
обра щения</w>
З десь</w>
вече ром</w>
ту р</w>
лиде р</w>
конкре тных</w>
полити ка</w>
ми я</w>
деся ти
специали зи
официаль но</w>
каса ющиеся</w>
ва ем</w>
зада ч</w>
о собы
ком понен
законо проект</w>
ent ly</w>
по ря
эксплу а
виде о
ар мии</w>
вы ход
печа ти</w>
согла сован
ката стро
даль ше</w>
полномочи й</w>
у к
род ствен
Па ри
харак тери
про долж
совершен ство
e p
ре мо
кар ти
ла д
дис ку
ком петен
сто к</w>
Ир ку
т ке</w>
обла сть</w>
ча са</w>
ре волю
1, 5</w>
о прав
гла ве</w>
пред ъя
образо ва
ма лень
ne ws</w>
ва ку
жи ли
ше н</w>
Груп пы</w>
техниче ского</w>
обы чно</w>
Ита лии</w>
ре м</w>
виде о</w>
ар би
Ми но
под ро
Кон сульта
ну жда
пси хо
Мно гие</w>
Ш вей
о писа
дол го</w>
возра сте</w>
собы тий</w>
Исто чник</w>
распростра нения</w>
доро ги</w>
последни й</w>
Ав стра
Генераль ная</w>
информа цией</w>
му зе
пи ло
га з</w>
уче та</w>
9 5</w>
дер ж
мо шен
Д ени
распо лага
ба зы</w>
встре ча
имуще ства</w>
государ ствам</w>
раз о
Афри ки</w>
с ные</w>
о ни
Ин ститу
бу д
при бли
руководи теля</w>
сро ки</w>
И х</w>
з мом</w>
Ю жной</w>
ж ный</w>
жен ность</w>
сум ма</w>
молодеж и</w>
Р К</w>
Петербур га</w>
и тальян
кла с
показа тель</w>
содержа ния</w>
из ъя
янва ре</w>
Международ ной</w>
До нец
руковод ством</w>
вер то
Х и
ht m
раз до</w>
рай онов</w>
пре следо
пред стоя
дву мя</w>
расска зывает</w>
д ри
занима ться</w>
ма на</w>
встре ти
7 7</w>
про ходит</w>
П рав
автомоби ль</w>
p er
Б лаго
напра влении</w>
пер вым</w>
e x
д нем</w>
199 0</w>
заклю чения</w>
о лимпий
я з
А зербайджа
защит ник</w>
ка ким</w>
До гово
игро ков</w>
следу ющий</w>
утвержда ет</w>
r a
i d
мед лен
ма е</w>
l d</w>
кандида тов</w>
Сле д
С вя
м ского</w>
ста и
Д екла
объем лю
при вы
лиц о</w>
кла сса</w>
объе ма</w>
лож ения</w>
от чет
мо дер
ох ран
Ве дь</w>
служ б</w>
ци к
b y</w>
тель ными</w>
заклю чи
предусматри вает</w>
он ы</w>
го вари
воен ной</w>
Со единенных</w>
ри ца
То лько</w>
r an
раи ль
тре х
ка нал</w>
посред ством</w>
htm l</w>
ма ло
про смо
че сть</w>
ро шенко</w>
при мени
те п
отде ла</w>
ти па</w>
оши б
регистра ции</w>
Мур ман
функ ции</w>
Кры ма</w>
упомя ну
curr ently</w>
отде льных</w>
ку н
th at</w>
Генераль ный</w>
защи ту</w>
ост ров
ВИ Ч</w>
д вадца
поддержа нию</w>
ге р</w>
принима ет</w>
мно же
до ля</w>
A n
потер пе
ба зо
ру ются</w>
из раиль
P .
реш ении</w>
ба зе</w>
О Д
не много</w>
но вое</w>
вырази л</w>
рован ного</w>
it y</w>
им пор
право вой</w>
Кон вен
турни ра</w>
подготов ку</w>
жи ву
у ника
лан дии</w>
состави ла</w>
7 .
про шед
пре о
отмети ли</w>
пенси он
жа ют</w>
ве н</w>
ди к
желез но
Специаль ный</w>
ожида ется</w>
груп пу</w>
миниму м</w>
ство вал</w>
вну три</w>
ря ду</w>
Б ли
рас кры
мень шин
зна мени
то сти</w>
гос пита
пассажи ров</w>
О к
худо ж
коман де</w>
в ского</w>
прове ли</w>
Бело ру
смо три
за ле</w>
ко вых</w>
об ходи
Докла д</w>
Моск ву</w>
экспер т</w>
at e</w>
0 0
Ка м
е мая</w>
догово ра</w>
собесе дни
приня ла</w>
бе зу
требо ваний</w>
по вто
Бо лга
техниче ской</w>
о фор
основ ные</w>
жерт в</w>
образ и
принци пов</w>
практи ки</w>
пес ни</w>
p e
стату с</w>
Проек т</w>
в ский</w>
Е НИ
Н у
режи м</w>
ва рии</w>
К А
О лимпий
тив ное</w>
уве рен</w>
за в
до но
прось бой</w>
л ла</w>
мо з
назна чения</w>
не извест
о ло
нау ки</w>
ть ми</w>
щи еся</w>
рав но
сво е
благо прия
Прав да</w>
со ц
8 ,
Не которые</w>
сер д
предоста вления</w>
Ма ри
го раздо</w>
из обра
ше к</w>
щи ми</w>
р ных</w>
Д аль
де тьми</w>
мест ного</w>
ти ях</w>
сим во
от рица
ПР ООН</w>
се ме
та мож
на пада
хо дом</w>
написа л</w>
к в
я че
бе спо
прилож ение</w>
со т
дополнитель ных</w>
жиль я</w>
устрой ства</w>
Со циаль
консульта ции</w>
дан ном</w>
фак ту</w>
метр о</w>
со вой</w>
тя м</w>
ТА Р</w>
R A
под ход</w>
коман ду</w>
ко смо
д я</w>
u m</w>
уров нях</w>
за фикси
про комменти
й ского</w>
8 5</w>
мо л
за рубе
раз би
ти ва</w>
си бир
реш ению</w>
сооб щение</w>
пози цию</w>
ноя бре</w>
сси ей</w>
ка ра
дина ми
ру ки</w>
зыва ют</w>
полити ку</w>
горо дов</w>
сожа лению</w>
апре ле</w>
ресто ра
поря док</w>
зна ю</w>
модер ни
ле те
международ ном</w>
зада ча</w>
С Н
нача льник</w>
х у</w>
наш ли</w>
оборо т</w>
чен ный</w>
устано вить</w>
би ли
кор енных</w>
С Б</w>
го ря
созда нию</w>
Бы ло</w>
ию не</w>
ссы ла
энер го
уве до
Швей ца
кла д
кон венции</w>
Сто и
автомоби ля</w>
8 .
пла т
У же</w>
наказа ния</w>
I m
Министер ство</w>
о забо
ai f
ту га
собствен ности</w>
s e
удовлет вор
сообща ется</w>
обви нения</w>
опреде ления</w>
ща ет</w>
цен а</w>
националь ном</w>
приве сти</w>
воз ме
экспе ри
мо гла</w>
пер вое</w>
М ек
поня ть</w>
сказа ла</w>
На род
д не
л ку</w>
финансо вые</w>
ту ю</w>
ла гер
Вол го
бе ло
исключи тельно</w>
пла ты</w>
ча ще</w>
да ют</w>
нача ть</w>
воен ные</w>
че ства</w>
al l</w>
носи ть</w>
не та</w>
Коммерсан т
С ло
отме чается</w>
ше сти</w>
част ью</w>
министер ства</w>
9 ,
сцен а
er v
контра кт</w>
М К</w>
ка нала</w>
со стоит</w>
се т</w>
ве дет</w>
про ез
р ю</w>
молоды х</w>
равен ства</w>
мо ре</w>
но вая</w>
выпол ня
де та
С ко
це ля
все объемлю
об ли
су дов</w>
с выше</w>
фак тически</w>
ущер б</w>
пла тить</w>
н ная</w>
мо стью</w>
погиб ших</w>
вооружен ных</w>
отме чают</w>
се й</w>
на ра
Т имо
полож ении</w>
Фи ли
Мо л
У част
По рошенко</w>
Ви та
клима та</w>
ж ности</w>
люд ям</w>
чи ки</w>
вариан т</w>
хо ду</w>
aif .ru</w>
ссе й
Ки е
стол кнов
пре пода
кре пи
Де мокра
по пыта
ок тябре</w>
Рабо чей</w>
ис че
о казывать</w>
нару ши
ве ло
ф рон
с ведения</w>
Коммерсант ъ</w>
международ ные</w>
от пу
инициа тивы</w>
глав ное</w>
говори ли</w>
Глав ный</w>
ле кар
вос ь
делега ции</w>
приня тие</w>
сокра щения</w>
специали сты</w>
поправ ки</w>
на вер
кра тно</w>
Х ар
ли ш
использо ванием</w>
рекомен дует</w>
мест ные</w>
противо ре
вы хода</w>
ра ви
Ан г
не р</w>
Испа нии</w>
Ку бка</w>
коми сса
двух годи
7 2</w>
сум мы</w>
состоя нию</w>
в ку</w>
Республи ке</w>
комплек са</w>
По чему</w>
прокура туры</w>
филь ма</w>
моде ли</w>
С парта
ди ла</w>
хо м</w>
Ж е
вы дви
вла сть</w>
об станов
лен о</w>
g r
э й
Е Р
обществен ного</w>
.R U</w>
с ке
спор т</w>
приобре т
механиз мов</w>
но вом</w>
зависи т</w>
кра си
э кра
за про
состоя ния</w>
Москов ской</w>
е сте
больш ую</w>
процеду р</w>
th is</w>
рь е
ли тера
пред стоит</w>
над зора</w>
лет них</w>
ра ция</w>
безопас ность</w>
показа телей</w>
М ООН
при ез
скон ча
теа тра</w>
х ар
февра ле</w>
совершен но
мен том</w>
связ ь</w>
но мер</w>
очеред ной</w>
М ер
ou r
режи ме</w>
Упра вление</w>
причи ной</w>
рефор мы</w>
пу ть</w>
увели чение</w>
Л око
иг ру</w>
сред нем</w>
Рабо чая</w>
пло хо</w>
i i</w>
wit h</w>
с нима
рассказа ли</w>
иг ры
ен ные</w>
до ходов</w>
С А
ле ц</w>
делега ция</w>
сло вно</w>
th e
ложи ть</w>
следу ющем</w>
ско хозяй
э ваку
ен ко</w>
носи т</w>
По л
семе й</w>
Руко вод
an d
Нор ве
ВВ П</w>
Европей ского</w>
со действие</w>
соблюд ения</w>
в печат
цион ное</w>
проек ту</w>
Н ет</w>
рассказа ла</w>
ка би
перво нача
отде ления</w>
у тром</w>
зе лен
расши рения</w>
жиз нен
Со л
само лета</w>
Су д</w>
Т ран
э фи
возду ха</w>
пострада вших</w>
объе ме</w>
анали за</w>
e v
Да же</w>
а раб
боль шим</w>
ис ла
заклю чается</w>
с ва
вы ска
по льзу
A r
по к</w>
стать я</w>
че скому</w>
а на</w>
те т</w>
рован ный</w>
слож ности</w>
п лю
боро ны</w>
са ма</w>
элек три
консульта ций</w>
про тив
пунк ты</w>
Дон ба
сдела ли</w>
сто ль</w>
се кун
настоя тельно</w>
ющи йся</w>
ту рец
федераль ного</w>
наш а</w>
расследо вание</w>
американ ских</w>
состави т</w>
побе ды</w>
сту ю</w>
веще ств</w>
ограни чения</w>
. or
щ ением</w>
высо кого</w>
сам ми
р ной</w>
показа тели</w>
ра до
Мек си
докла дов</w>
а сси
пере жи
.R u</w>
поддержи вает</w>
еха ть</w>
сло жно</w>
ни ла</w>
ки па
лиде ров</w>
интере с</w>
при е
рабо чей</w>
хо л
вы бра
началь ника</w>
ин нова
клиен тов</w>
воен ного</w>
Ч у
С па
д вер
Та тья
ствен ными</w>
оппози ции</w>
ль го
Ли ги</w>
Герма ния</w>
рас смотре
призна л</w>
По з
О фи
дела ет</w>
прош ли</w>
по обеща
способ ности</w>
ou t</w>
ат мо
отме ча
сче та</w>
об ща
в ру
пита ния</w>
проис шествия</w>
част ных</w>
до говори
Сторо н</w>
И ТАР</w>
199 2</w>
ли шения</w>
цион ная</w>
по ля</w>
м ных</w>
способ ствовать</w>
З ем
сель скохозяй
акти вов</w>
бо м</w>
Де й
измени ть</w>
семь е</w>
та ция</w>
7 3</w>
то на</w>
Верхов ного</w>
ч лен</w>
ты ми</w>
Т ю
лег ко</w>
ля бин
Б К</w>
те ров</w>
га ть</w>
Ни ж
ю ся</w>
обу чения</w>
сче том</w>
на прави
ь ян
взя ть</w>
приз вал</w>
счита ть</w>
террито рию</w>
ль ской</w>
в ка</w>
при ступи
Програм мы</w>
ер у</w>
руб ля</w>
сотрудни к</w>
присоеди ни
ба ссей
гра ду
коро т
Фо то</w>
Фин лян
поли ция</w>
ст ра</w>
ци пли
эт ниче
добро во
ис пан
ен ного</w>
университе та</w>
грани цы</w>
Ж ен
Ро сто
ли ги</w>
деся ть</w>
га я</w>
ни будь</w>
право су
про чи
директо ров</w>
госпо дина</w>
а л
a il
подро ст
Израи ля</w>
журнали стов</w>
Шта тов</w>
го ре
шо у</w>
потре бу
ou r</w>
чен ного</w>
щен ных</w>
отрас ли</w>
предо ставить</w>
напра вля
лай н</w>
об следо
фор м</w>
официаль ных</w>
С мо
само лет</w>
же б
це ремо
Зако н</w>
Ку з
ф аль
пользова телей</w>
са ми
6 00</w>
одно временно</w>
ро зы
дру га</w>
Ни дер
про шел</w>
ни ями</w>
пя ти
Еги п
пре пара
те пло
собы тия</w>
ря ть</w>
c i
примен ение</w>
гово го</w>
р ги
взно сов</w>
восто ке</w>
ч ными</w>
специаль ных</w>
За тем</w>
Е е</w>
горо дах</w>
а ген
стви ем</w>
случа й</w>
оборудо вание</w>
ке р</w>
де ре
яз ви
Э р
b e</w>
Международ ный</w>
из ложен
суб си
M ar
поз дра
ж ом</w>
спек так
кампа нии</w>
те му</w>
У голов
Ва лен
К то</w>
от казыва
по те
w or
ма ть</w>
креди то
возбу ждено</w>
финанси рование</w>
Е лена</w>
к ет</w>
праз д
и сте
Афри ке</w>
щ у
У з
щи к</w>
экспер ти
тек ст</w>
вы деля
квали фици
ско ре</w>
да тай
го стей</w>
эксплуа тации</w>
ro m</w>
хо тели</w>
вы шел</w>
ть десят</w>
практи ке</w>
Чер но
ван ные</w>
сол да
оружи е</w>
верну ть</w>
язы ке</w>
луч ших</w>
ть ю</w>
С бер
Упра вления</w>
гро зи
отве ча
со ба
возра ста</w>
став ке</w>
9 .
законода тельство</w>
пла ны</w>
i c</w>
де ло
ва ющие</w>
и д
т ников</w>
ко ль
С тро
проводи тся</w>
друго м</w>
те о
демон стра
.or g</w>
дей ствует</w>
деятель ностью</w>
осуществля ть</w>
На таль
у ско
F ac
зем ли</w>
политиче ского</w>
свед ению</w>
изда ние</w>
в не</w>
непосред ственно</w>
секто ре</w>
представлен ы</w>
l as
шен ных</w>
обще м</w>
И Н
причи н</w>
по жела
ме ра</w>
Гру зии</w>
до ле
представи телями</w>
голо сов</w>
прием ле
интере сы</w>
Испол нитель
еха л</w>
исто рия</w>
н бур
ближай шие</w>
каче ство</w>
правосу дия</w>
бо к
вы год
М ен
слы ша
де фици
настояще го</w>
во семь</w>
за л</w>
2 5
маши н</w>
выступи л</w>
друго го</w>
охва ты
нище ты</w>
Ка ра
предлага ется</w>
раз рабаты
Фран ция</w>
наказа ние</w>
ку ро
Ки ри
дорож ного</w>
пра вления</w>
при шли</w>
Х ор
мы ми</w>
вы йти</w>
А .</w>
i st
группо й</w>
Всемир ной</w>
кре ст
e l</w>
во сти</w>
дис ципли
совеща нии</w>
та кую</w>
наличи е</w>
преступ ности</w>
A u
до ве
ос ен
Д Д</w>
депута ты</w>
В чера</w>
нор м</w>
анали з</w>
территори аль
ход я</w>
Представи тель</w>
кварти ры</w>
G r
верну ться</w>
на ла
Специаль ного</w>
пись мо</w>
у язви
про дли
Бе ль
ры в</w>
ки стана</w>
сни жение</w>
мо ро
реш ением</w>
больш ей</w>
К стати</w>
тек ста</w>
чинов ников</w>
соб люда
цион ным</w>
р .</w>
занима ется</w>
содержи тся</w>
инвали дов</w>
Г он
о деж
посо би
че ст
раз ъя
ки н
n i
Я н
ни н
ва емых</w>
приня ты</w>
интере сов</w>
Декла рации</w>
слу жеб
нача ло</w>
Боль шо
ки стан</w>
продук ты</w>
за гряз
чемпи онов</w>
av e</w>
Л ен
напомина ет</w>
ию ле</w>
сво ему</w>
получа ть</w>
серьез ные</w>
Арм ении</w>
b u
бе дстви
s e</w>
подгото влен
9 9</w>
наро до
по сла
занима ет</w>
по м</w>
шко ль
принци пы</w>
Нидер лан
граждан ских</w>
глав ных</w>
выпол нять</w>
а варии</w>
массо вой</w>
па х</w>
пред положи
сро ка</w>
европей ских</w>
Кры м</w>
т ский</w>
ре е
члена м</w>
губерна тор</w>
смо г</w>
ч т
Па вел</w>
ле вой</w>
оказа лось</w>
по ступ
зи ровать</w>
ак ционе
жа л</w>
пре бы
на че</w>
хо датай
сти мули
шен ы</w>
не совершенно
юще гося</w>
Вто рой</w>
7 6</w>
ради о
Ба л
Ф А</w>
в ходит</w>
з ин
I V</w>
. .</w>
h o
дву сторон
С Е</w>
ис пы
ком фор
тя т</w>
количе ства</w>
техниче ских</w>
вани ях</w>
Интер нет</w>
Ассамбле е</w>
ин жен
тив ная</w>
у худ
199 1</w>
предо ставлен
зо к</w>
г еди
чи т</w>
Ти хо
Мино бороны</w>
ви на</w>
Оль га</w>
исто рию</w>
К ер
Ле они
у ж</w>
ре конструк
en d
мэ ра</w>
финан сов</w>
по зна
ча х</w>
U R
с про
у л.</w>
возгла вля
потреб ности</w>
ста лки
С О
хо чу</w>
эксплу ата
Т В</w>
город ского</w>
взгля д</w>
объя вил</w>
вспо мога
авто ма
с форми
С пар
Е ЭК</w>
ме ч
тив у</w>
в ь</w>
Б ра
за куп
прави льно</w>
А мерикан
долж ностей</w>
al l
вы ше
докла ды</w>
авгу сте</w>
капита ла</w>
ре ферен
Б ю
Компа ния</w>
сред не
сти ть</w>
зна ет</w>
Т А</w>
до р</w>
авто р</w>
ре к
необходи мых</w>
роди телей</w>
вне сен
нор мы</w>
оцен ку</w>
не про
К Б</w>
От кры
Уз бе
СП И
Add .
та ть</w>
с хе
язы к</w>
на конец</w>
раз ные</w>
н ное</w>
фи ли
ЮН Е
неодно кратно</w>
треть ей</w>
тр ы</w>
зако ном</w>
кв .</w>
А т
ли за
неф тя
ве ща
по степен
ак туаль
сохра нить</w>
ле ги
Под роб
f rom</w>
конкур са</w>
I N
лиде ра</w>
а да
проек те</w>
успеш но</w>
на ко
ги бе
мужчи ны</w>
комплек с</w>
на сколько</w>
сло во</w>
Фи нан
кон вен
пример у</w>
середи не</w>
судеб ных</w>
увели чить</w>
на имен
важ ное</w>
програм мам</w>
на бра
ров ка</w>
времен ем</w>
Министер ства</w>
связа но</w>
после дова
му т</w>
ба ми</w>
л лек
отпра вля
Не обходи
лет няя</w>
отказа лся</w>
торговл е</w>
В ре
вле ка
чи ст
сезо н</w>
задержа ли</w>
соглаш ений</w>
подвер га
подтвер дил</w>
относя тся</w>
Р ы
наш у</w>
до р
ф рак
сме н</w>
eb ook</w>
П О
ассоциа ции</w>
ля ет</w>
ли дер
П обе
мат чей</w>
следу ющих</w>
7 4</w>
дипло ма
к ви</w>
не ожи
с начала</w>
региональ ном</w>
Д П
с ку
1 2.
государ ством</w>
воро та</w>
мошен ниче
с формули
опреде ли
жили щ
не у
Э сто
жден ных</w>
В яче
вы во
корре кти
вид но</w>
Г ло
Реги он</w>
не доста
Пре мь
вани ями</w>
абсолю тно</w>
выбо р</w>
замести теля</w>
партне ров</w>
совеща ние</w>
S u
Ди ректо
На ва
вы рос
вы бор
Ста тья</w>
на груз
са ни
m ent</w>
Воро не
в меша
ры й</w>
гражда не</w>
прав да</w>
к ле
7 1</w>
влия ние</w>
СК Р</w>
требу ется</w>
зи ат
воспо льзо
руководи телей</w>
те н</w>
жа ли</w>
действи и</w>
ри ев</w>
Зени т</w>
э кипа
об усло
купи ть</w>
А й
вы дели
боль ших</w>
Цен тра</w>
Ад министра
гово ря</w>
Мо ло
ба нк
W in
ль ность</w>
При чем</w>
испы ты
за х</w>
Fac ebook</w>
заво е
Объ единен
полицей ских</w>
настоя щий</w>
a f
че ство</w>
сфер ы</w>
т во
пол ном</w>
Р Ф
О те
исследова тель
га н</w>
наме рен</w>
об лег
стол кну
профи ла
Казах стан</w>
к г</w>
С вет
Кие ве</w>
досто ин
поня тно</w>
ин дек
Л уч
пострада ли</w>
ж о
игра ет</w>
конкре тные</w>
Ки ев</w>
Ни ки
при были</w>
Восто чной</w>
об зора</w>
заня тости</w>
Х е
ши н</w>
заво да</w>
музы ка
заклю чение</w>
жда ет</w>
премь ера</w>
эффектив ного</w>
А и
te l</w>
сегодняш ний</w>
прогре сса</w>
пре се
при ро
за ку
го ри
ствен ную</w>
Дмитри я</w>
жен о</w>
бли оте
пол ного</w>
в ри
труд но</w>
шта б</w>
включа ет</w>
ь ев</w>
сси в
сокра ти
s u
ност ях</w>
об стре
зна чения</w>
кризи с</w>
Де ло</w>
ма то
референ ду
7 8</w>
нен ы</w>
Фон да</w>
Я ро
ру ющих</w>
ос на
в перед</w>
поддерж ка</w>
м м</w>
емо м</w>
обществен ности</w>
ф ов</w>
государ ству</w>
избе жать</w>
об щих</w>
E n
важ ность</w>
по мимо</w>
со действовать</w>
при вер
сокра щение</w>
сообще ство</w>
о гра
б рен
обществен ной</w>
о ди
Екатери нбур
с мы
догово р</w>
логи и</w>
обслужи вание</w>
опти ми
3 0
Ба ра
Че лябин
В Т
Л А
обяза тельно</w>
е вой</w>
Т ро
до то
юще му</w>
8 00</w>
в веден
Трам п</w>
требо ваниям</w>
ба х</w>
та ком</w>
фо то</w>
озабо чен
обеспечи вать</w>
P h
сотрудни ка</w>
встре чу</w>
К ра
топли ва</w>
до пуска
Р Е
поз же</w>
сут ки</w>
Еди ной</w>
остро ва</w>
трен ера</w>
ос мо
рай он</w>
с вер
стра жей</w>
посе ти
пробле му</w>
науч но</w>
Спар так</w>
Ми ро
край ней</w>
т вори
Мо жно</w>
цен тров</w>
те та</w>
раз мер</w>
угро зы</w>
отнош ению</w>
тр яс
заинтере со
иг ра</w>
В ене
Мини стр</w>
2 ,5</w>
националь ные</w>
пар тия</w>
компью тер
тиче ская</w>
Конститу ции</w>
любо м</w>
россий ским</w>
зи м
Ар ген
На м</w>
Фили п
много сторон
Х у
Офи циаль
следу ющим</w>
ма тер
й ской</w>
му р
се ло
де тям</w>
за ми</w>
д ный</w>
под клю
интере с
М э
а де
C N
лет ней</w>
оста нов
встре ча</w>
политиче ские</w>
суще ственно</w>
ди зай
игра л</w>
служ бу</w>
во ло
М оби
ру я</w>
пере ход
предлож ений</w>
С уда
но мина
ц кий</w>
об ер
Вла сти</w>
Ли т
Вале рий</w>
ры м</w>
тыся че
мл ение</w>
комму на
за ка
обнаружи ли</w>
продолжа ют</w>
o w
обще ство</w>
фору ма</w>
пусти ли</w>
благо да
учеб ных</w>
шко л</w>
до ва</w>
ну ли</w>
просмо тров</w>
журнали стам</w>
При чи
по верх
опас ности</w>
оч ков</w>
пунк том</w>
ти к</w>
пра ве</w>
бизне смен
иг р</w>
емо е</w>
выпла ты</w>
правитель ству</w>
В ос
ря де</w>
приня тых</w>
любо го</w>
нов ения</w>
счита ется</w>
ребен ок</w>
э мо
собира ется</w>
зем ле
A l
Д э
содержа ние</w>
посо ль
чен ной</w>
тре тий</w>
ющи мися</w>
ш ку</w>
F or
ес со
улуч шения</w>
- -
опреде лить</w>
аэропор та</w>
поддержи вать</w>
м нения</w>
результа там</w>
G oo
скан да
у мышлен
изда ния</w>
на сле
ла на</w>
у м</w>
ро во
задержа н</w>
реда к
пала ты</w>
. 00</w>
с пас
У ни
уди ви
арби тра
Макси м</w>
финансо вого</w>
ре ак
функ ций</w>
по в
испол нение</w>
теку щего</w>
or e</w>
граждан ской</w>
мета л
ству ющих</w>
Отме тим</w>
ж ды</w>
тиче ский</w>
та кими</w>
ред ко</w>
А раб
вер са
международ ными</w>
С ин
ri g
свобо ду</w>
разви тии</w>
иг ре</w>
Та кие</w>
ш вили</w>
должност ных</w>
Ва м</w>
У и
су вер
О ста
п .</w>
пер вая</w>
источ ники</w>
ве р</w>
в ряд</w>
се дь
Бли ж
орга на</w>
Т ер
Ма т
Вер сия</w>
кон суль
про демонстри
После дни
выступ ления</w>
Ф СБ</w>
появи лась</w>
ч ности</w>
по дели
Ба ш
го дом</w>
до стой
исклю чением</w>
проси ла</w>
ти фика
Ка ри
по ставки</w>
кор пу
диа лога</w>
вз рос
Ира н</w>
конфлик тов</w>
стар то
вы ру
послед ствии</w>
бюдже тных</w>
спу стя</w>
ша ется</w>
Израи ль</w>
уве лич
Па в
за слу
любы е</w>
про йти</w>
важ ней
o d
щен ко</w>
Г ар
отличи е</w>
ви ться</w>
хра ни
резолю ция</w>
высо кой</w>
Са м</w>
ствен ном</w>
На ча
h e
Ре й
про спек
в ся</w>
па ке
Ду ма
при шел</w>
су ме
о па
не дав
дей ство
участ никами</w>
ме тра
действи ю</w>
пы ток</w>
К ТА
серьез но</w>
проводи т</w>
8 2</w>
я сно</w>
официаль ного</w>
8 7</w>
боль ницу</w>
Т ру
м ск</w>
обществен ных</w>
от ставку</w>
случа й
ри сти
эк стреми
полу чение</w>
Но вая</w>
ино гда</w>
бо ра</w>
вед ении</w>
ци и
ежегод но</w>
собра ния</w>
ti c
при ну
се тей</w>
й т</w>
8 6</w>
стра ш
Програм ма</w>
са ло
провер я
у про
му суль
ти ровать</w>
p le</w>
хо ть</w>
ры е</w>
чемпиона т</w>
Д ональ
тра геди
ен ный</w>
СТ И</w>
ж у
исче з
буду щее</w>
газе ты</w>
из гото
н ными</w>
Алексе я</w>
связа ны</w>
корруп ции</w>
W P.
oun d</w>
Ново сибир
у бы
к лон
американ ского</w>
оста ются</w>
у мер
ущер ба</w>
рекомен ду
Бар село
ча т</w>
в ходят</w>
аде ква
1 20</w>
дни х</w>
жден а</w>
Ба й
до мо
убий ства</w>
подписа л</w>
ид ти</w>
Б рю
компенса ции</w>
ги б
Ма рия</w>
задол женности</w>
Ре шение</w>
ac e</w>
Im age</w>
пожа лу
а ми</w>
K P
возмож ных</w>
ar y</w>
боро ться</w>
шко ле</w>
стаби льности</w>
правитель ств</w>
UR L</w>
наз вание</w>
а но
З А
ком а</w>
сло в</w>
ли цам</w>
цо ва</w>
регуляр но</w>
бу ду</w>
С те
во все</w>
площа дь</w>
подчерки вает</w>
кодек са</w>
вы бира
укреп лению</w>
o in
внутрен него</w>
коман ди
ме рах</w>
Ка та
обрати лся</w>
Г О</w>
заво д</w>
бан ки</w>
У ста
противо стоя
Цен тр</w>
ра ун
пунк ту</w>
ку ра
судеб ного</w>
выпол нение</w>
Ав ст
8 3</w>
вне сти</w>
дальней шего</w>
с ви
при остано
деся ти</w>
щи ка</w>
ми ра
ж ем</w>
Шта ты</w>
э ль</w>
асси гно
кон цу</w>
за бы
П ак
Но в
па ри
реб я
поги б</w>
наз ванием</w>
не сет</w>
законо в</w>
международ ное</w>
за креп
дипло матиче
ле р</w>
ну ко
ре гла
М ор
рассматри вать</w>
су ти</w>
опреде ление</w>
вы зывает</w>
оружи ем</w>
Газе та</w>
экономи ке</w>
сбо ра</w>
н ную</w>
М аль
ма стер
о гово
ван ный</w>
наро д</w>
До л
по га
сбор ная</w>
з и</w>
кри тери
расши рение</w>
д ят</w>
за работ
Лени н
ве тера
П А
име ющих</w>
выбро сов</w>
тор же
Гос по
зи н</w>
каж дом</w>
орга нах</w>
пред по
Ф И
Анд рея</w>
по влия
По тому</w>
вероя тно</w>
при зыва
де ль
соответству ющим</w>
украин ских</w>
Сою за</w>
Мин фи
. aif.ru</w>
прилож ения</w>
и дут</w>
электро нной</w>
вой ск</w>
отнош ениях</w>
ч ке</w>
распростра нение</w>
находи лся</w>
подготов ка</w>
ули цы</w>
g e</w>
лен ные</w>
град ской</w>
Ми ссии</w>
8 8</w>
пел ля
подоб ные</w>
би ологи
со сре
ос ла
к с</w>
те ла</w>
о за
жен ных</w>
из уча
искус ства</w>
раз решения</w>
прогно зи
механиз ма</w>
эти ми</w>
До кумен
ла бо
сде лки</w>
миллиар дов</w>
му з
Премь ер</w>
проте ста</w>
фор вар
произо шед
Д ень</w>
стать ей</w>
az az
Со об
ша ют</w>
доро г</w>
об мена</w>
p e</w>
B l
жи лых</w>
дол ю</w>
под хода</w>
ме тро
выра жает</w>
ра сту
про з
прош лой</w>
9 6</w>
жи да
тя брь</w>
it e</w>
се т
называ ют</w>
ради ка
мо ва</w>
ста нут</w>
эта п</w>
ре шать</w>
работа ли</w>
участ ника</w>
любы х</w>
h e</w>
гра мо
повы сить</w>
с би
20 20</w>
ми ю</w>
го ра
ви ды</w>
эта па</w>
сель хо
М С</w>
бы то
механиз м</w>
за пол
тив ную</w>
послед него</w>
си и</w>
футбо лу</w>
ве щи</w>
проис хождения</w>
укреп ление</w>
d ing</w>
т ща
об а</w>
Си сте
живо тных</w>
восстано вления</w>
дума ть</w>
Петербур г</w>
вопро сах</w>
появи лись</w>
пси хи
жа я</w>
Р БК</w>
Во ло
подоб ных</w>
террито рий</w>
шин у</w>
напом нил</w>
Про токо
п ры
g le</w>
об мен</w>
ходи ли</w>
об щий</w>
Гре ции</w>
об зор</w>
гуманитар ной</w>
Воз можно</w>
ры но
форми рования</w>
проси ли</w>
По скольку</w>
провед ению</w>
по тра
осно ва
Белару си</w>
Под москов
мо ей</w>
В ар
Де пута
повы шению</w>
из би
по может</w>
удо сто
фестива ля</w>
важ ным</w>
А гент
получа ют</w>
самостоя тельно</w>
в щи
региональ ные</w>
буду щего</w>
по про
Ге ор
бор ту</w>
произо шла</w>
выступа ет</w>
ст ек
Ин дии</w>
ли бе
оказа лась</w>
ин ду
X X
полицей ские</w>
Са удов
В .</w>
KP .RU</w>
8 1</w>
л ениях</w>
сель ского</w>
американ ской</w>
стро м</w>
профессиональ ной</w>
ph p</w>
до не
Ва сили
Ка в
стандар тов</w>
эффектив ность</w>
r ic
oc i
Ки п
ре и</w>
тури стов</w>
оста лись</w>
нара щи
прош ла</w>
механиз мы</w>
ремон т</w>
специаль ной</w>
медицин ских</w>
бю ро</w>
способ ность</w>
строй ки</w>
ви я</w>
ст ь
Го ло
до мой</w>
разору жения</w>
до х
меня ть</w>
да вление</w>
на циона
o b
плани рования</w>
c l
ar d</w>
пя тьдесят</w>
И ван</w>
официаль ном</w>
с ра
специаль но</w>
про ка
компани ей</w>
ин спек
сти хи
прогре сс</w>
коло нии</w>
ха н
стави т</w>
воз действия</w>
C om
фина ле</w>
напра вления</w>
чет ко</w>
мето дов</w>
уч ени
устрой ство</w>
Са мо
со че
7 9</w>
сю да</w>
прокура тура</w>
борь бу</w>
М С
увели чения</w>
держа ть</w>
ко али
ти нен
бо ли
трав мы</w>
инвесто ров</w>
независи мости</w>
сты х</w>
прода ж</w>
у во
го нь</w>
авто но
друго е</w>
взры в
Ва силь
чен ным</w>
предоста вление</w>
рабо то
м ления</w>
че в</w>
затра ги
ри ли</w>
сою з
причи не</w>
Бы вший</w>
писа л</w>
информа ционно</w>
Мо жет</w>
военнослужа щих</w>
L i
ито ги</w>
сред е</w>
Та кое</w>
с но
И г
увиде ть</w>
Тю мен
Организа цией</w>
сооб раз
лицен зи
оказа ние</w>
относи тся</w>
отчет ности</w>
па м</w>
ог ня</w>
el l
A S
ви т</w>
бело рус
К ли
ран ение</w>
причи ны</w>
и наче</w>
ника кого</w>
9 2</w>
вопро сами</w>
особо е</w>
запре т</w>
Т С</w>
большо го</w>
ни как</w>
о провер
e st
завер шения</w>
8 4</w>
утвер ждения</w>
в вести</w>
Р я
сотрудни ками</w>
худо же
ви зо
транспор тного</w>
ви да</w>
сосре дото
Б ДД</w>
Б ен
2 50</w>
уни верса
окру га</w>
производи телей</w>
хол дин
ка кое</w>
публика ции</w>
урегули рования</w>
тысяче летия</w>
на стаи
полага ет</w>
пунк тах</w>
сто го</w>
ма ли</w>
Са ха
потенциа л</w>
не сли</w>
фа на
1 1.
кур са</w>
Центра льной</w>
то вари
Белору ссии</w>
крупней ших</w>
м с</w>
та лан
реа били
Г У
мя ч</w>
ле чения</w>
про све
номе ра</w>
d er</w>
es s</w>
вы шли</w>
Кры му</w>
суще стви
мл ю</w>
сопрово жда
ко сти</w>
учены е</w>
зло употреб
ша г</w>
Ф ер
опы та</w>
ф ла
учрежд ениями</w>
Казах стана</w>
ок купи
p os
на шим</w>
вклю чить</w>
ос ве
си т</w>
Ш у
про йдут</w>
избира телей</w>
сот ни</w>
ве б</w>
ле в</w>
связ ей</w>
N S</w>
моде ль</w>
ноя р
Наталь я</w>
протоко ла</w>
ско м
осуществля ется</w>
максима льно</w>
существу ющих</w>
Татья на</w>
Пра во
9 8</w>
r os
экономи ческие</w>
приме т</w>
психо логи
Ви кто
г да
У ра
обра щение</w>
важ ных</w>
ком би
Участ ники</w>
наш ем</w>
по втор
оказа нию</w>
цион ную</w>
Д ар
Хор ва
убий ство</w>
ГИ БДД</w>
стату са</w>
Ка ждый</w>
мо ск
получи т</w>
х ро
7 00</w>
предста вление</w>
Goo gle</w>
отве тил</w>
наркоти ков</w>
зна ют</w>
нынеш него</w>
су э
су дом</w>
соответству ет</w>
Моби льный</w>
нау к</w>
ис к</w>
ме т</w>
гра н
пере чень</w>
T RA
пла нов</w>
но чью</w>
НЫ Х</w>
ou p</w>
Гло ба
лу мби
Сер би
откры ть</w>
ко ст
памя ти</w>
пись мен
Ре а
ла н</w>
да р</w>
гла влен
ка ли
y ou</w>
ш ением</w>
сохра ня
фина ла</w>
ин спе
Пор туга
Пе тр</w>
ра ди</w>
Экспер ты</w>
Н К
направлен ных</w>
находи лись</w>
По д</w>
р ные</w>
депута та</w>
Т О
ди м</w>
декла рации</w>
корреспонден т</w>
мар ки</w>
у ма</w>
разви тых</w>
убе жи
Та джи
це ло
мо гло</w>
зна ть</w>
организа цию</w>
да го
институ та</w>
Брази лии</w>
официаль ные</w>
право к</w>
ни ей</w>
9 3</w>
подразде ления</w>
от лич
миро вого</w>
il l</w>
би блиоте
Сове том</w>
энерге тики</w>
теле вид
тель ством</w>
Ж а
тер я
м лад
ля ция</w>
гео графи
о существи
ох от
направлен ные</w>
д ю
медицин ской</w>
бар ре
со ва</w>
i d</w>
I S
ко ри
до пусти
привет ствует</w>
т .</w>
замеча ния</w>
е мости</w>
закон у</w>
жда я</w>
угро зу</w>
кварта ле</w>
множе ство</w>
h ave</w>
пла не
орга н</w>
д я
и ден
w e
s erv
конфлик т</w>
с фе
добро воль
ф и</w>
Газпро м</w>
су дей</w>
ша х
он лайн</w>
пригово р</w>
феде рации</w>
су до
организа цией</w>
m an
рас счита
сотрудниче ству</w>
музы кан
коман д</w>
пар тий</w>
пе тербур
с сы</w>
am e</w>
попа л</w>
жела ние</w>
поез дки</w>
прокомменти ровал</w>
оза главлен
ка кого</w>
Зени та</w>
ры ва</w>
ar t
част ного</w>
бу ква
не пре
ви а
банк ро
следу ющего</w>
сред ствами</w>
основ ным</w>
уда р</w>
пре мии</w>
s t</w>
адвока т</w>
сторо на</w>
оцен ка</w>
т ские</w>
догово ров</w>
про ходят</w>
учрежд ениях</w>
недвижи мости</w>
прибы ль</w>
C on
ж ской</w>
глав ной</w>
Россий ский</w>
ва ш</w>
А х
под лежа
регули рования</w>
а то
Та и
а м</w>
си лами</w>
представля ть</w>
ми ром</w>
Б ур
Михаи ла</w>
у полномо
плен ар
х ло
фор му</w>
си ли</w>
име ли</w>
составля ют</w>
в ъез
сай та</w>
предупре ждения</w>
за ча
инте ллек
кило метров</w>
Дума ю</w>
те бя</w>
тро е</w>
вы ход</w>
д ных</w>
ф ар
приня т</w>
ни ям</w>
готов ности</w>
име ется</w>
СН Г</w>
объек ты</w>
пре зен
оцен кам</w>
о ном</w>
цен е</w>
настояще му</w>
испыта ния</w>
А ль</w>
распростра нен
счита ю</w>
От де
Н П
. html</w>
оди но
требу ют</w>
сред него</w>
препода ва
принад лежит</w>
О чень</w>
Та й
сни жения</w>
выступи ли</w>
Представи тели</w>
язы ка</w>
беспла тно</w>
вы зо
Пе тро
про голосо
мен те</w>
И рина</w>
фак торов</w>
ва йте</w>
сы н</w>
ни кова</w>
8 9</w>
З на
Ира ка</w>
ди ни
под чи
дела ют</w>
нало гов</w>
с прави
с мар
большин стве</w>
ни ках</w>
Че рез</w>
кварти ре</w>
щен о</w>
под ряд</w>
при вод
од ному</w>
й ных</w>
чен ными</w>
9 4</w>
е .</w>
дан ному</w>
обеспечи вает</w>
Win do
пись ма</w>
оке ан
структу р</w>
J u
се ми</w>
верси я</w>
до вой</w>
бере мен
отве чает</w>
мониторин га</w>
Ф ак
сооб щ
бе н</w>
упо мина
u c
боль ницы</w>
авто ри
куро р
обрати ться</w>
обще е</w>
Ми р</w>
Трам па</w>
До пол
обы гра
представля ют</w>
х ле
гото ва</w>
Соединен ные</w>
te m
я вно</w>
НД Р</w>
специаль ные</w>
Па ра
снаб жения</w>
жа ется</w>
мар ке
отказа ться</w>
продолжи ть</w>
администра тивных</w>
ль ному</w>
ста я</w>
ко сть</w>
ве с</w>
не уда
отсут ствия</w>
Ита лия</w>
раз личи
Анато лий</w>
учиты вая</w>
предоста влении</w>
За щи
С пи
миллиар да</w>
взаимо действия</w>
региональ ной</w>
us si
представля ется</w>
провер ку</w>
i r</w>
медлен но</w>
зая влении</w>
граду сов</w>
ко вые</w>
вспо мина
Украин у</w>
сторо не</w>
болель щиков</w>
Благо даря</w>
ли ши
вто рых</w>
З оло
Са н</w>
представлен а</w>
обязан ностей</w>
ter s</w>
9 7</w>
я пон
э м
раз уме
С .</w>
о созна
катего ри
полномочи я</w>
откры тия</w>
стратеги й</w>
су пер
Бан к</w>
юри с
бу ю</w>
кни ги</w>
намер ены</w>
дове рия</w>
власт ями</w>
те матиче
лич ности</w>
С У</w>
извест ный</w>
ла нд
ф ан
сель ских</w>
си ла</w>
воз ле</w>
КП РФ</w>
тран зи
по грани
ми на</w>
д ного</w>
спи ске</w>
E C
es t</w>
следу ющей</w>
Фон д</w>
убе ди
em ber</w>
направлен ы</w>
сы на</w>
Ра й
сторо нами</w>
путе ше
из мер
поз днее</w>
ж дет</w>
н ки</w>
Лю ди</w>
девя ть</w>
систе мой</w>
резолю цию</w>
торго вых</w>
Windo ws</w>
Извести ям</w>
ви н</w>
дево чек</w>
ин фек
Националь ного</w>
отды ха</w>
ч ность</w>
студен тов</w>
раз работать</w>
ква дра
стре ль
испол нения</w>
9 1</w>
э ли
мо ря</w>
ВТ Б</w>
подоз ре
Оба ма</w>
насе ление</w>
На ша</w>
по й
возвра ща
Йор ке</w>
се г
Ap ple</w>
мигра ции</w>
второ е</w>
ля ми</w>
с вет
кар ты</w>
Лу ка
д вой
согласи я</w>
T wit
то рами</w>
vi e
с ъ
На кануне</w>
гу ю</w>
ле та
Н ПО</w>
л ениями</w>
игра ли</w>
мер у</w>
ur e</w>
Во прос</w>
пор т
про возгла
дол га</w>
манда та</w>
рез ко</w>
от вер
выпу ска
en c
К НДР</w>
Бори с</w>
фотографи и</w>
об щую</w>
проси ть</w>
показа ли</w>
ли цами</w>
госпита лизи
президен ту</w>
спра ши
ме тра</w>
боеви ков</w>
Вита лий</w>
ван ного</w>
a u
За коно
меж правитель
ж де
i z
предполага ет</w>
on s</w>
д ные</w>
вя за
по ла</w>
струк тур
не при
предела ми</w>
a in
Белару сь</w>
зо н</w>
ве ц</w>
рь я</w>
Ре чь</w>
ров ку</w>
аэропор ту</w>
2 3
проф ессо
си г
Ро ди
наличи и</w>
пар ка</w>
утвержда ют</w>
превы шает</w>
Т И
тин ской</w>
принима ют</w>
ви ру
случа и</w>
Красно дар
д ж</w>
Пере д</w>
P ro
цер кви</w>
город ских</w>
уточ нил</w>
ку ри
ло жен</w>
привле чь</w>
перево д</w>
оказа ть</w>
Twit ter</w>
све т</w>
Ре зульта
прибли зи
ва ющий</w>
Констан тин</w>
эффектив но</w>
ша й
2 4
ре за
про даже</w>
прилож ении</w>
Болга рии</w>
пе даго
Международ ная</w>
тури сти
осно вания</w>
ю го</w>
от кло
право м</w>
фина л</w>
с ный</w>
влен а</w>
нач нется</w>
д ка</w>
С вобо
учре жден
за каз
П К</w>
диа лог</w>
ли зация</w>
пенси оне
участи и</w>
контрак та</w>
o g
пред ставлен</w>
ре зиден
ac k</w>
води ть</w>
Спарта ка</w>
начи ная</w>
га ет</w>
повы шен
целе сообраз
А ссоциа
Восто ке</w>
показыва ет</w>
кон фи
я н</w>
Дру гие</w>
Сотрудни ки</w>
то ва</w>
вой ска</w>
ка жды
Ру мы
област ной</w>
опы том</w>
инициа тив</w>
ти ту
смар т
О соб
находя щихся</w>
темпера тура</w>
тель ница</w>
Л ав
на пи
ен ной</w>
сообща ют</w>
заклю ченных</w>
в скоре</w>
та цию</w>
. php</w>
со ору
дальней шем</w>
провин ции</w>
T im
россий ском</w>
пробле мам</w>
соче та
нуж ны</w>
предвари тельным</w>
До м</w>
н ра
Необходи мо</w>
государствен ные</w>
украин ской</w>
хо й</w>
социаль ные</w>
щен а</w>
то рии</w>
Афри кан
С порт</w>
ме л
под нима
ре ж
выро с</w>
С ла
право защит
Ко ло
представи л</w>
использо вании</w>
Вен г
сооб ра
большин ства</w>
выс шем</w>
ба ров
ор дини
ти зации</w>
да ния</w>
партне рами</w>
ро ли
поста вок</w>
Доб а
хва тает</w>
воз му
я ви
при ста
чи ли</w>
тя ж
ща яся</w>
о гонь</w>
струк тура</w>
учиты вать</w>
до сро
прав у</w>
разработ ку</w>
роди тели</w>
име л</w>
ссыла ясь</w>
b er
ре в</w>
тер ы</w>
россий ская</w>
сооб щений</w>
спосо б</w>
спу т
мене дже
пла н
B C</w>
рассмотр ению</w>
сло вами</w>
республи кан
Зако на</w>
E R
О де
И е
использу ется</w>
под ряд
го л</w>
приня тые</w>
у тра</w>
а ук
u e</w>
и н</w>
оста лось</w>
во шли</w>
Но вой</w>
но сят</w>
полу чает</w>
предвари тельной</w>
б ла
ста дии</w>
Ира на</w>
имуще ство</w>
инвести ции</w>
Б ос
би ть</w>
оста нется</w>
части чно</w>
в ке</w>
ши на</w>
чита йте</w>
ве дут</w>
Жен щи
соответству ющими</w>
не от
обеспоко енность</w>
th er</w>
генераль ный</w>
лик види
по са
обсу ждение</w>
кад ров</w>
s oci
гла вой</w>
испол ня
во к
хо че
най ден
основ у</w>
ви ков</w>
о ставля
сказа ли</w>
нача лась</w>
рассмотр ении</w>
по ст
от ка
ти те</w>
попы тки</w>
информа ционных</w>
Б ор
х ен
оконча ния</w>
п лей</w>
пра ши
юрис дик
Боль шин
глу б
появи лся</w>
Таи лан
потреби телей</w>
зо н
украин ского</w>
све та</w>
предела х</w>
здоров ье</w>
в ку
м об
э коно
в ного</w>
ti m
москов ского</w>
t u
науч ных</w>
рован ным</w>
расска зыва
ма ги
на столько</w>
пи ра
i k
ду ш
счаст ли
архи тек
об зор
ни тельно</w>
спо собо
чинов ники</w>
Че мпи
Ч ис
эфи ре</w>
Я ку
дру же
эк спорта</w>
Ан тон</w>
з доро
Те х
зна ний</w>
появи тся</w>
ва сто
спро са</w>
международ ному</w>
ни т</w>
стра нице</w>
от каз</w>
раст ет</w>
a ted</w>
пози ция</w>
характери сти
у тра
S p
в ведения</w>
увер ены</w>
ко вым</w>
ле чение</w>
сконча лся</w>
структу ру</w>
напад ения</w>
сен су
мир ного</w>
ль ского</w>
стро й</w>
иде и</w>
у де
состоя лась</w>
е ц</w>
не су
зна я</w>
ЮНИ СЕ
ак тов</w>
пассажи р
сбо р</w>
сох ранения</w>
обу чение</w>
претен зи
З ак
подтвер дили</w>
ска чать</w>
това ры</w>
эпи зо
us t</w>
ЮНИСЕ Ф</w>
a te
зри телей</w>
ве личи
вопро сом</w>
Та тар
бар ди
цер ков
руководя щих</w>
беспо ряд
право вых</w>
т ров
зи ть</w>
ству ющие</w>
ар мей
совер ша
по смотреть</w>
подтвержда ет</w>
област ного</w>
ent s</w>
фили а
верну лся</w>
пе ше
сть десят</w>
лич ных</w>
комисса ра</w>
ation al</w>
сла ва</w>
в ходя
Националь ной</w>
разно образи
настояще й</w>
призна ет</w>
в зы
обеспе чении</w>
запи си</w>
закон ы</w>
важ ды</w>
сани тар
за м</w>
му ль
вро де</w>
о сторо
наз вать</w>
свидетель ствует</w>
пожа ра</w>
у ступи
рабо той</w>
и ной</w>
пользо ваться</w>
пыта ются</w>
участ ков</w>
удовлет вори
ме да
сфер у</w>
террори змом</w>
кон тинен
й ста</w>
работо да
особен ности</w>
ника кой</w>
постепен но</w>
ги н</w>
ядер ной</w>
парла мента
до ходы</w>
ра совой</w>
кра е</w>
реги он</w>
потер и</w>
оте ц</w>
поддержа ть</w>
се риа
уча сток</w>
аре ст</w>
соответству ющей</w>
Волго гра
ресур сами</w>
вы воды</w>
мир ных</w>
м ные</w>
се л</w>
неде ль</w>
предусмотрен о</w>
стре е</w>
в ни
тив ном</w>
А м
по правок</w>
На и
на вы
ю би
Ин доне
пе р</w>
про явля
международ ный</w>
до пу
оста льные</w>
На до</w>
в ной</w>
са да</w>
общи н</w>
жи вет</w>
О пера
рас стоя
обли га
плю с</w>
да н</w>
Вене суэ
кон сенсу
об ру
террористи ческой</w>
Крас нояр
ност ям</w>
эле ментов</w>
показа л</w>
культур ных</w>
i e
про пу
В ра
доклад чик</w>
дости жение</w>
выясни лось</w>
сты е</w>
веду щих</w>
чу к</w>
ри т</w>
по ведения</w>
In ter
Я нуко
перево зок</w>
я вление</w>
бое при
ль ский</w>
л ли</w>
же ле
высо кий</w>
Большин ство</w>
от ходов</w>
рас т</w>
s k
ак три
Ген на
ро ванием</w>
каза лось</w>
парла мент</w>
во сть</w>
собеседни к</w>
иска ть</w>
воору жений</w>
Ко лумби
ла я</w>
Н К</w>
опас ных</w>
ме сторо
хоте лось</w>
медицин ского</w>
двадца ть</w>
живу т</w>
мо к</w>
п р
тель ствах</w>
у жа
правитель стве</w>
ру ках</w>
ступ ление</w>
у важ
Тур ция</w>
мо я</w>
харак тер
ли л</w>
влен ных</w>
Европей ский</w>
Департа мента</w>
гибе ли</w>
наблюда телей</w>
до жд
празд но
ко рей
доро ге</w>
Ан на</w>
тре во
реши ла</w>
упра влении</w>
оста лся</w>
ту рой</w>
у дар
организа циям</w>
двухгоди чный</w>
о пять</w>
е вич</w>
компа нию</w>
отказа лись</w>
Кон го</w>
конкурен ции</w>
ша ги</w>
Евг ения</w>
ic e</w>
г ры
сче ту</w>
да вать</w>
се реб
Исла м
круп ные</w>
скоро сть</w>
чита ть</w>
m ar
вл ениями</w>
П А</w>
Демокра тической</w>
те ма</w>
не прия
услови и</w>
смы сле</w>
Ассамбле ей</w>
неожи дан
ле ген
ни те</w>
Комите том</w>
совер шении</w>
В стре
жиль е</w>
го дам</w>
теа тра
ЮН КТА
Институ та</w>
мето ды</w>
ш ка
ЮНКТА Д</w>
мор ского</w>
бы вает</w>
моб или</w>
К ХЛ</w>
o k
ст ся</w>
авто ра</w>
до ли</w>
А Т
ча ются</w>
кан чи
созда вать</w>
c ap
убий стве</w>
остров е</w>
Ро ман</w>
Сло ва
Ин те
кандида та</w>
емы ми</w>
сте н</w>
то п</w>
по рации</w>
О че
Жене ве</w>
официаль ной</w>
смер ть</w>
D e
у воль
показа ть</w>
Ки ева</w>
графи и</w>
ви ну</w>
Ки ев
треть ем</w>
вза им
писа ние</w>
треть его</w>
за тро
ко во</w>
у стро
сбор ную</w>
ро вок</w>
взры ва</w>
лич ные</w>
чи ком</w>
ра си
по ставить</w>
политиче ским</w>
пад ения</w>
прове дет</w>
ков ского</w>
с мяг
не достаточ
Амери ке</w>
энер ги
над зор
Л Ь
ж ки</w>
о во
бо ры</w>
К ру
судеб ной</w>
полу ченных</w>
Да ни
Х ри
де ть</w>
f f
т кой</w>
кров и</w>
выгля дит</w>
благо твори
пользо вания</w>
стро го</w>
Лондо не</w>
пыта ется</w>
узна ть</w>
ка кая</w>
p m</w>
ри ей</w>
при лага
Сове ща
перевоз ки</w>
меньшин ств</w>
ва ль
участ нику</w>
потреб ления</w>
пере пи
Из вест
ну тся</w>
времен ного</w>
мини стром</w>
призна ть</w>
ь те</w>
Gr oup</w>
опла чи
собствен ной</w>
ти ями</w>
ф она</w>
защи та</w>
ы х</w>
зача стую</w>
ст рен
озабочен ность</w>
ро к
деся тки</w>
ма шину</w>
спортсмен ов</w>
об мен
Си би
министер ство</w>
заме дли
ключе вых</w>
ОБ СЕ</w>
назна чен</w>
террори зма</w>
эконо м
10 .
бри га
сокра тить</w>
ю сти
Кита е</w>
веде тся</w>
вши ми</w>
член а</w>
Япо ния</w>
секто р</w>
фор ма</w>
бое вых</w>
предложи ли</w>
О жида
режиссе р</w>
ме мо
простран ства</w>
чис лу</w>
л лю
Подроб нее</w>
по един
продолж ение</w>
Запад ной</w>
TRA NS</w>
мен ту</w>
зву ча
стра и
боль нице</w>
Вы со
пред ше
продолжа ется</w>
прео доле
дет ских</w>
це лый</w>
пообеща л</w>
строитель ству</w>
но ри
o t</w>
ФА С</w>
в ступления</w>
право слав
внеш ней</w>
ни ж
Д жи
m e
Гри го
луч шим</w>
ва го
Р обер
квали фикации</w>
содержи т</w>
мат чах</w>
ne t</w>
ло го
у ти
по стави
буква льно</w>
прове ла</w>
il l
ст ской</w>
суще ствуют</w>
миро твор
Т вер
простран ство</w>
обще стве</w>
сер ва
о пол
s .
штра ф</w>
зо й</w>
те мы</w>
тен ни
сле жи
сред ней</w>
пер вен
С ы
моло до
виде ть</w>
измен ение</w>
пар к</w>
е вре
Анг лии</w>
Австра лии</w>
пар у</w>
на ше</w>
из бран
вше му</w>
необ ы
вя з
Испа ния</w>
поко ления</w>
не лега
ру ющие</w>
види м</w>
но п
д важды</w>
поли цию</w>
й ский</w>
фестива ль</w>
ходи л</w>
предлага ют</w>
ме ча
ви ки</w>
н ью</w>
фици ен
э по
ка дро
Догово ра</w>
й ного</w>
о дина
матер и</w>
эф фициен
вай п</w>
N ov
резолю ций</w>
поощ рения</w>
кну ть</w>
А ли
воз действие</w>
демокра тии</w>
выпу ск
д жа</w>
С о</w>
Сле дует</w>
фир мы</w>
опера тивно</w>
са мая</w>
семь я</w>
ри ск</w>
Од на</w>
мо раль
устра и
е мую</w>
процес сов</w>
благо дар
Се васто
V I</w>
Р С</w>
конкур с</w>
Лу ган
у крепи
источ ника</w>
ва ющей</w>
ком муни
упра влением</w>
о скор
Ан то
Р О
сле дить</w>
экономи ка</w>
сет ях</w>
E x
иде я</w>
до вери
дости чь</w>
до пин
при ва
ру емых</w>
хо тим</w>
установлен о</w>
возмож ные</w>
провод ятся</w>
мину те</w>
рабо ти
А ра
до ль
пыта лись</w>
ны не</w>
вра чи</w>
мест ной</w>
Дже й
участ никам</w>
ско ро</w>
опла ты</w>
ке ль</w>
же к</w>
предприя тие</w>
Реги ональ
авто ров</w>
ри н</w>
действу ющих</w>
в шую</w>
ва ю</w>
Дени с</w>
д вор
Вяче слав</w>
регу ля
поме щений</w>
e ar
из ба
С во
Бе л
распростра ня
практи ка</w>
па ль
выпол нить</w>
вра та
Пред полага
Ки ров
Ж К
получа т</w>
l ine</w>
попа сть</w>
ло ка
совеща ний</w>
за служи
во куп
О но</w>
юсти ции</w>
шко лу</w>
креди тов</w>
Д ва</w>
ко лон
де те</w>
Ха баров
провер ка</w>
суд ья</w>
подразде лений</w>
о пу
те ло</w>
Л О
д ре
По том</w>
состоя лся</w>
прода жу</w>
по ни
ня ми</w>
Т Е
2 6
бро н
глав у</w>
име ются</w>
Г ви
Комите ту</w>
персо нал</w>
пред поч
разме щения</w>
охра не</w>
Э н
те ме</w>
Хо ро
чемпи он
воен но</w>
ра н</w>
по ставля
W or
мето ди
тр л
регуляр ного</w>
ча ми</w>
Сторо ны</w>
Ко ман
теа тр</w>
ло м
важ ную</w>
четвер той</w>
неправитель ственных</w>
бы стрее</w>
рефор м</w>
раз ы
т ли
сня ть</w>
шта ба</w>
с ны</w>
принци п</w>
A m
удо воль
сотрудни чать</w>
гене ра
вос ьми</w>
субъек тов</w>
о держа
чи е</w>
уда стся</w>
за ла</w>
жи л</w>
ду мы</w>
d s</w>
ка фе</w>
пи аль
грози т</w>
судь и</w>
взы ска
б рь
ст ные</w>
озна коми
об щая</w>
игро ки</w>
пу сть</w>
переда ть</w>
Аи Ф</w>
ща ют</w>
цион ном</w>
ми ссий</w>
Ка и
созда на</w>
вы зыва
Ж у
Д НР</w>
прокуро ра</w>
рь е</w>
табли це</w>
серьез ных</w>
Ч П</w>
f e
вы вод</w>
вспо м
а ль</w>
не большой</w>
национа ли
ка кую</w>
ку льта
Пу ш
времен а</w>
Л ь
не достаточно</w>
Слу ж
ве ден</w>
Ч М</w>
Пре сс</w>
h as</w>
б лю
позволя ют</w>
акти визи
гла за</w>
Ж Д</w>
тель ному</w>
памя т
заме тил</w>
А эро
пад ение</w>
реали зу
И Г</w>
воро т</w>
S h
стви й</w>
независи мо</w>
К ла
американ ские</w>
плани руют</w>
бер г</w>
ку х
цве та</w>
за канчи
футбо ла</w>
любо е</w>
уг ле
прово ка
Евро союза</w>
теле кана
группи ровки</w>
установ ки</w>
еха ли</w>
ь ер
перспек тивы</w>
Йор к</w>
201 9</w>
Департа мент</w>
рабочи е</w>
рова я</w>
американ ский</w>
принци пе</w>
ка ком</w>
рус ского</w>
ров ке</w>
Ш о
предпринима телей</w>
отде ление</w>
лан дия</w>
по ва</w>
р ного</w>
моло дой</w>
голов у</w>
раз ум
На деж
мигра н
ж дут</w>
пере числен
ло ги</w>
Пе сков</w>
участ ка</w>
вы шла</w>
провод ят</w>
очевид но</w>
соверши л</w>
эк спо
мор ской</w>
секретариа т</w>
действу ют</w>
исследо вание</w>
е к</w>
s o</w>
све те</w>
в друг</w>
По ч
упра влению</w>
визи та</w>
су ток</w>
кра со
не ра</w>
за пас
поя сня
гене рал</w>
коман дой</w>
кон гре
мест у</w>
ду хов
пла сти
попа ли</w>
en d</w>
ст ка</w>
муниципа льных</w>
му со
дру гую</w>
приве дет</w>
ги на
под ви
много е</w>
эффектив ной</w>
хоро ший</w>
писа ть</w>
Ф ут
определен ные</w>
Ман че
вы воду</w>
пере смо
се й
ч ному</w>
маши на</w>
зда ний</w>
Си ти</w>
секретариа та</w>
праздни к</w>
с прос</w>
па кет</w>
с кла
послед ней</w>
ля ют</w>
C or
О м
re f</w>
вы ставки</w>
Т ра
Р од
Локо мо
Ру би
ядер ных</w>
професси она
пол ный</w>
устано вления</w>
указа но</w>
C O
сотрудни кам</w>
рован ная</w>
резолю цией</w>
обстоя тельства</w>
ay s</w>
Националь ный</w>
работа ющих</w>
мер но</w>
M a
фон дов</w>
проис ходя
ги й</w>
от клю
уров нем</w>
соответству ющего</w>
П ло
тиче ским</w>
юриди ческих</w>
а ф
Ко рея</w>
ре спонден
пре д</w>
то в
и ми
Да ге
масшта бов</w>
К А</w>
к стати</w>
нынеш нем</w>
за прос</w>
институ т</w>
сси он
М еди
Ла т
полови не</w>
авиа компании</w>
музе я</w>
включа ть</w>
акаде ми
современ ных</w>
поме щения</w>
Add .1</w>
объясни л</w>
несовершенно летних</w>
грани цу</w>
w i
Брю ссе
борь ба</w>
за ранее</w>
н ном</w>
све то
без работи
спе кти
Совет у</w>
страхо вания</w>
футбо л</w>
кра е
ли ли</w>
полож ениями</w>
че б
пробле мой</w>
re m
ди рек
навер ное</w>
И ли</w>
щу юся</w>
o s</w>
над зор</w>
задержа ны</w>
дол г</w>
эк стрен
кварти ру</w>
проз ра
es s
Чис ло</w>
заболе ваний</w>
само летов</w>
Ал тай
res s</w>
на оборот</w>
фу н
дости жению</w>
с верх
ос во
прекра тить</w>
зав тра</w>
Конферен ция</w>
по просил</w>
церемо нии</w>
Россий ские</w>
нача льно</w>
з вание</w>
государствен ный</w>
по й</w>
воспользо ваться</w>
наимен ее</w>
Еги пе
болез ни</w>
й ной</w>
и ных</w>
экономи ческим</w>
вед ений</w>
принад ле
мат чи</w>
выну ждены</w>
пла нах</w>
пар ен
партнер ства</w>
материа ле</w>
насе ленных</w>
Ф К</w>
указа нных</w>
пере смотрен
луч ший</w>
ви ло</w>
до чь</w>
долла ра</w>
при держи
гражда нам</w>
ство вала</w>
изу чения</w>
выступа ть</w>
ада п
ти ло</w>
Иль я</w>
м ный</w>
ен ным</w>
служи ть</w>
собствен ных</w>
ста тей</w>
Си м
Су ще
рубе жом</w>
ри ска</w>
пол ков
Со ответ
Шве ции</w>
Экономи ка</w>
ха м
ва й</w>
и поте
раке ты</w>
Не сколько</w>
Кана ды</w>
име ющихся</w>
стра ной</w>
профила кти
ai d</w>
T o
со проти
от ста
занима ются</w>
предотвра щения</w>
добы чи</w>
ссо м</w>
кар то
Поль ши</w>
про информи
тер пи
гру зов</w>
h ref</w>
ин ди
шен а</w>
при мут</w>
институ циональ
заби л</w>
ло е</w>
en ce</w>
три дца
доба вить</w>
зая вляет</w>
испыта ний</w>
в ведение</w>
R ussi
организо вать</w>
распоря жении</w>
на значи
тель ских</w>
И о
Му ж
граждан ства</w>
возвра щения</w>
го сла
фору м</w>
памя ть</w>
Р ез
вы стре
моск ви
ря ет</w>
жен ные</w>
ou ld</w>
моби лизации</w>
ле ва</w>
х ристи
оказа ться</w>
труд ности</w>
приве ло</w>
привле чения</w>
пусти л</w>
u ters</w>
участ ником</w>
миро вых</w>
т. д.</w>
прекра щения</w>
обстоя тельств</w>
ог не
ст ной</w>
игра ют</w>
р ении</w>
буду щих</w>
со на</w>
потребу ется</w>
Анд ре
а пелля
an g
тив ными</w>
по прежнему</w>
ги м
ря ды</w>
Т ан
пере чис
тури зма</w>
ПР О
у строи
жа н
r e</w>
использо ваться</w>
пребы вания</w>
эле менты</w>
бур г</w>
шан сы</w>
С вер
да вления</w>
определен ных</w>
Ирку тской</w>
интере су
ба зу</w>
возмож ным</w>
прогно з</w>
Ну жно</w>
вод ных</w>
д ве
об щие</w>
Швейца рии</w>
зо на</w>
результа том</w>
А ле
созда н</w>
помога ет</w>
Гра ждан
прош ло</w>
По жа
пропаган ди
шко лах</w>
А ЭС</w>
мень шей</w>
оф ф</w>
Лат вии</w>
Кари б
буд то</w>
Н и</w>
ност и
Рос бал
зая влений</w>
жи е</w>
конферен ция</w>
рейтин г</w>
мор ских</w>
полови ны</w>
взно сы</w>
использу ются</w>
с ъем
по пол
мили ции</w>
различ ными</w>
приня тии</w>
ма лых</w>
лабо рато
от чет</w>
i o</w>
Спе циали
Поли ция</w>
Ф ору
принци пиаль
гла в</w>
снизи ть</w>
Финлян дии</w>
постано вление</w>
Леони д</w>
иде аль
утвер жден
тен си
ж ная</w>
Про бле
жи тель</w>
ЖК Х</w>
д лов
хи и</w>
зе млю</w>
пыта лся</w>
ден а</w>
Секретариа та</w>
фрак ции</w>
прину ди
подгото вить</w>
про бе
та н</w>
се р</w>
рен а</w>
петербур г
зда нии</w>
жд ением</w>
на в
цион ными</w>
контро лю</w>
обяза ны</w>
на став
раз решение</w>
орга нам</w>
стоя т</w>
ль я</w>
высо кие</w>
женщи нами</w>
точ ка</w>
Вашинг тон</w>
мэ р</w>
взя л</w>
обо й
ры бо
авто мобили</w>
Ни ге
массо вых</w>
ть ев</w>
луч шие</w>
генераль ного</w>
оста льных</w>
о ра
по ток</w>
г ин
ac h
нача лся</w>
сло м</w>
Ир ландии</w>
защит ника</w>
Е дин
Re uters</w>
тю ре
шан с</w>
теле канала</w>
удосто вер
о ли
женщи нам</w>
работа ла</w>
лиц ом</w>
вырос ла</w>
сосе д
успе х</w>
бо л</w>
следова тели</w>
сдела но</w>
жало бы</w>
Соб я
соблюд ение</w>
в ных</w>
ма лы
ске т
успе ха</w>
трл н</w>
докумен тации</w>
ограни чений</w>
мо на
Ан жи</w>
го ль
по иско
с ъез
напра вл
порта л</w>
ру к</w>
суд на</w>
Ма ка
е два</w>
го ст
наблюд ения</w>
с нения</w>
эваку и
води теля</w>
С начала</w>
f ound</w>
ба зи
па л</w>
штра ф
по свя
иско рен
грани це</w>
вра чей</w>
Ви ктора</w>
муниципа ли
ра чи
Отме чается</w>
объясня ет</w>
рам ки</w>
комби на
теле канал</w>
иден ти
находи ться</w>
прось бе</w>
реш ено</w>
го сти</w>
ж ным</w>
площад ью</w>
Б и</w>
су ды</w>
оцени ть</w>
Ne ws</w>
бе ру
Пар ла
пред выбор
по дар
устрой ств</w>
ви в</w>
использо ванию</w>
полно цен
об жало
т. е.</w>
мо то
К ы
ле тие</w>
обви нение</w>
у жесто
поступи ло</w>
мину ты</w>
да ты</w>
УВ КБ</w>
дене жных</w>
МВ Ф</w>
железно дорож
5 0
опа са
С ар
фигу ран
взя ли</w>
ки сло
Кана да</w>
разде ле</w>
З АО</w>
Ю г</w>
и ран
пара лле
Егип та</w>
го лу
жерт вами</w>
па тру
причи нам</w>
террори стов</w>
выступ ление</w>
ри ла</w>
нынеш ней</w>
тр я
К э
ска ми</w>
ди те</w>
инициа тиве</w>
скоро сти</w>
oin ed</w>
виде л</w>
вы игры
функ циональ
Бан ка</w>
ье т
Дж он</w>
нача лись</w>
дет ского</w>
оказыва ет</w>
on g</w>
Ph one</w>
В С</w>
со рок</w>
пол ное</w>
у с</w>
жа н</w>
ста вок</w>
стано вятся</w>
по ш
Сою з</w>
сообща л</w>
за п
многочислен ные</w>
Фе до
са ли
по строить</w>
бу к
влен ные</w>
И К
Никола я</w>
Па три
ти ке</w>
предложи ть</w>
ведом ство</w>
иде ю</w>
кон центра
ц кого</w>
Секретариа т</w>
ду ющий</w>
ча м</w>
по благода
лен ной</w>
Президен та</w>
ти ться</w>
и щ
роз ни
ка ет</w>
до вер
сво й
друз ей</w>
re qu
пробле мами</w>
ш вей
жи ли</w>
использу ют</w>
поки нуть</w>
прав ки</w>
я тно</w>
пере хода</w>
ф ра
россия не</w>
гаран тии</w>
E N
Слова ки
зая влением</w>
в последствии</w>
ис к
актив ы</w>
ти ны</w>
ша яся</w>
ен ь
ви ны</w>
ж ном</w>
поста нов
са д</w>
рати фици
во де</w>
Та кой</w>
t e</w>
гендер ного</w>
указыва ет</w>
осен ью</w>
Стра теги
от стра
циф ро
К уве
начина ет</w>
сыгра ть</w>
дет ской</w>
зе р</w>
упа л</w>
каждо му</w>
Л ан
экономи ческий</w>
писа ли</w>
тиче ское</w>
сто л</w>
Директо р</w>
участ ке</w>
адре су</w>
Оте че
Миха й
в ред
раз вер
А .
вы несен
разработ ка</w>
распреде ления</w>
обла стей</w>
удовлетвор ением</w>
органи зу
внутрен ней</w>
затра т</w>
ле со
раз обра
Й о
власт ям</w>
Че ч
рус ский</w>
Це ль</w>
не хва
el e
надеж ду</w>
ц ом</w>
ра но</w>
экспор т</w>
фло та</w>
O c
Го во
карь еру</w>
Свет лана</w>
прожи вания</w>
M ic
Лю бо
p ar
транс парен
жур на
фа бри
законо проекта</w>
побе да</w>
инциден та</w>
Стро и
стратеги ческих</w>
ни цей</w>
an k</w>
оста ваться</w>
аук ци
ри сков</w>
нуж на</w>
се ла</w>
наз вали</w>
фо нов</w>
Ва с</w>
Й е
на сило
хоче тся</w>
Д ви
интеллек туаль
ва кан
н но</w>
точ ку</w>
националь ным</w>
тро й
спи ска</w>
глоба льной</w>
бан ке</w>
реконструк ции</w>
м ян
испол нении</w>
заку пок</w>
ребя та</w>
член ом</w>
во ин
П от
ab le</w>
объек та</w>
хоте ла</w>
st r
аспек ты</w>
заинтересован ных</w>
но выми</w>
Эсто нии</w>
ген о
в ные</w>
вой на</w>
но ви
J oined</w>
осно вы
от ца</w>
ш ос
Лав ров</w>
EC E</w>
ро д</w>
кон стати
до ход</w>
турни ре</w>
эксплуата цию</w>
за тя
работ ка</w>
P l
со вокуп
дан ными</w>
прове рить</w>
учены х</w>
Ве сти</w>
разви вать</w>
м бу
зарпла ты</w>
Б У</w>
т ства</w>
ги дро
созда ет</w>
бы вшей</w>
договорен ности</w>
ведом стве</w>
санк циони
види т</w>
администра ция</w>
улуч шению</w>
свидетель ствуют</w>
состоя лось</w>
вше мся</w>
3 ,5</w>
му ж</w>
ня ка</w>
Екатери на</w>
состави ли</w>
дума л</w>
З и
al ly</w>
Ю лия</w>
про ходить</w>
разору жению</w>
следу ющее</w>
хи н</w>
w n</w>
Ни же
те рии</w>
пол тора</w>
ис ходя</w>
лу ю</w>
стан ций</w>
ин тенси
вы нес
еди ниц</w>
вра ч</w>
лидер ы</w>
CN .
ко эффициен
ста ро
B r
от зы
вой не</w>
много м</w>
нра вится</w>
чемпи он</w>
намер ена</w>
A T
с ное</w>
се к</w>
Н ХЛ</w>
вто рая</w>
L e
ве ла</w>
е ю</w>
разде л</w>
Глав ное</w>
М Е
недо воль
называ ется</w>
РА Н</w>
б рас
собствен ные</w>
С пра
на силь
Олимпий ских</w>
реали зацию</w>
Са ма
инициа тиву</w>
Че л
Стои т</w>
теле фон</w>
владе лец</w>
Бю ро</w>
Стои мость</w>
пи ще
На ши</w>
клу бов</w>
пенси и</w>
1 10</w>
ли ю</w>
соответ ствие</w>
тех ника</w>
B o
в шем</w>
широ ко</w>
перспек тиве</w>
H o
пар ков
Дж ор
полу чении</w>
Сол н
om e</w>
пи сы
жен ный</w>
косми ческой</w>
Информа ция</w>
вклю чения</w>
Лю д
y s
би леты</w>
т ному</w>
раз или</w>
ai l</w>
по э
Пер вая</w>
культур ного</w>
спе ци
де пози
роди лся</w>
Де лега
й ских</w>
пе ти
l in
наде ется</w>
Р Г</w>
обе их</w>
си пе
сер тифика
обе з
балан си
кры м
сол не
зем ле</w>
хи ру
Совет ского</w>
el l</w>
В ин
бюдже те</w>
связа нной</w>
дан ное</w>
пер спекти
преступ ление</w>
обсу дить</w>
тель стве</w>
Бе з</w>
прово ци
техниче ские</w>
ва ясь</w>
применя ть</w>
Верхов ный</w>
ва в</w>
Крем ля</w>
выро сли</w>
н ь
О стро
карти ны</w>
Та кая</w>
ошиб ки</w>
воз награ
сопер ника</w>
га л
проек том</w>
у ка
г ности
Л ДП
у те
со мо
Ка кие</w>
претен зии</w>
о пе
совмест ных</w>
заверши ть</w>
работ ке</w>
ме д</w>
мо ли
ру ем</w>
Бы ли</w>
выпол нению</w>
буду чи</w>
х уже</w>
1 .</w>
Манче стер</w>
держ ки</w>
игро к</w>
ложи л</w>
об работки</w>
Че твер
в ступа
аре ста</w>
ма гни
ре с</w>
анали зи
те бе</w>
ig ht</w>
си бо</w>
Д О
же л
фай л</w>
понима ния</w>
филь мов</w>
Ле бе
пу ль
да ст</w>
из ве
грани ц</w>
штра фо
Ф О</w>
организо ванной</w>
игро ка</w>
Ад вока
маги стра
опера цию</w>
повест ку</w>
участво вали</w>
зо ну</w>
предусмотрен ных</w>
4 0
ар гу
t on</w>
пред ска
Ли вии</w>
бро са
Ф ло
гри вен</w>
со ч
стар ший</w>
нд и</w>
руководи тели</w>
бы вших</w>
отде льные</w>
готов ность</w>
пора жение</w>
Ирку т
ра ться</w>
ков ский</w>
рова лись</w>
ен ности</w>
люб ви</w>
ва емые</w>
объеди нения</w>
ю щаяся</w>
б рази
те ми</w>
зна ем</w>
ве сной</w>
Ц и
крат ко
ди ю</w>
рен ы</w>
за вери
влия ния</w>
Ф у
обо их</w>
эффек т</w>
Гер це
числен ности</w>
инф ляции</w>
секрета рем</w>
Государ ственной</w>
вы брать</w>
Муж чи
един ственный</w>
и стре
зна ния</w>
тин ген
ec t</w>
ст ров
специали ст</w>
ва ющего</w>
Спра ведли
х ранения</w>
тр у</w>
показа ния</w>
ак ты</w>
споко и
ту ет</w>
север о</w>
законодатель ством</w>
Иго ря</w>
значи тельной</w>
получа ется</w>
вклю чены</w>
Ли бе
Восто ка</w>
встре ч</w>
метра х</w>
Куз не
бе зна
След ственного</w>
от слежи
ба я</w>
начина ется</w>
голо са</w>
Ро сте
О ко
an t</w>
Герце го
хо ждение</w>
фи ло
цен три
функциони рования</w>
цен тры</w>
пожалу йста</w>
Ру ан
шос се</w>
Си рий
у шел</w>
интер нете</w>
у лы
обрати лись</w>
rig ht</w>
тради ции</w>
лич ного</w>
обра з</w>
кварти р</w>
В ТО</w>
ЕНИ Е</w>
А С
ру сали
в ченко</w>
К лин
не по
ак тер</w>
Х ан
бедстви й</w>
от кро
Э ри
произ веден
сче те</w>
Ю рия</w>
об е</w>
п ления</w>
нача лось</w>
це ва</w>
требо вание</w>
до хода</w>
сохра ни
макси му
оз ву
установлен ы</w>
ю ме</w>
Госду му</w>
У лья
ремон та</w>
a in</w>
и на</w>
на много</w>
Каза ни</w>
I X</w>
оппози ционе
лен ного</w>
ше ль
вла д
ше стьдесят</w>
ле ст
ц ы
строитель стве</w>
выигра л</w>
Систе ма</w>
корре к
производ стве</w>
выпол нении</w>
квали фика
концеп ции</w>
ну жен</w>
акаде мии</w>
осуществля ться</w>
выпла чи
Побе ды</w>
Мо ро
част ей</w>
serv er</w>
ЛДП Р</w>
ин струк
сы ла
et y</w>
боепри па
w ill</w>
Экономи ческого</w>
ти п</w>
1 30</w>
филь ме</w>
В ес
M e
маши не</w>
П ис
Локомо тив</w>
на це
З у
заболе вания</w>
Еди ная</w>
предоставля ть</w>
спокой но</w>
мо и</w>
m in
9 00</w>
челове ком</w>
а ссо
До ро
сси ях</w>
Египе т</w>
процес суаль
ру ку</w>
счита ем</w>
води телей</w>
коммер ческих</w>
предме т</w>
современ ной</w>
e y</w>
к ем</w>
валю ты</w>
Кали нин
p ri
за ли
стать ю</w>
из насило
це ден
обла дает</w>
Гос под
тор говой</w>
кон тинген
сцен е</w>
ок купа
с ла</w>
дру гая</w>
тель ской</w>
вл е</w>
опас ность</w>
соревно ваний</w>
улуч шение</w>
ш кин</w>
рын ках</w>
контро лем</w>
а х</w>
смотри т</w>
Tim es</w>
огово р
ки ев
интере сно</w>
сувер ени
при сво
n ational</w>
по бы
Ч Е
веще ства</w>
все сторон
мо его</w>
переда че</w>
язы ках</w>
Ла тинской</w>
ра циональ
солда т</w>
Авто р</w>
природ ных</w>
t d</w>
ко вого</w>
ак ция</w>
несу т</w>
вы ходит</w>
ос ведом
вело сипе
Со мали</w>
в шаяся</w>
коло ни
ку б
до вать</w>
постано вил</w>
турни р</w>
доказа тельств</w>
при част
сами х</w>
воен ный</w>
статисти ки</w>
боль шее</w>
не которым</w>
пла ка
оста н
шен ные</w>
Вели кой</w>
претен ден
u p
Ста р
результа тах</w>
и ллю
Конвен ция</w>
Пари же</w>
территори ях</w>
ро сту</w>
необходи мым</w>
з ме</w>
Ал жи
Е му</w>
с кро
деву шка</w>
ше в</w>
s aid</w>
информа ционной</w>
Б Р</w>
рован ными</w>
те ма
Васили й</w>
стои мостью</w>
в ный</w>
10 00</w>
федераль ных</w>
с на
извест ных</w>
S k
пробле ме</w>
ЕН НЫХ</w>
О Н
площа дки</w>
Б А
предыду щих</w>
массо вого</w>
во дой</w>
о м
мо ду
l l</w>
н ениями</w>
лы ми</w>
возду х</w>
оказыва ется</w>
хоро шие</w>
экономи ку</w>
аль ян
Ие русали
важ ные</w>
Со в
под ъ
фигу ри
приве ден
о ставить</w>
Ма гни
U S
включа ют</w>
Уни версите
тор у</w>
пресе чения</w>
Медведе ва</w>
А каде
сто р
выпол нен
колле г</w>
земле тряс
устойчи вому</w>
комите том</w>
ц вет
у йти</w>
О дним</w>
специаль ного</w>
за действо
Всемир ного</w>
косми ческого</w>
безу словно</w>
журнали сты</w>
региональ ными</w>
тер мина
ну ла</w>
модерни зации</w>
диа гности
д зе</w>
Ре комен
Око ло</w>
эффектив ных</w>
пред писа
ситуа цией</w>
т т</w>
бом барди
жало б</w>
нен ко</w>
аэропор т</w>
ци ви
продук цию</w>
П П</w>
Б ес
ков у</w>
рын ки</w>
Са рато
ре ки</w>
да на</w>
O n
развер ты
запа сов</w>
пере ч
Ста ни
не восто
за строй
СК О</w>
со вест
ю к</w>
д жи</w>
площад ке</w>
при ви
ген директор</w>
Т уни
за менить</w>
заня л</w>
темпера туры</w>
пи сь</w>
во вле
молоды е</w>
про ми
ю но
t op
пар ке</w>
ново му</w>
об народо
счита ли</w>
иск рен
ни цах</w>
s ch
РФ С</w>
согласи лся</w>
А нали
Р У
рова ло</w>
Ста вро
предпо чита
ду ю</w>
пора жения</w>
побе реж
не м
она м</w>
Свер длов
по сту</w>
сов мести
но вич</w>
похо же</w>
Ж ур
у реа
ля ли</w>
последни м</w>
es ted</w>
гуманитар ного</w>
согласи е</w>
г вар
мен тами</w>
ч ка
предложен о</w>
кандида т</w>
сла бы
кон стру
фе й
заклю ча
ри ски</w>
Об щая</w>
расши рить</w>
ня т</w>
от рази
П он
иг нори
ди стан
кило грам
Н И</w>
националь ный</w>
Ал та
высо ким</w>
совмест ной</w>
деву шки</w>
вши мся</w>
сом не
Особ енно</w>
пере кры
На й
смо гла</w>
рассматри вает</w>
высо ких</w>
очеред и</w>
зна к</w>
по ведение</w>
а бо
Допол нитель
Три бу
Де ся
шта та</w>
выпла т</w>
т ках</w>
З О</w>
ра сти</w>
примен ении</w>
На стоя
преследо вания</w>
И м</w>
к ен
телефон у</w>
фан та
.. ..
Пак та</w>
Оле га</w>
По каза
основ ы</w>
с ном</w>
К НР</w>
вше е</w>
запи сь</w>
сто е</w>
Сове те</w>
10 5</w>
инстру ментов</w>
нач нет</w>
по хоро
напра влений</w>
Лука шенко</w>
щен ные</w>
ни сти
И но
друго му</w>
С О</w>
шен о</w>
1, 2</w>
пере ход</w>
ви лся</w>
теку щем</w>
ре ц</w>
фак ты</w>
револю ции</w>
манда т</w>
в пло
ги ган
Феде рация</w>
на дея
при шла</w>
пози ций</w>
договори лись</w>
ну лся</w>
времен ной</w>
направи ть</w>
предупре ждению</w>
Ч ем</w>
Ц Р
энер го</w>
зи на</w>
офор м
i e</w>
ж ени
ше стой</w>
личе ство</w>
опера ция</w>
игра х</w>
о пере
Ю госла
муз ей</w>
пись ме</w>
сы но
ю р
тяже ло</w>
д нях</w>
треть е</w>
П ан
ван ная</w>
зада чу</w>
НА ЦИ
действи ях</w>
вариан ты</w>
Дж о
глоба льного</w>
Мер кель</w>
с мени
утвер ждение</w>
от куда</w>
франц у
порт фе
торго в</w>
ат ло
сро ком</w>
столкнов ения</w>
вре мен</w>
по жи
Ко ордина
Пре ж
Н ОВ
зло умышлен
вы вать</w>
не мало</w>
ст я
патри о
ж ениями</w>
вну три
Цен а</w>
физи ческих</w>
мероприя тие</w>
ще му</w>
И ме
виде ли</w>
ер е</w>
основ ного</w>
задержа ния</w>
Га й
гаран тий</w>
наруш ении</w>
тюрь мы</w>
выска зы
оста ться</w>
Ар сена
диску ссии</w>
сте ре
капита л</w>
лицен зии</w>
получи лось</w>
Д вор
пол года</w>
бан ком</w>
На конец</w>
Кон гре
объя вили</w>
рын ков</w>
у хода</w>
пи н</w>
Од но
де ль</w>
as t</w>
владель цев</w>
воз раст</w>
связа на</w>
Афгани стане</w>
ма ма</w>
нача лу</w>
Э ква
ВВ С</w>
сле д</w>
серд це</w>
земе ль</w>
напря мую</w>
b o
ра цию</w>
рок ко</w>
пере мен
заме тно</w>
лич ной</w>
район ы</w>
Э д
Мос гор
бу х
g l
случай но</w>
ц о</w>
Госпо дин</w>
ну ться</w>
разбира тельства</w>
из де
ц у
бу ты
от каза</w>
призна лся</w>
африкан ских</w>
трагеди и</w>
сообщи ло</w>
пе ви
Консульта тивный</w>
por t</w>
пу т
президен тских</w>
способ ствует</w>
Ч или</w>
на жды</w>
нало га</w>
социаль ным</w>
Су м
Москов ского</w>
осла б
ш ке</w>
колле ги</w>
футболи стов</w>
У читы
не медленно</w>
Ин дия</w>
Норве гии</w>
прокуро р</w>
У чены
види мо</w>
О публико
Донец кой</w>
S e
откры тие</w>
ва шей</w>
г не
сокра щению</w>
прод ю
случи лось</w>
пол ную</w>
сче тов</w>
Р П
чи ться</w>
труд я
Са м
аппара та</w>
гражда нина</w>
серви с</w>
М О</w>
горо ду</w>
откры того</w>
Про сто</w>
Дж он
улуч шить</w>
вы разили</w>
фун да
упра влен
G R
арен ду</w>
претензи й</w>
ч ую</w>
образо ванию</w>
пер ене
воз рос
наруш ениях</w>
эваку а
i Phone</w>
республи ке</w>
пре цеден
контрак тов</w>
ком пенси
ви р
Федераль ной</w>
взры в</w>
Б изне
материа ла</w>
Р ЖД</w>
Тимо шенко</w>
лиде ром</w>
ac k
di a</w>
ПР ЕД
Пис ь
предполага ется</w>
Y ou</w>
деся тков</w>
отве чать</w>
Поз же</w>
голосо вание</w>
рассматри вается</w>
предложи ла</w>
Л И
нен а
Руковод ство</w>
любо вь</w>
фа ми
устано вили</w>
Ан ти
Не извест
кор порации</w>
ру г
мен ко</w>
собира ются</w>
Ко реи</w>
Чемпи она
поез д
ля ется</w>
особо го</w>
А НИ
у мер</w>
те ле</w>
важ ный</w>
W h
взрос лых</w>
b l
приобре сти</w>
специаль ный</w>
вы жи
директо ром</w>
рус ской</w>
Последни й</w>
призна ли</w>
То л
восстано вление</w>
пожа р</w>
бе ль
соблюда ть</w>
откры л</w>
содержа тся</w>
на ции</w>
опти ма
бал ла</w>
влен ной</w>
годо вщи
о де
то вой</w>
Глав ная</w>
сти ческой</w>
отве та</w>
институ тов</w>
ми те</w>
ме сто
спи р
принци па</w>
6 0
форма те</w>
Да лее</w>
пода чи</w>
ба м</w>
кол лега
ба скет
r o</w>
те ром</w>
от кров
лле тен
Юж ная</w>
ти ям</w>
кто ров</w>
барре ль</w>
прода ть</w>
ver y</w>
инциден т</w>
за ставля
доро гу</w>
де лом</w>
ба бу
значи тельные</w>
при ем</w>
перегово рах</w>
по йти</w>
u p</w>
ф ру
U ni
ка над
ско рой</w>
высо ко</w>
незакон ного</w>
Ма лай
жа ться</w>
ти ка
широ кого</w>
англий ски</w>
степен ь</w>
вы те
от мени
Государ ство</w>
Социаль ного</w>
стра хов
се ле</w>
реаги рования</w>
экономи кой</w>
теля х</w>
По доб
учи ться</w>
причи на</w>
украин ские</w>
проек ти
материа л</w>
на бира
ня ют</w>
авто матиче
ЕД ИН
ото бра
на считы
дне вно</w>
последу ющих</w>
из ви
понима ть</w>
политиче ский</w>
автобу с</w>
в следствие</w>
i es</w>
выход ные</w>
с право
винов ным</w>
проведен ы</w>
мероприя тиях</w>
тер е</w>
производ ству</w>
не замедли
ви дом</w>
з му</w>
соответству ющий</w>
гражда нин</w>
аспек тов</w>
глоба льных</w>
дву м</w>
че ва</w>
I .</w>
кон серва
ситуа ций</w>
электро нных</w>
лете л</w>
про дви
моде лей</w>
формиро вание</w>
1 60</w>
Д О</w>
И ор
поли то
Г О
под зем
вс пы
авто ры</w>
чи й</w>
ш тей
Олимпиа ды</w>
авиа ции</w>
эк стра
призна ния</w>
дни к</w>
покры тия</w>
а ка
h is</w>
цело ст
структу ре</w>
сказа но</w>
вид ят</w>
P ar
ЮНЕ П</w>
понима ние</w>
в ском</w>
ча р
при гото
Ме та
администра тивного</w>
реаль но</w>
по все
Евро пу</w>
На де
ш пи
европей ской</w>
лен ный</w>
призна н</w>
Азербайджа на</w>
си гна
призна тельность</w>
по клон
тради ционно</w>
бро ни
подрост ков</w>
Бри тан
Д П</w>
Поль ша</w>
ви к</w>
пи сто
Д Е
необходи мы</w>
дан ная</w>
ru .</w>
Про це
с х
тре ть</w>
народ ного</w>
окру ге</w>
Т ри</w>
ак цен
га л</w>
Пе тра</w>
обраща ться</w>
призна ние</w>
Во ору
процес сы</w>
контроли ровать</w>
Си туа
requ ested</w>
рус ских</w>
С бор
бли же</w>
прекрас но</w>
ть е</w>
транспор т</w>
незакон но</w>
Кон так
силь нее</w>
настояще м</w>
услу гам</w>
ини ции
пря мой</w>
практи ку
В з
бере т</w>
ди ло</w>
Большо й</w>
креди т</w>
законодатель ству</w>
бо л
клу бе</w>
жи д
Донба ссе</w>
дево чки</w>
ре ме
продолжи т</w>
приве ли</w>
зи ди
коммента рии</w>
рован ное</w>
за чем</w>
про би
транспор тной</w>
ди ться</w>
подозрева емых</w>
уголов ных</w>
внеш не
позволи ло</w>
за мени
во дом</w>
да ние</w>
высоко поставлен
ья н</w>
подписа ли</w>
Ожида ется</w>
bu t</w>
представи тельства</w>
Европей ской</w>
д рев
удовлетво рения</w>
ле ра</w>
не известно</w>
из дели
Ко личество</w>
ори гина
вос ста
П лю
скоро стью</w>
д жер
современ ного</w>
ка лен
Учиты вая</w>
Э ль
мэ рии</w>
вопро се</w>
стре бо
вз ор
напра вление</w>
зна л</w>
ро бо
золо то</w>
пере ди</w>
В ьет
иде ологи
il e</w>
соли дар
добро совест
электро энергии</w>
пе в
пациен тов</w>
м ский</w>
име ющие</w>
вариан тов</w>
к лет
cap tion</w>
справедли вости</w>
Кали фор
но чи</w>
де мо
заседа ниях</w>
П И
состави ть</w>
доро жной</w>
возника ет</w>
нала жи
к рова
У твер
О МО
теа тре</w>
пода л</w>
Уста ва</w>
сред ство</w>
до про
ь ем</w>
ба ра
из начально</w>
V II</w>
инициа ти
офи це
природ ы</w>
Арм ения</w>
но у
челове ку</w>
ме тр</w>
начина ют</w>
пи ть</w>
мест ном</w>
Ана ста
Результа ты</w>
ор би
ак цию</w>
че ре
Со вмест
кру г
смыс л</w>
ab out</w>
о пер
экипа жа</w>
Фа культа
концер т</w>
опера тивной</w>
Га и
не измен
о сад
катастро фы</w>
конкур се</w>
доказа тельства</w>
обо зна
конферен ций</w>
При ня
про м
постоян ного</w>
н ском</w>
предоставля ет</w>
по на
of t</w>
по ста</w>
Вы с
физи ческой</w>
Сбер банка</w>
ча сы</w>
предусматри вается</w>
н ка</w>
га ле
s on</w>
примен ением</w>
актив ности</w>
ч кой</w>
вероя тность</w>
год но</w>
рова лось</w>
ОБ Ъ
не которое</w>
пострада л</w>
об я
цен ности</w>
За то</w>
ing s</w>
нало г</w>
заработ ной</w>
Ма рокко</w>
ру лем</w>
ев у</w>
визи он
гон ки</w>
мето до
фору ме</w>
швей цар
ставлен ы</w>
глав ная</w>
гра до
С В
би летов</w>
зна ете</w>
В ан
сты м</w>
лле р</w>
С У
у ст
участ ки</w>
ма т</w>
тем пы</w>
перен ос
ве ж
обра тно</w>
указа л</w>
проведен а</w>
во лон
са мо</w>
угро зой</w>
зада чей</w>
за блоки
За мести
Вашинг то
вой ну</w>
нов ский</w>
да ла</w>
Постоян ного</w>
кла сс</w>
до че
Евро па</w>
a .
официаль ным</w>
за ба
ю ж
Ки тай
бере гу</w>
ново стей</w>
с бы
З вез
президен ты</w>
кар т</w>
отме чено</w>
един ственным</w>
пиш ут</w>
то лко
приро до
Пред лага
коммента риев</w>
ву а
существо вания</w>
выпу ска</w>
жи телям</w>
груп пами</w>
способ ны</w>
под ру
ради о</w>
Саудов ской</w>
п лы
управля ющих</w>
свиде телей</w>
освобо ждения</w>
бри фин
приеха л</w>
у ль
пон рави
. ру</w>
Q u
in a</w>
выступа я</w>
руководя щие</w>
ми ла</w>
под москов
Поли тика</w>
юще еся</w>
вер х</w>
Г С</w>
щи мся</w>
спор тивных</w>
оборо та</w>
корруп цией</w>
от реаги
чинов ник</w>
отде л</w>
выступа л</w>
ситуа циях</w>
А зиат
с ная</w>
осуществля ет</w>
вы ставка</w>
Не ф
L oc
Ф ПА</w>
пере до
198 9</w>
ви лись</w>
рабо чего</w>
протоко л</w>
р ный</w>
прави лам</w>
газе те</w>
позна коми
ч ники</w>
стандар ты</w>
пре ми
сро ков</w>
конкурен то
ля цию</w>
С ти
пользу ются</w>
Да та</w>
по йдет</w>
СИ ЗО</w>
18 0</w>
коне чном</w>
раз верну
произо йдет</w>
насе лению</w>
плате жей</w>
во стребо
р э
Р ан
су гу
объе мы</w>
Ма ла
осно ваний</w>
бло ка</w>
О бе
т ская</w>
посе лке</w>
ци р
полови ну</w>
мест ный</w>
т ти</w>
объек т</w>
M on
пя той</w>
процеду ра</w>
обсу дили</w>
многи м</w>
ст ры</w>
я ть</w>
зарубе жных</w>
is h</w>
Лебе де
де ра</w>
звез ды</w>
внеш них</w>
Те а
государствен ным</w>
тор мо
собствен ного</w>
ок на</w>
режиссе ра</w>
Ира ке</w>
Д Н
U n
A .</w>
ва лен
Чел си</w>
университе т</w>
помощ ник</w>
партне ры</w>
ма стер</w>
Бар нау
взя тки</w>
правоохра ни
ни в</w>
ка меры</w>
ю ге</w>
полага ют</w>
еже меся
воз гора
участи ю</w>
Т ы</w>
Э нер
ва шего</w>
тру д</w>
оконча тельно</w>
Д А
Г К</w>
сообщи ть</w>
Че лове
ЮН ФПА</w>
Влади миром</w>
пу тей</w>
четыре х
доно ров</w>
оста навли
. 2</w>
in de
посети телей</w>
инициа тива</w>
Подмосков ье</w>
практи ку</w>
лег ко
принима я</w>
убежи ща</w>
на ряду</w>
ЮНЕ СКО</w>
свобод ной</w>
от менить</w>
созда ли</w>
наличи я</w>
времен ных</w>
би т
оке ана</w>
постано вляет</w>
о по
щи ками</w>
да ции</w>
поддержа ли</w>
Ка д
програм мой</w>
подроб но</w>
ожида ет</w>
про гу
лич ный</w>
нен ави
жи х</w>
Мак е
ма лого</w>
т то</w>
свобо д</w>
Ва дим</w>
профессо р</w>
прео дол
он у</w>
распо ложен</w>
Цен тро
10 ,
в води
араб ских</w>
ува жения</w>
со действии</w>
со во</w>
непре ры
ги х</w>
у держи
пору чил</w>
кон ди
материаль но</w>
фа куль
призы в</w>
чь и</w>
ме дали</w>
al s</w>
г г.</w>
стади оне</w>
сохран ение</w>
рейтин ге</w>
Сле дова
XX I</w>
бю ллетен
делега ций</w>
се те
ФИ ФА</w>
19 80</w>
уголов ной</w>
На ш</w>
ба за</w>
ма нов</w>
Вто ро
ле са</w>
e .
приня ло</w>
наркоти ками</w>
кур сы</w>
g i
о теля</w>
рекор д</w>
пла ту</w>
наруш ением</w>
д ная</w>
э ми
на нес
на копи
обяза тельство</w>
з ю
ново сти</w>
h ad</w>
Вре мя</w>
При меча
допол нительно</w>
ти лся</w>
расши рению</w>
е мость</w>
компани ями</w>
самми та</w>
о чи
об уча
представи ла</w>
по каж
мест ным</w>
задержа нных</w>
процеду ру</w>
пра вами</w>
сти му
е во</w>
ОБЪ ЕДИН
а зиат
имен а</w>
г ы
Боль ше</w>
Газпро ма</w>
щи кам</w>
ГА Т
сыгра л</w>
Ку бок</w>
насили е</w>
ре пута
право защи
шко ла</w>
рова лся</w>
подчеркну ла</w>
re c
уча щихся</w>
выступи ть</w>
полу ченные</w>
позволи ть</w>
созда ны</w>
россий скими</w>
полож ению</w>
визи т</w>
по сад
же ли</w>
С тре
че е</w>
Б он
Генна дий</w>
с держи
докла ду</w>
процес су</w>
отве тить</w>
С аль
ска х</w>
защи щать</w>
наро ду</w>
c ri
под ходя
но ги</w>
актив ное</w>
Ку ль
журнали ст</w>
Королев ства</w>
работ ники</w>
иностран цев</w>
u t</w>
ней тра
за пла
сторон ников</w>
ре ва</w>
Ближ нем</w>
Ев ро</w>
на против</w>
из вле
жур нала</w>
поки нул</w>
транс грани
Пер во
Авст рии</w>
b or
уничто жения</w>
н г</w>
По со
кодек с</w>
фай ла</w>
магази нов</w>
A ir
т ко</w>
рекомендо вал</w>
ло вой</w>
спи кер</w>
принима ется</w>
за то
за лож
цик ла</w>
фи ни
уча ствуют</w>
Ро са
понима ю</w>
КО МИ
насле дия</w>
Ди а
Го л
it s</w>
затра ты</w>
Брази лия</w>
приве л</w>
к ци
выбо ра</w>
направлен о</w>
остано вить</w>
осу жден
интере со
плане ты</w>
постано вления</w>
на зем
и стин
f e</w>
рак ет</w>
Ве ро
or t</w>
та ния</w>
m an</w>
ду мы
цен тром</w>
T ele
Предполага ется</w>
с су</w>
тя брь
ч ок</w>
седь мой</w>
до ра</w>
Гви не
у бор
Ки м</w>
ди зе
понима ют</w>
эпи де
Е Г
зна ли</w>
С П</w>
О А
секрета рю</w>
арен ды</w>
т ками</w>
объя вила</w>
кру гло
сфер а</w>
финансо вым</w>
извест ны</w>
числен ность</w>
доби ваться</w>
for um</w>
ОБЪЕДИН ЕННЫХ</w>
до пустить</w>
про меж
подо пе
П ес
политиче скую</w>
из ы
адвока та</w>
k s</w>
ЦИ И</w>
Са мар
ата ки</w>
профессиональ ных</w>
внутрен ние</w>
рас стре
прекра щении</w>
проводи ться</w>
Преж де</w>
Ne w</w>
С лов
за рабаты
щи йся</w>
простран стве</w>
Пути ным</w>
у глуб
C E
экс кур
об основан
ж ность</w>
успе л</w>
кра ю</w>
необходи мую</w>
отве ты</w>
осуществ лением</w>
объ един
жда ли</w>
тща тельно</w>
поддержа ния</w>
го ла</w>
националь ными</w>
га ют</w>
Во й
по шел</w>
по чув
дру ж
до ход
го н</w>
при су
o m</w>
га пу
Е же
англий ском</w>
поясни ли</w>
ро ма</w>
продук т</w>
стре лко
откры то</w>
пла та</w>
т с</w>
фай лов</w>
под суди
ad ding</w>
разо ча
проек там</w>
Г де</w>
заклю чении</w>
поис ка</w>
ма хи
ван ном</w>
Р ен
доро го
ли ны</w>
M er
Газе та
ни же
ст ров</w>
связа н</w>
t y</w>
бе ль</w>
еди ного</w>
ОВ Е
Ча сть</w>
Про из
сты й</w>
к ноп
жа х</w>
разме ра</w>
ва вших</w>
га на</w>
выдели ть</w>
настоя щим</w>
Ф Н
би атло
Те ре
Локо моти
ме ль
о форми
совершенство вания</w>
3 3
показыва ют</w>
обстоя тельствах</w>
Швейца рия</w>
поддержи вают</w>
Прави тельства</w>
с су
ла уреа
бума ги</w>
фон ды</w>
Финан со
ри су
прово да</w>
r y</w>
тель ского</w>
ле с</w>
налого об
б ь
рей сы</w>
un e</w>
ос лож
СК А
экологи ческой</w>
Бо ли
вре да</w>
c an</w>
на правил</w>
Москов ский</w>
отды ха
финансо вый</w>
аль бо
реги оны</w>
наблюда ется</w>
от а</w>
О се
по ступления</w>
незакон ной</w>
подо т
хо тите</w>
реализо вать</w>
О Т
Основ ные</w>
Ка пита
y le</w>
совмест ного</w>
и ст
коали ции</w>
собра ть</w>
Учены е</w>
вы йдет</w>
прави ть</w>
бассей на</w>
М .</w>
сем ью</w>
i l</w>
О бы
та ба
отли чается</w>
полови на</w>
пре сти
1 40</w>
Не зависи
б лу
мол ча
О существ
двига ться</w>
Рос потреб
сол н
спо ров</w>
дисципли нар
ме три
музы ки</w>
широ кий</w>
l l
з ины</w>
о чка</w>
уда ра</w>
com m
э р
Э ду
си й</w>
само леты</w>
у слыша
цен у</w>
ра т</w>
Гаи ти</w>
Бель гии</w>
ж ное</w>
покуп ки</w>
родствен ников</w>
oo d</w>
Г ро
ходи ло</w>
ре кти
обра щении</w>
У Е
ря до
зо ва</w>
Ри о</w>
гото вится</w>
футболи ст</w>
ше сти
развед ки</w>
ам нисти
tim es</w>
рати фикации</w>
компани ям</w>
на ка
оказа нии</w>
пар ко
сер де
поез да</w>
ска зыва
Дональ д</w>
авто р
Кан целя
разви тием</w>
шу юся</w>
ли не</w>
НАЦИ Й</w>
уделя ть</w>
многочислен ных</w>
Май к
Мно го
ю ри</w>
выступа ют</w>
доро жных</w>
Раз ви
Генераль ному</w>
ща ться</w>
ви га
появи лось</w>
высо ком</w>
с клады
центра льной</w>
Ч лены</w>
ложен о</w>
доба вляет</w>
Генераль ным</w>
учре ждение</w>
И и
служи т</w>
способо м</w>
докумен тах</w>
митин г</w>
ве чера</w>
принима ются</w>
р гы
жен ной</w>
да ча</w>
Петербур г
мо менты</w>
отече ствен
Ива нов
Интер нете</w>
не избе
ти ков</w>
о гла
Яро сла
разме сти
пар тию</w>
по кол
реб ят</w>
Е ре
само ле
сфе рах</w>
запад ных</w>
Вален тина</w>
вы играть</w>
Ха би
уче т</w>
Афгани стана</w>
тради ционных</w>
образова тельных</w>
be en</w>
ш тур
Т е</w>
F r
хо ва</w>
столич ного</w>
Сте па
f in
предска зу
О Э
связа нным</w>
нача лом</w>
у то
подчеркну ли</w>
ПР А
изу чить</w>
ка ль
представи ли</w>
под лин
та л</w>
форвар д</w>
отде льно</w>
В .
ды ха
за ем
корректи ровки</w>
Кири лл</w>
приме ча
ка ждая</w>
ч ья</w>
докумен та
кажды м</w>
дру гу</w>
поступ лений</w>
со чи
смотр ены</w>
Ка ды
лен ным</w>
влен ный</w>
на вод
сыгра ет</w>
стави ла</w>
моз га</w>
Север о</w>
не редко</w>
тив ному</w>
осуществи ть</w>
алкого ля</w>
ЦИ К</w>
про чего</w>
та бе
огром ное</w>
па дает</w>
по что
ы е</w>
груз ин
рас су
неожидан но</w>
финансо вую</w>
крити ко
Законо да
Ру сла
Н ы
достоин ство</w>
прода вать</w>
Не давно</w>
в двое</w>
un d
Н Е
дефици т</w>
чрезвычай но</w>
диа па
да ра</w>
откры ли</w>
soci ety</w>
ou g
катего рий</w>
ргы з
Эк с</w>
з ли</w>
Во про
p adding</w>
ули цах</w>
та ж</w>
корреспонден ту</w>
Л Е
вше еся</w>
обрати лась</w>
фак торы</w>
си ро
каса ющимся</w>
занима ющихся</w>
впечат ление</w>
высо кую</w>
Ии су
эксперти зы</w>
восстано вить</w>
кост ю
Рос нефти</w>
Королев ство</w>
Отече ственной</w>
Ц ер
либе ра
кон соли
правитель ственных</w>
верси ю</w>
предвари тельного</w>
Гу берна
ба ш
тер пе
Эду ар
основ ное</w>
При н
соревно вания</w>
ре чи</w>
мощ ности</w>
следстви ем</w>
las h</w>
й ском</w>
посоль ства</w>
оцени вается</w>
an ce</w>
ва ши</w>
Согла шения</w>
парти й
мер т
R C</w>
си льный</w>
от ы
рован ную</w>
З им
ко ордини
возмож ностями</w>
u d
приблизи тельно</w>
2 .</w>
мо му</w>
В место</w>
C A
Inter national</w>
специ фи
председа телем</w>
поверх ности</w>
установ лен</w>
само управления</w>
Украи ной</w>
Зем ли</w>
ша ются</w>
подоб ного</w>
соответству ющее</w>
ни кого</w>
не далеко</w>
От ве
Ко рей
те мати
тин г</w>
ag es</w>
впло ть</w>
при ба
исла ми
дополнитель ную</w>
представи телем</w>
Са ака
Бы л</w>
зая вки</w>
присут ствие</w>
юриди ческой</w>
С чита
обяза тель
. u
вне с</w>
Пись мо</w>
постоян ных</w>
лла нд
сталки ваются</w>
двер и</w>
i ti
Це левой</w>
куль туре</w>
напада ющий</w>
с баланси
возмож ное</w>
поясня ет</w>
Ат лан
сексуаль ного</w>
пере йти</w>
отме чая</w>
Мо я</w>
Э лек
привер женность</w>
намер ении</w>
хо вен
оскор б
гражда нами</w>
Че ш
ве рить</w>
и ного</w>
стату се</w>
ю н
Саака швили</w>
референду ма</w>
доро гах</w>
Mic ros
разно образ
Пути ну</w>
украин ский</w>
ж ется</w>
ol d</w>
сум ме</w>
Ша х
о чист
принима ли</w>
истре би
тр о</w>
парламен те</w>
объ единен
прие ма</w>
сообща ли</w>
послед нем</w>
по доро
представлен ных</w>
еже дневно</w>
Пла ни
посе тить</w>
УЕ ФА</w>
подписа ния</w>
Су да</w>
з вен
Ш ан
вырази ть</w>
со зы
Мен я</w>
сла бо
вля ть</w>
шен ной</w>
Ра ди
школь ников</w>
Re v
пита ние</w>
правитель ствами</w>
d uc
замести телем</w>
проведен ных</w>
И де
Влади миру</w>
Тихо океан
при йти</w>
тиче скую</w>
пунк там</w>
женщи ну</w>
ва ющим</w>
х ранение</w>
Коми ссией</w>
Соответ ству
лен ности</w>
га ре
гну ть</w>
И ю
Пер у</w>
4 ,5</w>
администра тивным</w>
чт ении</w>
ail y</w>
И ни
рав ных</w>
количе стве</w>
проис ше
здоров ью</w>
десяти летия</w>
дек с</w>
Улья нов
меня ется</w>
Верхов ной</w>
ст ки</w>
актив ных</w>
компенса цию</w>
секун д</w>
Нава льного</w>
Замести тель</w>
выдви ну
избира тельных</w>
ству я</w>
ш но</w>
север е</w>
Встре ча</w>
пов стан
ги м</w>
л ка
струк тури
Т ар
пред две
са ха
преддве рии</w>
поддержа л</w>
действи тельности</w>
осад ков</w>
Р А</w>
вы ходить</w>
об щения</w>
девя ти</w>
Ту т</w>
м ки</w>
оцен ок</w>
Ассоциа ции</w>
о го</w>
дни е</w>
право суди
посе лка</w>
C l
ри с</w>
ча н</w>
образ у
под де
стре мя
з рева
Ара вии</w>
задол женность</w>
об осно
на шими</w>
молодеж ь</w>
При ложение</w>
кон тр
срав ни
конкре тно</w>
распоря жение</w>
Государ ства</w>
и рак
i an</w>
the y</w>
р ением</w>
инжен ер
изве стен</w>
дальней шей</w>
ш ту
прочи х</w>
направлен а</w>
с на</w>
3 7
об щим</w>
умень ши
ро стом</w>
ба га
Рабо та</w>
en er
А рави
Сооб щается</w>
198 8</w>
З начи
возмож ной</w>
Э К
вось мой</w>
произ во
времен ное</w>
ща ются</w>
вто рую</w>
На пада
Об ла
бу ль
акционе ров</w>
стратеги ческого</w>
ak e</w>
в во
Бо г</w>
серви са</w>
кратко сро
С ка
ли ди
на бор</w>
пер ви
Б ру
приобрет ение</w>
организа торов</w>
положи тельно</w>
дела ли</w>
as h
увер енность</w>
ви жу</w>
3 5
k ing</w>
гуманитар ных</w>
9 0
ation s</w>
о пусти
Ла тви
подели лся</w>
использу я</w>
превы ша
возмож ностью</w>
пенси ю</w>
топли во</w>
От дел</w>
е тесь</w>
э ста
голо с</w>
хими ческих</w>
1, 6</w>
ван ным</w>
те сти
За ха
под разуме
Бос нии</w>
трас се</w>
суд я</w>
проведен о</w>
экспери мента
приеха ли</w>
д ное</w>
d is
л ло
тари фов</w>
квадра тных</w>
т ники</w>
ложи ли</w>
преимуще ство</w>
доклад чика</w>
избира тельной</w>
По ложение</w>
де ш</w>
Р яза
показа теля</w>
она ми</w>
треть их</w>
тель ностью</w>
из уч
отсут ствии</w>
Ан ге
пригово ра</w>
досто вер
В О</w>
возмож ного</w>
Великобрита ния</w>
Норве гия</w>
объясни ть</w>
ком пози
раз реша
p s</w>
ка фе
циф ры</w>
в шуюся</w>
креди ты</w>
Ива нов</w>
Аб ду
совер шения</w>
цен ностей</w>
на па
бюдже тные</w>
на шел</w>
поис к</w>
рейтин га</w>
сы рье
за цией</w>
нынеш них</w>
метр ы</w>
у ра
стра жу</w>
внед рения</w>
i te
со отечествен
Вре мен
серд ца</w>
зав тра
ка мен
выс шего</w>
заня тия</w>
дела х</w>
со един
го вых</w>
Гре ция</w>
нынеш ний</w>
жерт вам</w>
Олимпиа де</w>
пра вя
гла зах</w>
рели гии</w>
при ми
чен ная</w>
1, 3</w>
В первые</w>
распростра няется</w>
сра жение</w>
3 50</w>
смен а</w>
сою зом</w>
Сиби ри</w>
орга ном</w>
D ec
ь ся</w>
государствен ном</w>
ото з
А ла
f i
К П</w>
ен ная</w>
де бю
Кы ргыз
ми т</w>
экологи ческих</w>
не определен
автома тически</w>
Оба мы</w>
B .</w>
трен ер
учеб ные</w>
ou s</w>
ра д</w>
звез д</w>
ра ды</w>
закры тия</w>
К Т
заклю чил</w>
отмети в</w>
О л
На у
то рам</w>
Б ак
ста ет</w>
Шве ция</w>
С пу
обра тить</w>
Австра лия</w>
т ка
пере смотреть</w>
ф у</w>
магази н</w>
опублико вал</w>
религиоз ных</w>
рассчиты вать</w>
анали тик</w>
услу гами</w>
коман до
ис чер
ни ку
деж ур
тиче ском</w>
эконом развития</w>
Па на
w e</w>
Ар ка
говари ва
д ном</w>
у лиц</w>
тридца ть</w>
установлен ных</w>
взаимо действие</w>
полити ков</w>
переда чу</w>
дополнитель ной</w>
по шли</w>
пре ем
ком проми
К лю
доказа ть</w>
пото ка</w>
зна ком
т ском</w>
Ко сово</w>
одно сторон
наде юсь</w>
То м
согласо вания</w>
применя ется</w>
по л</w>
Бори са</w>
друз ья</w>
транспор те</w>
вер а</w>
нен но</w>
ар мия</w>
azaz azaz
re e</w>
активи стов</w>
суд но</w>
собра ние</w>
фак тов</w>
со циали
филь мы</w>
Во обще</w>
шта те</w>
B e
пря мых</w>
исклю чить</w>
М она
техниче ское</w>
воздуш ного</w>
Син гапу
ре цеп
преде лы</w>
спа сти</w>
за ра
Опублико вано</w>
назна чение</w>
од ни</w>
чрезвычай ных</w>
мы сли</w>
ко ра
Ха й
m on
стара емся</w>
друз ь
кру га</w>
в дох
брас ы
C C
следо вание</w>
поддерж кой</w>
лу р
при ся
рассчиты вает</w>
официаль ное</w>
правоохранитель ные</w>
на ступи
Ситуа ция</w>
шта т</w>
укрепи ть</w>
О С</w>
У руг
люд ских</w>
нач нут</w>
Объ ем</w>
нуж ден</w>
прода в
обы чных</w>
консуль ти
прось бы</w>
обнару жены</w>
k e</w>
каза н
МА ГАТ
федераль ный</w>
Ини циа
ран ду
Югосла вии</w>
использу ет</w>
россий ско</w>
собы тие</w>
места ми</w>
реабили тации</w>
Ю ри
ще йся</w>
приходи лось</w>
С А</w>
МАГАТ Э</w>
Э й
ми ло
Г ва
Micros oft</w>
уголов ному</w>
гим на
Ви ль
организа торы</w>
при был</w>
лон до
os t</w>
дета ли</w>
КП Ч</w>
Нидерлан дов</w>
а стро
де ц</w>
щ у</w>
постоян ной</w>
не благоприя
по года</w>
Собя нин</w>
предлож ением</w>
фак тор</w>
перево да</w>
Депута т</w>
ба та
муниципали те
ло гов</w>
An d
защи тить</w>
по ль</w>
ки не
со цио
извест ного</w>
одеж ды</w>
фе ро
Серби и</w>
потребо вал</w>
l es</w>
h or
сред ний</w>
бло к</w>
жи м</w>
Те м
Ши ро
и р
основ ная</w>
ми ть</w>
политиче ская</w>
выда чи</w>
con t
чен ное</w>
Ин циден
разно гла
ст ных</w>
Нидерлан ды</w>
прось бу</w>
переме щенных</w>
чи ла</w>
активизи ровать</w>
аль ти</w>
С ьер
цион ному</w>
федераль ном</w>
увиде л</w>
огне стре
напад ение</w>
выез де</w>
потенциаль ных</w>
Th is</w>
трене ром</w>
Докумен т</w>
от мы
M T</w>
сдела ла</w>
Н А</w>
пя тер
0 ,5</w>
Е го
фе р</w>
бо я</w>
внима тельно</w>
зая вок</w>
увер я
поз дно</w>
ic h</w>
рус ском</w>
под ъез
V III</w>
Поли цей
Ни кто</w>
ОП Е
обща ться</w>
фило со
про ститу
ще гося</w>
остро вов</w>
Центра льных</w>
з ве
значи тельное</w>
но с</w>
сред ствах</w>
боль ных</w>
С ТА
грани цей</w>
O S</w>
отде лений</w>
выя сня
Запа да</w>
На чи
заявля л</w>
дол ь</w>
ген директора</w>
им муни
попы тка</w>
C ol
ш кой</w>
кон тей
p ol
торгов лей</w>
веден ы</w>
не форма
ма кро
расче та</w>
кто ры</w>
им пера
замен ы</w>
стратеги ю</w>
существу ющие</w>
l a</w>
кредито вания</w>
Э фи
к ер
су точ
запрещен о</w>
на бере
предположи тельно</w>
Специали сты</w>
клад би
упа ков
до чер
приводи тся</w>
продук та</w>
определен ы</w>
ведом ств</w>
ля ются</w>
мужчи ну</w>
х ули
ли зацию</w>
комите те</w>
Сле дстви
актив ного</w>
проходи л</w>
вы нужден</w>
есте ственно</w>
ни кому</w>
в прочем</w>
законодатель стве</w>
рассматри ваться</w>
сом нения</w>
до хо
понима ет</w>
ле с
Гра н</w>
боеприпа сов</w>
г ек
Пер вые</w>
леген дар
Ю го</w>
u ro
жерт во
бух гал
вра ча</w>
о с</w>
К ин
ю щуюся</w>
услови ям</w>
Ко ста</w>
не в</w>
общи ны</w>
Дан ные</w>
замеча ний</w>
из обре
ст ены</w>
ва емого</w>
инду ст
позволя т</w>
исполнитель ной</w>
as e</w>
смен ы</w>
цен о
V ol
Не м
выя вления</w>
Га га
сами м</w>
Сбер банк</w>
п то
вы ставке</w>
возвра щение</w>
ве тер</w>
возгла вил</w>
е ги
го на</w>
выясни ть</w>
v e
ду ше
ри аль
вооружен ные</w>
д ро</w>
времен ные</w>
л ени
y right</w>
сельхо з
действу ющего</w>
да та</w>
Строи тельство</w>
чи ками</w>
un g</w>
мест ными</w>
тенден ции</w>
пода ть</w>
поез док</w>
м ным</w>
ма ты</w>
то кси
подгото ви
администра тивной</w>
проф сою
полити к</w>
серьез ный</w>
част ные</w>
прокура туру</w>
ря дов</w>
нен ных</w>
Мат ч</w>
мину с</w>
допол нение</w>
Черно го
ж ными</w>
россий ское</w>
про игры
у н</w>
фрон та</w>
i on</w>
Пра во</w>
стоя ть</w>
лет ним</w>
партне р</w>
A C.
в ская</w>
ве й</w>
осно во
мо ста</w>
с жи
ig n</w>
Узбе кистана</w>
средне сро
возник новения</w>
отсут ствием</w>
народ ной</w>
участво вал</w>
необходи мой</w>
w ere</w>
Т от</w>
жа ла</w>
ли ге</w>
поли цией</w>
догово ры</w>
програм мах</w>
пере ез
так си</w>
крас но</w>
и ные</w>
ви но
Протоко ла</w>
ве к</w>
адвока тов</w>
спосо бен</w>
стаби лизации</w>
Инциден т</w>
ul t</w>
а ссамбле
Сьер ра</w>
судеб ные</w>
за мо
широ кой</w>
ответствен но</w>
H e
об а
та щи
бо я
при з</w>
Ле оне</w>
рекла мы</w>
стар ше</w>
ден циаль
в лек
эффектив ное</w>
собствен ность</w>
сы па
Минфи н</w>
процен т</w>
Баш ки
гра на
де ли</w>
co p
лагер я</w>
се рию</w>
переда ч</w>
куль п
кур сов</w>
Запа д</w>
дела ется</w>
ск ло
ве се
авари й
У э
дне стров
Ба х
про ще</w>
ы й</w>
нагруз ки</w>
Я ко
ст ет</w>
Ho tel</w>
па спор
ня ться</w>
По до
Та бли
F A
в виду</w>
активи зации</w>
Клин тон</w>
Хар ь
призна ку</w>
пен альти</w>
а ван
европей ские</w>
Афри ка</w>
стаби льность</w>
лет нюю</w>
Наи более</w>
составля ла</w>
Во ди
Сбор ная</w>
запре та</w>
С у</w>
ма р</w>
о ставил</w>
на ту
s m
ж юри</w>
жиз не
феде ра
зако не</w>
аппара т</w>
фа ши
дальней шее</w>
д ным</w>
K e
жи й</w>
близ и</w>
ч ом</w>
8 0
по годы</w>
м ное</w>
ри со
серьез ную</w>
Хо л
аресто ван</w>
лич ность</w>
ло ша
T r
наде емся</w>
к са
R E
П Л</w>
н ская</w>
вос ходи
продоволь ственной</w>
повре ждения</w>
выпу ск</w>
Сен т</w>
трас сы</w>
F in
ор ке
круп ном</w>
дума ли</w>
ки стане</w>
граждан ство</w>
владель ца</w>
G u
россий скую</w>
Ана логи
по ставил</w>
стреми тся</w>
ш вед
3 4
дополнитель ного</w>
приорите тных</w>
мета лли
Кариб ского</w>
Тур к
Ли дер</w>
теле ви
последу ющей</w>
за бро
На вер
Извест но</w>
уров ней</w>
воз ро
нужда ется</w>
сторо ной</w>
ра ско
П С
гу а</w>
пор тре
дет ский</w>
объясня ется</w>
h er</w>
жда ют</w>
ad e</w>
служа щих</w>
A c
вед ению</w>
стади она</w>
учре ди
гра д</w>
кар ту</w>
си лой</w>
тра ги
равен ство</w>
ЮНИ ДО</w>
отсут ствует</w>
Го лы</w>
моно поли
Уголов ного</w>
получи тся</w>
промышлен ного</w>
бума г</w>
при стра
покупа ть</w>
целе вой</w>
смер тности</w>
За седа
голо вы</w>
Мин экономразвития</w>
возме щения</w>
Са мый</w>
показа ла</w>
присоеди нения</w>
стандар там</w>
ти по
1, 4</w>
иностран ные</w>
i ii</w>
агре ссив
по че
ме т
за бра
is s
ствен ность</w>
гаранти ровать</w>
редак ции</w>
Про сь
Вы боры</w>
ре ль
принадле жности</w>
навер няка</w>
ти лись</w>
ви та
бли ж
транспор ти
st yle</w>
Россий ского</w>
И К</w>
бал ло
но ся
призна ется</w>
к сем
Госду ме</w>
кон цов</w>
Са ла
Л ин
значи тельный</w>
Пер м
стратеги я</w>
Вопро сы</w>
to p</w>
заво де</w>
а й
набра л</w>
сю же
Ш ар
актив ность</w>
п ья
ха чка
агент ству</w>
опро шенных</w>
сиг нал</w>
ма не</w>
чест но</w>
Хорва тии</w>
разобра ться</w>
t a</w>
арти лле
приз вала</w>
ба ни</w>
a i</w>
производи тели</w>
С ноу
за вод
обяза н</w>
норма льно</w>
муж а</w>
ви ль
p re
на пол
ве ке</w>
согла сен</w>
Кри сти
Loc ation</w>
се ми
име я</w>
талан тли
проте сту
посе ща
парламен тских</w>
О бо
расхо до
автобу са</w>
Ма рина</w>
конструк ции</w>
предме тов</w>
й тесь</w>
потеря л</w>
цен ных</w>
ро ско
в ным</w>
а с
перио де</w>
расследо ваний</w>
бо ров</w>
б ки</w>
1 2,
незакон ным</w>
рассматри ваются</w>
Сле ду
храни ли
зи ю</w>
охва та</w>
по явля
с ью</w>
ст но</w>
фру к
воз ь
воз держа
ожида ть</w>
тра м
компонен тов</w>
Поч ти</w>
еди ной</w>
предпринима тельства</w>
d o</w>
за гру
ня ются</w>
лю бую</w>
под ры
запре тить</w>
B BC</w>
патри ар
ниче ской</w>
независи мость</w>
прось ба</w>
л ениям</w>
муниципа льного</w>
Исполнитель ного</w>
Эфи опи
футболи ста</w>
сде лок</w>
коми ссию</w>
ст ских</w>
помога ть</w>
постано вила</w>
гено ци
ва ции</w>
прове ден</w>
про пор
га стро
И то
ли ст</w>
ран ен
четвер тый</w>
коро лев
ub e</w>
важ ной</w>
требо ванием</w>
сни жению</w>
Ники та</w>
отли ча
экспер та</w>
обвиня ют</w>
ба н</w>
di v</w>
эмо циональ
Ча й
Ино гда</w>
С ту
re s</w>
о каж
эффектив ным</w>
ско рей
Да ма
Соединен ное</w>
сса х</w>
постав щиков</w>
отмен ы</w>
супру га</w>
Соединен ного</w>
К руп
чрезвычай ной</w>
по рой</w>
Остро ва</w>
руб ри
техниче ским</w>
провер ке</w>
плат формы</w>
ВО З</w>
веду щий</w>
Ком п
бюдже ту</w>
нало ги</w>
скан дал</w>
Кам бо
Узбе кистан</w>
Ира к</w>
ло зу
боеви ки</w>
закры ть</w>
та т</w>
води тели</w>
М У
выше упомяну
П об
жа ющих</w>
Чи та
вмеша тельства</w>
ф ен
Об ви
га зов</w>
комите ту</w>
инте гри
восстано влению</w>
экономи ческое</w>
игра ла</w>
развива ющимся</w>
ж ную</w>
Ста ти
мест ному</w>
Wor ld</w>
Исто рия</w>
пере вод
фор му
Ва жно</w>
10 9</w>
Y ou
Па ла
не большие</w>
Консульта тивного</w>
я вления</w>
объе мов</w>
проходи ли</w>
су хо
ко т
Бу ру
инвали д
согласован ных</w>
исклю чения</w>
подозрева емого</w>
Федераль ного</w>
Pos t</w>
клу б
случа ю</w>
надца той</w>
Совет ский</w>
Неизвест ное</w>
дела л</w>
различ ным</w>
воен ным</w>
Руковод я
v al
при ходит</w>
1 12</w>
отказа лась</w>
реали зация</w>
болель щики</w>
жела ющих</w>
маль чика</w>
А виа
спортсмен ы</w>
ко логи
законода тельных</w>
воен ную</w>
род ной</w>
Бан гла
ж ского</w>
Руко водитель</w>
Дру гой</w>
деся той</w>
к ера</w>
трудя щихся</w>
бу дете</w>
в доль</w>
ль но
Север ного</w>
за труд
an c
публи ку
надеж ды</w>
Уи лья
част ным</w>
промышлен ных</w>
муль ти
прочи е</w>
C ar
тив ности</w>
стар шего</w>
ц кой</w>
обсужда ть</w>
я й
на ступа
ста в</w>
занима лся</w>
То ма
Пред вари
Nov ember</w>
адап тации</w>
подот чет
1, 8</w>
ъем ле
ба таль
го лланд
ато мной</w>
довери е</w>
рас се
полови ной</w>
терак та</w>
доче ри</w>
кни г</w>
ново го
кафе д
хиру р
источ ником</w>
му ся</w>
х ак
террористи ческих</w>
полномочи ями</w>
ра жи
собра лись</w>
ост ров</w>
пре образо
Пер вое</w>
помога ют</w>
D A</w>
опи сы
ветера нов</w>
бе к</w>
ге н</w>
зави сеть</w>
земе льных</w>
И м
Геор гий</w>
оказыва ют</w>
р ва
оста лась</w>
меся цы</w>
опера тора</w>
деву шек</w>
Народ но</w>
поя вления</w>
зем пля
от ы</w>
ти хо
от дать</w>
зи мой</w>
в близи</w>
сло жных</w>
та кому</w>
моби льных</w>
москов скому</w>
С БУ</w>
ш ины</w>
от бы
Авст рия</w>
до мах</w>
выз вали</w>
участ ках</w>
пред ъ
Бизне с</w>
регули ру
ре ви
с м</w>
чув ству
активи сты</w>
издели й</w>
го лки
га з
M an
Мо й</w>
за ведения</w>
жа ются</w>
ожида ния</w>
созда л</w>
След ственный</w>
американ цев</w>
заня ть</w>
D ist
товари ще
сред няя</w>
разгово р</w>
Обще ство</w>
в ное</w>
V ie
номе ров</w>
Г лу
ai r</w>
карь еры</w>
С ур
тюрь ме</w>
приня тию</w>
удовлетвор ение</w>
on d
завери л</w>
ходатай ство</w>
обследо вания</w>
хозяй ство</w>
Дон у</w>
та ли</w>
дево чка</w>
мен и</w>
менедже р</w>
принци пами</w>
теле н</w>
результа та</w>
содержа щихся</w>
кварта л</w>
WP. 29</w>
клу бы</w>
Про кура
Согла шение</w>
рус ские</w>
М К
домаш них</w>
рован ности</w>
Фи ль
оп понен
ну лись</w>
запа де</w>
гово рю</w>
рабочи й</w>
те сно</w>
выска зыва
ро н</w>
обеспечи вают</w>
дальней ших</w>
ребен ком</w>
соревно ваниях</w>
зая влениями</w>
x t</w>
Суда на</w>
ен ное</w>
жало бу</w>
Пре восходи
студен ты</w>
зарегистри ровано</w>
жерт вы</w>
след ственного</w>
огром ный</w>
основ ными</w>
жи теля</w>
Га за</w>
коммуника ций</w>
й ская</w>
контак ты</w>
отра жает</w>
мест ности</w>
о тель</w>
Ро жде
систе матиче
.co m
l a
Об щий</w>
урегули рованию</w>
успе ли</w>
обру ши
ле вых</w>
заня ла</w>
под ходит</w>
приня та</w>
m ore</w>
Бангла деш</w>
лен а
лег че</w>
Маке до
Всемир ный</w>
Мекси ка</w>
it al</w>
установлен а</w>
покуп ку</w>
распреде ление</w>
у сыно
чув ство</w>
f ir
ву зов</w>
теле визион
Свердлов ской</w>
со отношение</w>
g u
ради остан
ули цу</w>
четвер ть
уча ствует</w>
помо гут</w>
па ро
глубо ко</w>
Ар тем</w>
ра стор
Де я
конфи денциаль
ры б
уда ется</w>
s c
ре продук
до ви
опол чен
Лю ксем
пред ь</w>
пособи я</w>
полож ением</w>
об ши
U N
Ви де
х э
каса ются</w>
мона сты
Последни е</w>
ска жем</w>
емо му</w>
указа ния</w>
определя ется</w>
зарпла ту</w>
хан ге
рас па
тай ме</w>
э ска
ядер ным</w>
кар тина</w>
подвер г
Бы ла</w>
об ма
внес ения</w>
ти ру
особы х</w>
Вале рия</w>
2 2
зая вку</w>
нов о</w>
расследо ванию</w>
л ков</w>
Же лез
недо пусти
продолжи тельность</w>
wh o</w>
исклю чено</w>
профессиональ ного</w>
Ма ври
беру т</w>
ство вало</w>
посо л</w>
op le</w>
услови ями</w>
ни ться</w>
t ing</w>
ми ри
годо вых</w>
за к
Пав ла</w>
О ска
вспомога тельных</w>
Р им
позволи ли</w>
обви нитель
ша гом</w>
М ьян
па не
эк земпля
применя ются</w>
статисти ческих</w>
не приемле
А Р</w>
сы лки</w>
энерги ю</w>
существо вание</w>
консульта н
би ли</w>
распростра нении</w>
неот ъемле
Центра льного</w>
пре вос
нов у</w>
бо вать</w>
ко жи</w>
современ ные</w>
Лени на</w>
ча л</w>
the ir</w>
ка л</w>
ме рами</w>
челове ческого</w>
поя вятся</w>
запре щении</w>
нало говой</w>
ис прав
договорен ностей</w>
по ставили</w>
смотр ение</w>
соответству ют</w>
Росси я
клю зи
использо вали</w>
b i
Конвен цию</w>
те д</w>
сред них</w>
осново полага
еха ла</w>
Ме ль
В С
стать ям</w>
C. 3</w>
и л</w>
Э КО
оз доро
право вые</w>
рен ко</w>
повы шении</w>
тен а</w>
а мби
коле ба
Бара к</w>
мар ки
фу нтов</w>
хи на</w>
AS E</w>
экономи ческая</w>
ш ко</w>
банков ских</w>
про ли
объя влен</w>
щ ениях</w>
устра нения</w>
Воз мож
m y</w>
Се й
ин станции</w>
действи ями</w>
Б ро
до му</w>
холдин га</w>
Со зда
зо о
Азербайджа н</w>
эк ви
де с</w>
тех нику</w>
экспо зи
ме га
терпи мости</w>
тель ству</w>
то вых</w>
7 0
от бора</w>
низ ким</w>
Агент ство</w>
n o</w>
бир же</w>
тре мя</w>
указыва ется</w>
за су
Гва тема
вто рым</w>
Буру нди</w>
вступи л</w>
Ш ев
стро я</w>
заме д
метро поли
препара тов</w>
Жи тели</w>
Председа телем</w>
в предь</w>
рассмотре л</w>
заме н</w>
эта же</w>
3 6
ли нию</w>
p res
Ве до
пре ссы</w>
моти ви
х ин
при бе
te s</w>
к во
со постави
Госду ма</w>
Причи ной</w>
гендер ной</w>
успе хов</w>
максиму м</w>
s w
s ti
вы сказал</w>
кварти ра</w>
Са вченко</w>
фа вори
поня л</w>
нега тивно</w>
ин вест
ги на</w>
ту ро
судеб ное</w>
инстру менты</w>
осно вой</w>
ти вов</w>
g am
обвиня емого</w>
каз ни</w>
одно зна
напра влен</w>
дер жек</w>
кон тен
g o
подтвер дить</w>
ве щей</w>
угро за</w>
пи тер
Поб еди
си он
Прось ба</w>
винов ных</w>
един ства</w>
произо шли</w>
дости г</w>
согласи лись</w>
силь ней
увер енно</w>
Ка ла
пересмо тра</w>
Венг рии</w>
Депута ты</w>
обнару жено</w>
тя тся</w>
соб ран
голо в</w>
право вого</w>
пи а
принима л</w>
счита л</w>
про сят</w>
1, 7</w>
приз вали</w>
й н</w>
само му</w>
космо нав
Наде юсь</w>
ЕГ Э</w>
Ма тви
золо та</w>
налогооб ложения</w>
раз говари
або нен
целе вых</w>
магази на</w>
торговл я</w>
па к
Бе лого</w>
пробле мах</w>
бли зо
футболи сты</w>
в носить</w>
эффектив ные</w>
за стре
вкла ды
предотвра щению</w>
ассигно вания</w>
креди та</w>
мо ря
ограни чение</w>
ш ься</w>
ассигно ваний</w>
региональ ным</w>
Но вого</w>
отправи ть</w>
пред принять</w>
поя вление</w>
праздни ка</w>
руковод ству</w>
прове рок</w>
облада ют</w>
Со здание</w>
усили ть</w>
безработи цы</w>
O p
чемпи оном</w>
вля ется</w>
приобрет ения</w>
Большо го</w>
Мин здра
коми ссий</w>
с ным</w>
чемпи она</w>
Лит вы</w>
Бу дет</w>
интере сам</w>
не бо</w>
ли лся</w>
церков ь</w>
самы ми</w>
с провоци
L y
кра й</w>
мене джер
Эр до
Д ень
хими ческого</w>
о р</w>
договори ться</w>
В ведение</w>
Осуществ ление</w>
па тен
д р.</w>
Ж о
3 8
лич ко</w>
тор гового</w>
совет ских</w>
По вест
Основ ная</w>
дол ги</w>
деше вле</w>
ЕНИ Я</w>
полицей ского</w>
за каза
Ско лько</w>
ох ла
департа мент</w>
инвесто ры</w>
До мини
От дела</w>
С обра
K ASE</w>
Финлян дия</w>
Табли ца</w>
Ны неш
журнали ста</w>
R es
облига ций</w>
опера тивных</w>
увеличи лось</w>
назначи л</w>
Адвока т</w>
C .</w>
ав то</w>
судь ба</w>
Ве сти
побе дил</w>
гово м</w>
лен ко</w>
контрак ты</w>
руб ль</w>
уточ няет</w>
двусторон них</w>
по ля
И са
ауди то
предыду щие</w>
ва емой</w>
полити кой</w>
усили ях</w>
коммер ческой</w>
посе щения</w>
бур г
подтвер дила</w>
1 1
Ду мы</w>
б ру
экви вален
консенсу са</w>
на шему</w>
луч шего</w>
сне г</w>
y our</w>
содержа щиеся</w>
защит ники</w>
челове чества</w>
кален дар
гор но
ста циона
L a</w>
с кульп
пользова тели</w>
про ходя
примени тельно</w>
высо кая</w>
оши бок</w>
карти ну</w>
футболь ного</w>
диа гно
беремен ности</w>
рабо чая</w>
христи ан
Об а</w>
Индоне зии</w>
ше ва</w>
Португа лии</w>
ди верси
вне зап
внес ении</w>
соблюд ением</w>
К Р</w>
ад ца
вен адца
ве са</w>
П рак
с пло
пор туга
П хен
э ги
Х им
e ing</w>
Ки рги
а гро
2 1.
двига теля</w>
во шел</w>
воздуш ных</w>
на ци
то чек</w>
Про дол
сформули рованных</w>
девя той</w>
ма ри
Че хии</w>
ля л</w>
Ви це</w>
er y</w>
Восто к</w>
от ставке</w>
поли т
бра т</w>
Матви енко</w>
по е
o ther</w>
то ре</w>
Ку бан
D .</w>
пенсион ного</w>
Ф ри
дефици та</w>
Мол дова</w>
мониторин г</w>
экономи и</w>
подроб ности</w>
бло ка
ф т</w>
опера торов</w>
побе дить</w>
о са
га ра
Мин ске</w>
Мужчи на</w>
о .</w>
уда ров</w>
расши рен
рей сов</w>
государ стве</w>
администра тивные</w>
Во роб
фаль си
К ро
Бу ду
диви ден
Ставро поль
да т
Националь ная</w>
я по
ис пра
раз влека
фика ция</w>
чи ку</w>
действи ям</w>
тера пи
Росто вской</w>
ОЭ СР</w>
оке а
хозя ев</w>
Ма ли</w>
Де ти</w>
круп ный</w>
д ского</w>
музы ку</w>
С .
предыду щего</w>
уваж ение</w>
коми ссией</w>
Ниже городской</w>
вы пи
эги дой</w>
оконча нии</w>
по жизнен
о кажется</w>
во пло
затро ну
опла ту</w>
реши тельно</w>
Исполнитель ный</w>
вспомина ет</w>
ме ло
Ро стов</w>
Т ЕЛ
Реа л</w>
Влади слав</w>
измен ении</w>
памя тник</w>
кос нов
свед ений</w>
комите тов</w>
Дей стви
попа ла</w>
G MT</w>
просве ти
w ay</w>
цве т</w>
приорите тов</w>
F ran
мужчи нами</w>
контроли ру
ев на</w>
ля ться</w>
балан с</w>
поощ рять</w>
мето д</w>
Кон тро
фло т</w>
вы двига
Глав ного</w>
ни лся</w>
кри п
ра ш
опи ра
аф ган
дере вя
сло ва
щен ный</w>
Ев рази
пла ну</w>
да ту</w>
у сугу
ва кци
соответству ющую</w>
покупа телей</w>
строи тельных</w>
Ш ко
сексуаль ной</w>
су ду</w>
тре ти</w>
ен ными</w>
увелич ению</w>
до ставили</w>
or y</w>
разъя сни
пере шел</w>
ба к
ложен ы</w>
обстанов ки</w>
Ли ге</w>
S am
ме стом</w>
анали зировать</w>
м нений</w>
ле до
встрети лся</w>
Влади восто
пожа ло
владе ет</w>
ко вы</w>
вл ю
вы нес</w>
хозяй ств</w>
J une</w>
выпол няет</w>
сереб ря
мо ди
проспек те</w>
вече р</w>
при ходят</w>
се веро
ри те</w>
ле д</w>
выз вал</w>
ви не</w>
ощу щение</w>
индек с</w>
гори зон
ли зма</w>
Та м
.. ..</w>
кар тин
долла р</w>
ди визи
собствен ный</w>
финанси ровании</w>
реаль ной</w>
Локомоти ва</w>
и бо</w>
груп пам</w>
выз вало</w>
недвижи мость</w>
по вез
попы тке</w>
По м
зна ча
Ста мбу
бло ге</w>
10 1</w>
ти пов</w>
ма ра</w>
жиз нью</w>
кос вен
до н</w>
поли кли
фра г
Со ло
бизне смен</w>
Откры тие</w>
на вига
разви ваться</w>
националь ную</w>
ка да
диа ло
лан д</w>
спектак ль</w>
ли ней
произошед шего</w>
ac tu
ко вич</w>
L L</w>
занима л</w>
производи тся</w>
К личко</w>
сто н</w>
Ку бы</w>
13 ,
ме рам</w>
0 2.
воспита н
улуч ши
москов ских</w>
спон со
провед ением</w>
ли це</w>
A s
а ги
мо ему</w>
O R
У ган
гри п
as s
глу би
мо их</w>
Му зы
семь ям</w>
ми не
независи мых</w>
Ли ва
кни гу</w>
обеспоко ен</w>
Румы нии</w>
па ра</w>
ознакоми ться</w>
t .
преду смотрены</w>
ч ков</w>
Мар к</w>
Пе ки
W e
N o
важней ших</w>
an s</w>
существ у</w>
А сада</w>
рекоменду ется</w>
Ли вана</w>
гости ницы</w>
Б ре
одоб рил</w>
тенден ция</w>
Сен а
4 5
Б ла
тер ми
Пра вил</w>
фак тором</w>
опро са</w>
а ку
ли ний</w>
ди ции</w>
Болга рия</w>
экологи чески</w>
Пу сть</w>
молодо го</w>
ber g</w>
спор тивной</w>
дости г
федераль ной</w>
пом ню</w>
our n
точ ными</w>
g et</w>
опера тивного</w>
свобод ного</w>
Казах стане</w>
Х А
мо не
нако плен
ли стов</w>
Эк с
глоба льном</w>
у каз</w>
Напада ющий</w>
за платить</w>
четвер о</w>
н ному</w>
бе спи
проголосо вали</w>
прива тизации</w>
за жи
рас писа
созда ют</w>
отпу ск</w>
j p
ис правитель
Пре ду
не прави
г н</w>
эста фе
комменти ровать</w>
ля м</w>
марке тин
беспи ло
Вороне жской</w>
измер ения</w>
государ ствах</w>
доро же</w>
Сим феро
бан ди
cop yright</w>
выз вать</w>
покуп ке</w>
применя ться</w>
обвиня емых</w>
ступ ен
региональ ный</w>
О п
автомоби ле</w>
утвер дил</w>
УВ Д</w>
правитель ствам</w>
сообще ством</w>
Ком сомо
имен о
Губерна тор</w>
инспек ции</w>
респонден тов</w>
паке та</w>
выда че</w>
статисти ке</w>
or s</w>
си н</w>
мен о
по является</w>
ро ман
Спи сок</w>
ма нев
увиде ли</w>
анти моно
про стой</w>
сто ла</w>
Пер ми</w>
требо вать</w>
бе спокой
Международ ное</w>
б ке</w>
представи телям</w>
ба ев</w>
ва емый</w>
устано влению</w>
в переди</w>
народ ных</w>
На сколько</w>
ру ками</w>
Основ ной</w>
СП Ч</w>
титу л</w>
ди тся</w>
получа ли</w>
подгото влен</w>
роди ну</w>
Женщи ны</w>
надлежа щего</w>
предотвра тить</w>
заинтересован ными</w>
вед ением</w>
О преде
направл ениям</w>
миро вом</w>
у э
по бо
корпу са</w>
автори те
анали тики</w>
продоволь ствия</w>
укреп лять</w>
международ ная</w>
обо ст
буду щей</w>
Ло с</w>
двер ь</w>
у ходит</w>
Э ль</w>
ри к</w>
актри са</w>
требо ваниями</w>
от тен
oo m
оппози ция</w>
Мол да
кру шения</w>
штра фа</w>
занима ют</w>
говори лось</w>
преимуще ства</w>
сы рья</w>
посе тил</w>
Бель гия</w>
кине мато
R e</w>
К ен
обо га
сцена рий</w>
на учи
угро з</w>
схе мы</w>
198 6</w>
чрез мер
у ступа
сред ствам</w>
полож ениям</w>
Заседа ние</w>
гра да</w>
I n</w>
пре ки</w>
пе ра</w>
сло ву</w>
усили ям</w>
Ста н
is h
ро жда
дни й</w>
предме ты</w>
е вым</w>
N or
Б ЕЛ
сти ле</w>
во е
k no
да я</w>
ка в
уров ню</w>
зам министра</w>
I P
сче там</w>
постав ку</w>
Нава льный</w>
Пра вила</w>
3 .</w>
экономи ческом</w>
Dist r</w>
а э
А за
част ный</w>
умень шения</w>
Надеж да</w>
ле тию</w>
рыбо лов
люби т</w>
Да нии</w>
У р
Вто рая</w>
иг ру
большо м</w>
Кад да
государствен ными</w>
жур нал</w>
о кла
по ка
пострада вшим</w>
ш ор
СС И
R .
ра мо
по бу
С разу</w>
У вели
явля ющихся</w>
Экспер т</w>
с можем</w>
пе сен</w>
дер ы</w>
Гру зия</w>
ни кнуть</w>
случа я</w>
es day</w>
ку бо
0 1.
со сла
сообщ ениям</w>
Ар ханге
переда л</w>
пона доби
вар д</w>
располага ет</w>
бе лых</w>
совет ской</w>
та на</w>
заверши лся</w>
промышлен ной</w>
полицей ский</w>
европей ского</w>
доба вила</w>
не сен</w>
Ки р
вы зывают</w>
l and</w>
стоя ние</w>
d es
Доба влено</w>
Кадда фи</w>
МО Т</w>
U S</w>
перво очеред
гек та
объ емом</w>
возника ют</w>
t w
выступ лений</w>
Интерфак су</w>
развива ющиеся</w>
опреде лении</w>
освобо дить</w>
Ря д</w>
поме щение</w>
ходи ла</w>
налого вых</w>
смыс ла</w>
банков ской</w>
организа циях</w>
a st
па у
юж но
нен а</w>
конвен ций</w>
т я</w>
жи тельства</w>
пре прово
столи цу</w>
ра сти
то сть</w>
хоро шая</w>
прия тно</w>
право вым</w>
действи ем</w>
различи я</w>
Евро союз</w>
ак т</w>
необходи ма</w>
транспор тные</w>
брон зо
обра баты
экономи ть</w>
ле ку</w>
води тся</w>
Лу ж
в ступ
Спу стя</w>
оборо не</w>
но вей
указа нные</w>
бро си
совет ник</w>
д ную</w>
под вод
учеб ного</w>
голо вой</w>
продолж ения</w>
2 2.
авто мати
граждан ским</w>
представлен ные</w>
сирий ской</w>
лли ву
вир туаль
за то</w>
количе ству</w>
СПИ Дом</w>
от стаи
вре д</w>
И гна
вы па
ко фе</w>
кандида туру</w>
по лета</w>
дости жении</w>
круп ного</w>
бюдже тным</w>
информи рует</w>
стан ция</w>
насе лением</w>
соответ ствия</w>
us e</w>
b ack</w>
Егип те</w>
Анаста сия</w>
Действи тельно</w>
Ро го
програм много</w>
понима нии</w>
ми ни</w>
лен д</w>
взрыв ча
раз да
ку ли
сти ческих</w>
ж ин
is t</w>
й ские</w>
слу ги</w>
коммуника ции</w>
Арген тина</w>
ров ую</w>
УВ КПЧ</w>
Смо лен
т на</w>
in f
О тель</w>
К И
те л</w>
во ли</w>
сти ка</w>
Г н</w>
влия ет</w>
благо получи
устано вление</w>
for m
сове то
к ня
выпла тить</w>
извест ные</w>
сва дь
Ю р
Твер ской</w>
ки р
поясни ла</w>
сне го
техниче скую</w>
.u a</w>
Институ т</w>
т ение</w>
Моск вой</w>
конкре тного</w>
вели коле
удар ы</w>
при шло</w>
0 4.
Африкан ского</w>
импор та</w>
спут ни
низ кой</w>
Люд мила</w>
слу хи</w>
ва шем</w>
маль чик</w>
пода леку</w>
леги ти
м г
описа ние</w>
инстру мент</w>
возду хе</w>
ло б
обеща ет</w>
владель цы</w>
продли ть</w>
Фор му
произ ведения</w>
ви нова
ча к</w>
су дить</w>
C .1</w>
бал лов</w>
награ ды</w>
Дея тельность</w>
полу защитник</w>
карь ере</w>
ре пре
Ско рее</w>
п ь
Та мож
Боль шая</w>
I P</w>
геро ев</w>
бизнесмен а</w>
е ров</w>
про цве
подоз рению</w>
попыта лся</w>
19 70</w>
з ь</w>
взя ла</w>
С Р
чер но
T ran
работ ку</w>
жи н</w>
креди тных</w>
загряз нения</w>
запре ща
пуска ть</w>
стра ницы</w>
НОВ О
озаглавлен ный</w>
теку щей</w>
В Э
бе ско
Хо дор
предме том</w>
изо ля
стихи йных</w>
состави ло</w>
ра диа
примен ению</w>
учрежд ениям</w>
Агент ства</w>
ме ров
T V</w>
1 70</w>
ча не</w>
переда ны</w>
по пе
d i</w>
дела ми</w>
мо ги
при частности</w>
сторо нам</w>
ис ход
проводи ли</w>
Газета .Ru</w>
воору жения</w>
С т
демо графи
ли цу</w>
s ub
верну лись</w>
Па кистан</w>
Си бир
дене жные</w>
Кам ча
пре мию</w>
положи ть</w>
от боро
Рос нефть</w>
чи кам</w>
тяже лом</w>
0 3.
Ж ер
стро го
за дума
Т РА
vie w</w>
jp g</w>
политиче ское</w>
откры т</w>
би л</w>
ри ско
разме щение</w>
увеличи лся</w>
ш ов</w>
раз ли
проводи лись</w>
В А</w>
wi pe</w>
слы шать</w>
присоедини ться</w>
Делега ция</w>
ot a</w>
лу а
графи к</w>
выступи ла</w>
л ле</w>
благо полу
до в
побе д</w>
о ча
преимуще ственно</w>
юрисдик ции</w>
програм мами</w>
Ка й
жен ного</w>
бар го</w>
предъ явля
Мона ко</w>
за моро
образо вании</w>
в зи
раси зма</w>
Инте ре
индуст рии</w>
Констан ти
промеж уточ
противоре чи
игро ком</w>
заявля ют</w>
съ емо
привлека ть</w>
груз ки</w>
тео ре
Следстви е</w>
лет ние</w>
информа ционного</w>
ограни чить</w>
культур ной</w>
про хо
Рус ской</w>
Крас ной</w>
недо пу
Пер вого</w>
отмен е</w>
рее стр</w>
и с</w>
л ё
D aily</w>
со тен</w>
обсу ждений</w>
архи те
подчеркну ть</w>
та нии</w>
пожа рной</w>
по иска
реаль ных</w>
Сум ма</w>
каж дую</w>
10 2</w>
управля ть</w>
Минфи на</w>
укреп лении</w>
зам главы</w>
Из мен
Ма дри
дет ские</w>
литера тур
Мекси ки</w>
част ной</w>
Жене ва</w>
рас смотрит</w>
День ги</w>
er n
близ ких</w>
в праве</w>
природо охран
Арген тины</w>
внесен ы</w>
К с
во время</w>
присут ствия</w>
до ставки</w>
принци пу</w>
Зак лю
1 15</w>
достоин ства</w>
та ли
Аб ха
ч ре
най тед</w>
по сла</w>
свобод но</w>
пособи й</w>
инду стри
объя влено</w>
Тран с
отве тили</w>
с ную</w>
бра к</w>
То ки
принци пах</w>
москов ском</w>
люб ят</w>
выра жения</w>
сти ки</w>
ожида ют</w>
Донба сса</w>
B M
В аль
спец служб</w>
C D
мене дж
У МВД</w>
составля л</w>
кампа нию</w>
сю р
раз ница</w>
язы ков</w>
оли гар
под ходов</w>
огром ные</w>
про писа
куль тур</w>
широ кое</w>
ра к</w>
ho w</w>
сре да</w>
Ба ла
обно вления</w>
Кер ри</w>
. ru.</w>
проек тах</w>
за га
националь ное</w>
по год
из и
из бы
о ре
офи с</w>
каза х
субси ди
запу ска</w>
рова лась</w>
Ф РГ</w>
объ явля
готови т</w>
ка кими</w>
снизи лся</w>
проведен ного</w>
E uro
ска з
ad a</w>
За й
мо л</w>
выбира ть</w>
воздуш ное</w>
справи ться</w>
усло вно</w>
подписа н</w>
мас сы</w>
вы вести</w>
контак тов</w>
c ed
Вашингто не</w>
Элек тро
И вана</w>
указа ть</w>
повлия ть</w>
Bo eing</w>
б ль</w>
пода рок</w>
учи телей</w>
по просили</w>
десяти ле
ат ле
Ю найтед</w>
подпи сей</w>
откры вается</w>
ре структури
за писа
резо нан
у тся</w>
h i
уведо мления</w>
Поль ше</w>
3 9
А Н
ла м
осведом ленности</w>
фон до
А бра
реаль ного</w>
ресур сах</w>
заня тий</w>
Хаби тат</w>
ко вый</w>
определя ет</w>
Брюссе ле</w>
выигра ла</w>
годо вой</w>
незакон ных</w>
мемо ранду
ом буд
тер п
лег кой</w>
па ры</w>
пользу ется</w>
сту дии</w>
выра жении</w>
С ене
I T</w>
пла тель
косми ческих</w>
ада пти
предупре ждение</w>
га ла</w>
стади он</w>
кораб ля</w>
ак ва
обще ством</w>
Утвер ждение</w>
ig ht
y e
Д И
откры тым</w>
экономи ческую</w>
па спорт</w>
луч шей</w>
район ный</w>
ди ф
возглавля л</w>
д рав
переход ной</w>
обеща ют</w>
тру дом</w>
ав стра
законода тельные</w>
Ка ре
у годно</w>
серьез ным</w>
Дэ вид</w>
минист ру</w>
о со
го сте
го вый</w>
дости гли</w>
ствен ному</w>
Шо й
раз решить</w>
п ени
Авто моби
форма т</w>
4 8
за ведений</w>
американ цы</w>
Ми р
Одно временно</w>
у ход</w>
каждо е</w>
Су дя</w>
стаби лизи
кан ц
подписа ть</w>
тари фы</w>
ш ений</w>
щи ком</w>
тив ность</w>
п ины</w>
про звуча
преодоле ть</w>
мошенниче стве</w>
глав ные</w>
особы й</w>
бюдже тов</w>
уси ления</w>
Коман да</w>
приня той</w>
незамедли тельно</w>
го мо
От вет
ча ли</w>
держа ние</w>
по го
критери ев</w>
объя вления</w>
больш его</w>
за н</w>
раль ных</w>
подоб ное</w>
т ство</w>
Дональ да</w>
Рос т</w>
С ме
в ведении</w>
оцени л</w>
R i
настоя щих</w>
милли он</w>
не ры</w>
раз ным</w>
обра тил</w>
Г Т
се пара
на зывает</w>
профила к
Обе спе
им порт</w>
встрети ться</w>
r in
въез д</w>
А ли</w>
М А</w>
в веден</w>
характери зу
публи чно</w>
s ec
тиче скими</w>
D i
разру ши
серьез ной</w>
СПИ Да</w>
S T</w>
А мур
Бо га</w>
Лондо н</w>
чинов ника</w>
F I
са на</w>
заклю чению</w>
ду бли
жи те</w>
при нес</w>
меда ль</w>
ко ти
ре шает</w>
субси дий</w>
нен ный</w>
Н ур
поступи л</w>
трав му</w>
М ес
Ре зо
Л НР</w>
предоставля ется</w>
бес челове
достигну т</w>
л .
ар мян
А стра
4 7
Та ра
гла з</w>
к сен
ме да</w>
этниче ских</w>
за хоро
отды х</w>
дерев ни</w>
прия тие</w>
че раш
по жилых</w>
о штрафо
Колумби и</w>
манда тов</w>
противоре чит</w>
1 25</w>
долго е</w>
холо дной</w>
пес не</w>
Пло ща
ко меди
прове дут</w>
ВА З</w>
сай тов</w>
По мощ
Зе лен
род ных</w>
переда ча</w>
дол гов</w>
З о
га ли</w>
ка р</w>
тель ские</w>
vie w
уделя ется</w>
поощ рение</w>
Са мое</w>
докумен ту</w>
субси дии</w>
ссы лки</w>
тре м</w>
не вер
от лично</w>
торго вые</w>
се ссий</w>
удиви тельно</w>
ап те
вре за
действу ющие</w>
пря мые</w>
веду тся</w>
необ основан
полков ник</w>
обви нили</w>
расположен ы</w>
иностран ным</w>
проис ходят</w>
сдела ет</w>
ма х
специализи рованных</w>
секретариа том</w>
Челове к</w>
ка мер</w>
ду шу</w>
откры тии</w>
п и</w>
составля ть</w>
про мы
пи ты
привод ятся</w>
Ислам ское</w>
производи ть</w>
ска ть</w>
полу го
an y</w>
лег ких</w>
заня ться</w>
вы ку
гу р
популяр ных</w>
энер гос
еди нок</w>
До ля</w>
клу бом</w>
по ра</w>
расположен ных</w>
за праши
завер шении</w>
соверши ли</w>
ag r
практи кой</w>
ков ской</w>
кри терии</w>
ду м
Таджи кистана</w>
пеше ход
мо ст</w>
К от</w>
под ходы</w>
родствен ники</w>
при ка
тяже сти</w>
ве та</w>
Ро ма
со действию</w>
В ЕД
Ран ьше</w>
креди там</w>
Юж ного</w>
надлежа щих</w>
я сни
без работ
устойчи вости</w>
победи телей</w>
ти тся</w>
конститу ции</w>
эм барго</w>
Кип р</w>
За пи
от ставки</w>
МО К</w>
0 .
са мую</w>
ле чеб
соответ ствовать</w>
4 9
Бо й
ве си
Я р
еги пе
люб лю</w>
чи в</w>
Тре ть
трудо вых</w>
v er</w>
ров кой</w>
Ку бани</w>
ф то
по жертво
ле сов</w>
Л и</w>
прак тических</w>
Му тко</w>
соеди нения</w>
палестин ского</w>
жи лого</w>
пло хо
доб раться</w>
вариан та</w>
0 6.
Вен е</w>
суме л</w>
НОВО СТИ</w>
О кон
еже днев
ди е</w>
помо гли</w>
глав ную</w>
долгосро чной</w>
последстви ях</w>
памят ника</w>
Увели чение</w>
до ктор</w>
представлен ный</w>
Dec ember</w>
группо вого</w>
ак тера</w>
Пробле ма</w>
Ми ссия</w>
сцен ы</w>
сыгра ли</w>
ре акции</w>
о крест
соста вления</w>
ле вого</w>
оцени вает</w>
не плохо</w>
фунда мента
щен ной</w>
состоя ться</w>
строи тельной</w>
мусуль ман</w>
счаст ью</w>
En gl
бы вшие</w>
убе жден</w>
призна ки</w>
клас сов</w>
D A
ep er</w>
розы ск</w>
трав м</w>
боль шими</w>
коллега ми</w>
под контро
Красно дар</w>
повест ке</w>
отче ты</w>
медицин ские</w>
ра ка</w>
фо м</w>
рас сказать</w>
p age</w>
Я цен
М еры</w>
Го род</w>
тра к
Ф ото
проез д</w>
опублико ван</w>
голо ве</w>
ч ника</w>
со став
ма сса</w>
науч ной</w>
раз мини
возобно вля
Л ы
под нять</w>
са на
экологи и</w>
Рас смотрение</w>
сред ством</w>
докла дах</w>
Исла н
реаль ности</w>
призна ны</w>
ло н</w>
Прокура тура</w>
визо ров</w>
Ар хи
e k
она л
вырос ло</w>
man y</w>
ди лся</w>
J an
Ф АО</w>
од нажды</w>
раз ор
Де ка
секун ды</w>
столкну лись</w>
Араб ской</w>
ov er</w>
НК О</w>
желез ной</w>
Навер ное</w>
смотре ли</w>
устано вил</w>
Север ная</w>
хва тило</w>
вырази ла</w>
мя ча</w>
ти ра
дан ную</w>
ль ская</w>
Саль ва
выде лено</w>
с бере
Екатеринбур ге</w>
пре р
ван ное</w>
про ник
Х ос
смен у</w>
Оче видно</w>
по гру
состоя вшейся</w>
л ках</w>
потреб ление</w>
реаль ные</w>
1, 1</w>
ли це
фестива ле</w>
мо н</w>
стра ницу</w>
массо вые</w>
си гаре
откры тых</w>
крас но
пе н</w>
партне ра</w>
-- --
м ла
ре интеграции</w>
клиен та</w>
Рус ский</w>
й ки</w>
In st
избра н</w>
изде лия</w>
G re
Че ты
финансо выми</w>
нес ла</w>
вер пу
раун да</w>
повто ря
пло до
обно влен
возник ли</w>
выра щи
пада ют</w>
F lash</w>
ста ну</w>
Крем ле</w>
ак ка
Тех ниче
ти ку</w>
бан ку</w>
С тру
Д ю
Чеч ни</w>
ан ну
горо жан</w>
трибу нала</w>
литера туры</w>
и дей</w>
мен ю</w>
Испо льзо
тель ницы</w>
держ ка</w>
прожи вающих</w>
доро га</w>
ро и
ва вший</w>
Подмосков ья</w>
4 6
T ube</w>
ч ками</w>
Луган ской</w>
восста навли
су дах</w>
кубо метров</w>
В ну
рас ста
аэ род
объеди нение</w>
А Н</w>
де сан
мл ении</w>
определен ной</w>
доступ ны</w>
ста ри
По вы
ц уз
центра х</w>
198 7</w>
собствен но</w>
Фи ла
оте ле</w>
согла сны</w>
за работать</w>
психи а
точ ного</w>
Ро ском
приве ла</w>
ка то
возгла вляет</w>
мощ ность</w>
вер ховен
не подалеку</w>
Ра зу
вой ти</w>
конкре тной</w>
непри коснов
В неш
14 ,
последу ющие</w>
en g
лик вид
Ниге рии</w>
руководи телем</w>
француз ского</w>
т нее</w>
ува жа
сло жной</w>
Ком мента
P ol
Португа лия</w>
формиро ванию</w>
нефте газо
пор та</w>
поко ление</w>
g in</w>
педаго ги
ни ну</w>
ти лась</w>
Анд желе
справедли вого</w>
И гра
доброво льных</w>
pe ople</w>
дополнитель ный</w>
о кра
L in
стер а</w>
тех но
горо дом</w>
ar tic
прави лами</w>
мо менту</w>
Р онал
Викто рия</w>
пусти ла</w>
лозу н
ди ле
an n
меди а</w>
мг нов
Au g
Азиат ско</w>
инвести ционных</w>
прогно зам</w>
агре ссии</w>
го су
та ют</w>
Челябин ской</w>
S ep
вкла д
задол го</w>
П ря
Пес ня</w>
Фран цуз
Вашинг тона</w>
С ЕД
вер тика
Се реб
смотре л</w>
Серге ем</w>
Ро ско
ль да</w>
центра лизо
близ кий</w>
wh ich</w>
коллек ции</w>
си ле</w>
ш ер
еди ный</w>
Ку ба</w>
пе хот
центра льных</w>
совет ского</w>
поста ра
при говорил</w>
Вар ша
15 ,
ва ющая</w>
компью тер</w>
ос пари
рей с</w>
го дами</w>
мусо ра</w>
дет ства</w>
1 11</w>
купи л</w>
доба вив</w>
реда ктор</w>
центра льного</w>
части е</w>
запас ы</w>
В скоре</w>
жен е
закуп ки</w>
противо действия</w>
к голь
и ным</w>
М .
рыно чной</w>
Мон го
ro id</w>
ко роб
су щ
многосторон них</w>
защи ща
Н Г</w>
ма ра
па спорта</w>
Чемпиона т</w>
СИ Н</w>
де ба
пожалу й</w>
ко л</w>
прокура туре</w>
инфра структуру</w>
i P
обществен ный</w>
ic k</w>
Мин ю
норма м</w>
изу чение</w>
комфор тно</w>
побе дой</w>
распростра нению</w>
Ба ша
определя ть</w>
опас ения</w>
реги ону</w>
написа ла</w>
К К</w>
насили ем</w>
тре з
рабо чем</w>
увеличи лась</w>
ре к</w>
мор ю</w>
чув ства</w>
мощ ностью</w>
ш ю
трудо вой</w>
поч те</w>
ви зу
хоро шей</w>
привле чение</w>
компетен ции</w>
Т ек
На уч
вер е</w>
потер ь</w>
представи т</w>
номина ции</w>
контро ле</w>
Ан ка
Упра влением</w>
сро чно</w>
пре да
ov e</w>
сти пен
следу ющую</w>
Серби я</w>
о нер
перен ес
го вые</w>
тру бо
слу шать</w>
великоле п
Ал ба
пользова теля</w>
цик л</w>
оп ьян
ду хе</w>
тре й
Резо лю
y a</w>
хи е</w>
G o</w>
дерев не</w>
ги пер
установлен ные</w>
сопер ников</w>
ли зм</w>
Ша ра
Татар стана</w>
Ли верпу
спосо бы</w>
по летов</w>
разде ла</w>
лекар ства</w>
Б ез
техниче ский</w>
разнообрази я</w>
Па ле
Либе рии</w>
S P
теле фона</w>
пробле мати
вез де</w>
у ез
состоя тся</w>
те ста
ж ья</w>
до ставля
бу н
лен но</w>
пу сты
до мини
При днестров
фар ма
ст ре</w>
ан у</w>
ново сть</w>
количе ством</w>
сов ку</w>
креп ление</w>
ric s</w>
т та</w>
вла стью</w>
ГУ П</w>
оцени ли</w>
конкре тным</w>
ме ру
пере рабаты
си льные</w>
указыва ют</w>
Со ответственно</w>
ar t</w>
at ch</w>
муз ее</w>
Russi a</w>
un .org</w>
обно вление</w>
Спа сибо</w>
о собой</w>
en ti
проце ссом</w>
г .
чер ный</w>
назна чении</w>
за каз</w>
все мир
of f
Официаль ный</w>
sh e</w>
обслужи ванию</w>
за по
сцен у</w>
кров ь</w>
мя са</w>
вкла дов</w>
стар т</w>
рован ном</w>
на сы
мусуль ман
повсе днев
по служи
лли н
bor der</w>
пи к</w>
БЕЛ ТА</w>
социаль ную</w>
лож ений</w>
моли т
К лу
возмож ном</w>
За в
198 5</w>
Ле й
Т ы
беспоряд ков</w>
тен ы</w>
город ские</w>
капита н</w>
Д ер
сосе дних</w>
t al
По страда
га нов</w>
призы вом</w>
кар те</w>
При мо
сепара ти
вет ра</w>
об л
чен ную</w>
Е р
in ter
Руби н</w>
семь ей</w>
счита ются</w>
Финан си
с хва
учи ли
пожа ров</w>
инте рак
за пове
ку си
фи и</w>
по ва
меня ет</w>
Э м
inde x
следу ют</w>
отправи лся</w>
го та
хи я</w>
X IX</w>
пере хва
отве тов</w>
митин га</w>
Международ ным</w>
ге рой</w>
Солн ца</w>
Ж из
Ш ри</w>
мо ментов</w>
действу ющим</w>
Комп лек
ка п
З С</w>
й ный</w>
о чки</w>
гово р</w>
пленар ном</w>
g ame</w>
За л</w>
при меры</w>
До говарива
определен ный</w>
Жур нали
нали зации</w>
Ок тябрь
Д К</w>
ресур сам</w>
ак креди
пов лек
You Tube</w>
слож нее</w>
специали ста</w>
препят ствий</w>
наблюда ть</w>
худож ника</w>
бо ло
ма л</w>
вы ходе</w>
бе р</w>
сен ко</w>
лена пра
10 4</w>
Турк мени
эска ла
свобо де</w>
обы чного</w>
На та
университе те</w>
Юж ный</w>
Информа ционное</w>
искус ств</w>
в ме
St re
оправ да
Полу защитник</w>
Ве домо
говори м</w>
откры том</w>
he al
устро или</w>
Мурман ск</w>
расши ря
к ли</w>
под да
оцени вать</w>
уче сть</w>
ост рова
кораб ль</w>
конфлик ты</w>
4 .</w>
важ ности</w>
B ank</w>
У частие</w>
появи ться</w>
Б А</w>
види мости</w>
твор чества</w>
Aug ust</w>
щен ного</w>
Rev .1</w>
Про ис
раз реш
ма сте
россий скому</w>
о ке</w>
чи сто</w>
ра мок</w>
гово е</w>
совер шить</w>
с бе
Бал ти
Э ту</w>
Ма го
Ц ар
от туда</w>
сохра няется</w>
упа ла</w>
ли ния</w>
вы ста
напом нить</w>
Щ е
ме тео
игро й</w>
кило метрах</w>
Чита йте</w>
НО ГО</w>
име ла</w>
Хорва тия</w>
круп ной</w>
i p
призна вая</w>
вклю чение</w>
рекоменда цию</w>
ти зи
ули ца</w>
то ка</w>
Шой гу</w>
ас фаль
ced es</w>
води т</w>
ли к</w>
жела ния</w>
поез дов</w>
сом ненно</w>
снизи лась</w>
с ской</w>
при дет</w>
назна чить</w>
тен ге</w>
де ров</w>
пере вести</w>
министер стве</w>
ша гов</w>
2. 1</w>
това р</w>
зарегистри рованных</w>
предусмотрен ные</w>
A R
ка ть</w>
ро вой</w>
по и
мен тах</w>
В у
вз ро
Си ль
британ ского</w>
т кам</w>
преступ ников</w>
надца ть</w>
голу бы
os e</w>
Башки рии</w>
Sep tem
подтвер ждения</w>
призна нии</w>
К Г
учи теля</w>
ву т</w>
магази нах</w>
Ме ро
останов ки</w>
категори чески</w>
Ар кти
террито рия</w>
спаса тели</w>
мо в
защи той</w>
НД С</w>
ито гов</w>
g e
Ка лу
ок но</w>
af ter</w>
бе спокои
доро гой</w>
дожд ь</w>
жерт вой</w>
се ссию</w>
раз гро
Объединен ной</w>
пропаган ды</w>
сти ль</w>
гота вли
жела нии</w>
Д ня</w>
нуж ды</w>
кни га</w>
про движения</w>
to ber</w>
Septem ber</w>
у кло
А П</w>
поез д</w>
реа нима
долж ным</w>
Сто кголь
v is
ассо ции
бо ль</w>
2 12</w>
му ля
индивидуаль ных</w>
Mer cedes</w>
Хри ста</w>
Об щие</w>
э й</w>
продолжа ются</w>
сало не</w>
л кой</w>
top ic
опера циях</w>
ре ста
ата ко
кварта ла</w>
С а</w>
10 6</w>
жа лу
Пар т
чи стой</w>
после до
l oc
подготов кой</w>
искус ство</w>
собствен ную</w>
жда л</w>
хоро шее</w>
Барсело ны</w>
Пен та
сне га</w>
заверши лась</w>
У стано
выигра ли</w>
би н</w>
Крем ль</w>
ду ши</w>
бое вой</w>
самми те</w>
ц кая</w>
Ke eper</w>
разуме ется</w>
В Л
штра фы</w>
Януко вича</w>
о зер
ль ника</w>
Таилан д</w>
Александ ру</w>
креди тной</w>
ве ч
С пор
к ля
ри са</w>
дости гла</w>
реаги ровать</w>
се ра</w>
R o
заинтересо ваны</w>
пала та</w>
име ющиеся</w>
эта п
американ ским</w>
ищ ут</w>
Oc tober</w>
ки бер
фрон т</w>
показа ний</w>
е ром</w>
мыс ль</w>
За вер
сложи вшейся</w>
Те ге
находи лась</w>
дво ре</w>
са л
Дви жение</w>
уби т</w>
уча ствующих</w>
жи ве
раз дра
живо пи
продук ция</w>
призна ла</w>
ж ениям</w>
бур ге</w>
Ко ва
иностран ного</w>
рекомендо вала</w>
пере смотр
на сла
уси ление</w>
выясни ли</w>
в до
пол ным</w>
Бо л
Н .</w>
закон ности</w>
призна ют</w>
ауди тории</w>
Мин ск</w>
жен ой</w>
ано ни
5 5
австра лий
здоров о</w>
обраща ется</w>
заплани ровано</w>
4 50</w>
посвящен ный</w>
це в
несколь кими</w>
раз ве</w>
Не льзя</w>
представи тельство</w>
каби нета</w>
за держи
це ленапра
помощ ника</w>
при бре
Ленин градской</w>
ров но</w>
комплек сного</w>
финанси рованию</w>
Януко вич</w>
э н</w>
Ly rics</w>
Му хам
сто лом</w>
противо полож
обследо вание</w>
Ли ви
полу острова</w>
Ф СИН</w>
клиен там</w>
уро жен
Второ е</w>
успеш ного</w>
ду х</w>
производи теля</w>
гон ке</w>
пре ссе</w>
М И</w>
За м
Крас ного</w>
вз ве
то м
арен е</w>
де в
ан т</w>
ту с</w>
да влением</w>
ры бы</w>
К ос
Г роз
се рий
рассмотр ены</w>
коммуника ционных</w>
к ей</w>
зая влению</w>
форма х</w>
беско не
ак ци
за н
отве чают</w>
Ви ди
ор а</w>
опера тив
Защи тник</w>
ви с</w>
по рази
актив ной</w>
арти ст</w>
водо снабжения</w>
атмо сферу</w>
поня тие</w>
секто рах</w>
w ould</w>
ба б
ав стри
син те
кар та</w>
Бе зу
М ДП</w>
узна л</w>
тель ны</w>
из учи
f t</w>
Tele gr
право порядка</w>
собира ть</w>
Венг рия</w>
And roid</w>
Ра мо
погиб шего</w>
совмест ные</w>
ми ссия</w>
ви дам</w>
Мета л
Ар би
мы сли
д венадца
вер нется</w>
нор веж
угро жает</w>
рабо ток</w>
поощ рению</w>
Com m
серьез ное</w>
по тря
озна ком
f il
за крепи
шан сов</w>
подразде ление</w>
американ ская</w>
вы ходят</w>
kno wn</w>
подоз ри
зи ли</w>
7 ,5</w>
до во</w>
Вести .Ru</w>
секто ров</w>
Па кистана</w>
пенсионе ров</w>
то ро
свое временно</w>
Ме сто</w>
s r
обществен ные</w>
совершен о</w>
ac c
Су д
сло вом</w>
15 9</w>
у став
информа ционные</w>
бед ных</w>
чув стви
четвер того</w>
У да
госпо жа</w>
лекар ств</w>
выпла ту</w>
уточ нили</w>
тя ги
ка нику
охваты вает</w>
независи мого</w>
дели ть</w>
судеб ном</w>
Специаль ным</w>
истори ческих</w>
действу ющий</w>
отправи ли</w>
высо те</w>
веду щие</w>
запу ск</w>
свобод ных</w>
вра ж
Да ния</w>
пи ро
принадлежа т</w>
Р С
оста нутся</w>
ва ших</w>
мероприя тии</w>
пара метры</w>
зарпла та</w>
транспарен тности</w>
дво их</w>
10 7</w>
Л У
у чения</w>
пода вля
москви чей</w>
внед рение</w>
изобра жения</w>
обязан ность</w>
специаль ным</w>
I D</w>
P re
зна ком</w>
кара оке</w>
успе хи</w>
за купа
тра фи
Саудов ская</w>
кон вер
g o</w>
Н ью
отде лении</w>
Обы чно</w>
ст ям</w>
К ни
Гон кон
Ка пел
предъя влено</w>
в кой</w>
принадлежа щих</w>
вы мога
музы ка</w>
ез д</w>
сде лку</w>
Защи та</w>
сооб щению</w>
гру н
Ра м
медицин ское</w>
н си
жа т</w>
объя с
окру г</w>
за лог</w>
брази ль
француз ский</w>
производи тель</w>
Румы ния</w>
Разви тие</w>
потеря ли</w>
зем ля
спи ски</w>
измен ению</w>
гра ф</w>
P ress</w>
Осе тии</w>
а лле
ме че
Д жер
D LL</w>
исполни теля</w>
вол ну
терак тов</w>
В последствии</w>
узна ли</w>
Поз днее</w>
вспом нить</w>
Ч ува
за вы
ру ющий</w>
lo b
ы ва
И .</w>
кораб лей</w>
s l
Ан дер
н рав
Израи лем</w>
фон дом</w>
ли ви
в чераш
С реди
А му
ю ми
ложен а</w>
s ung</w>
зам пред</w>
предше ствен
за ставить</w>
ос по
р ным</w>
Арави я</w>
Шта тах</w>
ti ons</w>
треть я</w>
зри тели</w>
Ль во
сдела н</w>
бес пристра
периоди чески</w>
гра де</w>
Таджи кистан</w>
вы ле
Ф О
прожи вает</w>
КО Н
кампа ния</w>
росси ян
ко н</w>
На ру
предусмотрен ного</w>
п ление</w>
графи я</w>
тяже лой</w>
го но
про сро
Пар тии</w>
тем пов</w>
Ат ле
зи а
име ю</w>
Х ер
кар дина
при каз</w>
максима льной</w>
стоя л</w>
подо р
явля лся</w>
C ap
созда но</w>
полито лог</w>
сти ли</w>
круп ным</w>
Об ра
потреб ность</w>
ра ство
с просил</w>
бро не
Нача ло</w>
приступи ть</w>
Ви р
Росте ле
интеллектуаль ной</w>
про сто
а з
реак ция</w>
посвящен ных</w>
состоя вшемся</w>
предпринима тель</w>
профилакти ки</w>
народо населения</w>
M S</w>
ксен оф
правосуди ю</w>
дей ствовали</w>
Господ ь</w>
экономи ческому</w>
вы зов</w>
луч шее</w>
0 5.
го ры</w>
устра нить</w>
характеристи ки</w>
тан це
Фло ри
Bl oom
рефор ме</w>
ре патри
ic a</w>
ка нец</w>
Хоро шо</w>
ВЕД ОМО
И ри
ся н</w>
при да
конферен цию</w>
покры тие</w>
10 3</w>
обви нил</w>
w id
осу жденных</w>
зай мет</w>
са н</w>
профе ссии</w>
E l
Рус ская</w>
ф ур
2 3.
гото вить</w>
ну лась</w>
медици ны</w>
вни з</w>
результа тами</w>
наз вания</w>
последстви ями</w>
ti c</w>
молодеж ной</w>
Контак те</w>
im g</w>
бы строго</w>
пло хой</w>
тель ский</w>
закон ных</w>
Ж ан</w>
С мир
щи мися</w>
молоды м</w>
Доб ави
принци пам</w>
иностран ной</w>
Sam sung</w>
ст яза
сти не</w>
балан са</w>
от дал</w>
зафикси ровано</w>
ou s
за мена</w>
методо логи
нен о</w>
ближай ших</w>
Екатеринбур г</w>
мину ту</w>
вид ение</w>
лаборато рии</w>
дости жений</w>
британ ской</w>
смер тной</w>
Женщи на</w>
отече ственных</w>
бед ности</w>
нужда ются</w>
повы си
поме щении</w>
На б
охра ня
следо вания</w>
масшта бы</w>
a x
попы тку</w>
семина ров</w>
не правильно</w>
ВЕДОМО СТИ</w>
Д нем</w>
бла го</w>
S un
на числен
необходи мостью</w>
теку щих</w>
во рачи
ту ют</w>
Всемир ная</w>
Под готов
I C
спор ту</w>
сом нений</w>
оккупа ции</w>
ле сных</w>
at t
запрещен а</w>
опера тор</w>
в зо
не санкциони
победи телем</w>
не справедли
ба рь
обви нений</w>
разработа н</w>
д же</w>
кур се</w>
бра та</w>
пре зиди
противо прав
si on</w>
стра х</w>
боро н
а ри
по гло
Ч лен</w>
откры тый</w>
у платы</w>
К от
доступ ности</w>
ве сен
n um
по кон
наблюда тели</w>
Su n</w>
при кры
необходи мое</w>
спо ры</w>
созда нием</w>
побе де</w>
з бир
ь ер</w>
Ма х
исчез нов
треть им</w>
Bloom berg</w>
солидар ности</w>
откры вает</w>
меся це</w>
догово ру</w>
демонстра ции</w>
надлежа щим</w>
расту т</w>
измен я
националь ная</w>
5 ,5</w>
ве сом</w>
политиче скими</w>
не больших</w>
Те ха
Ч ар
сове том</w>
вари я</w>
кли матиче
заня ли</w>
Колумби я</w>
Токи о</w>
нов ского</w>
се рия</w>
жизнен но</w>
ви ка</w>
Феде ра
ру х
ко д</w>
относи ться</w>
пере движения</w>
Ке меров
Но я
перен о
Роско смо
перио дом</w>
льго ты</w>
воен ными</w>
Д ву
по являются</w>
милли оны</w>
1. 1</w>
полу чены</w>
ot e</w>
CN. 4</w>
освобо ждение</w>
Куве й
Плю с</w>
ниче ских</w>
преступ ной</w>
Т р
ча й</w>
О ли
ответствен ных</w>
обой дется</w>
c ell
слу ши
твер ды
Чи нов
ближай шем</w>
объек том</w>
К И</w>
замен у</w>
lo g
Во ль
Капел ло</w>
Совеща ние</w>
ИК Т</w>
учени ков</w>
Астра ха
Со лов
С рок</w>
англий ского</w>
мага зины</w>
Интере сно</w>
ol og
исклю чает</w>
надея ться</w>
До моде
но ма
f u
во доро
ста ре
198 2</w>
Догово р</w>
Фер нан
А н</w>
времен ный</w>
com p
вер ы</w>
10 8</w>
view topic
мар т</w>
За явление</w>
актив ную</w>
стре мление</w>
актив ные</w>
фа н</w>
авто ром</w>
соц сети</w>
т ны</w>
Республи кой</w>
Y or
производ ственных</w>
s ays</w>
Авто ры</w>
неправитель ственными</w>
послед нюю</w>
at ing</w>
са ду</w>
москов ской</w>
ж ье</w>
Пари ж</w>
а гра
бы вшим</w>
К Н
устанавли вается</w>
доброво льно</w>
спе т
И гро
Бо ло
хва тит</w>
исполнитель ный</w>
попыта лись</w>
П РИ
Про вер
вооружен ного</w>
продолжи л</w>
Тре тий</w>
T ER
удоволь ствием</w>
т ским</w>
препара ты</w>
ста рых</w>
подтвер ждение</w>
Ге ро
at a</w>
ры ба
види те</w>
ма сси
шко льного</w>
стреми ться</w>
палестин ских</w>
креди торов</w>
бес прецеден
меди а
управля ющий</w>
обеспе чением</w>
цен зу
Русла н</w>
о дин
вл ениях</w>
голосо вать</w>
семина р</w>
возник нов
ниж ней</w>
буль ва
за че
се м</w>
слож ные</w>
м нениями</w>
Бе лый</w>
международ но</w>
Су деб
ребен ку</w>
BM W</w>
ко вая</w>
площад ку</w>
за ди</w>
Б ени
Ма тери
комплек се</w>
догово рных</w>
анну ли
фир м</w>
I B
Д ра
наруш ениями</w>
про дела
th ere</w>
П С</w>
офор мления</w>
выс ших</w>
опьян ения</w>
X X</w>
А ван
норма ми</w>
Куз ь
но вин
К Р
Пла н</w>
ключе вым</w>
социаль ное</w>
viewtopic .php</w>
Го д</w>
пы тки</w>
I M
на хождения</w>
R en
зарпла т</w>
пода ли</w>
протоко лов</w>
про анализи
To y
О мской</w>
до лей</w>
ка н</w>
сим па
партне ром</w>
я ния</w>
ба р</w>
социаль ная</w>
туро пера
Кар ло
упра ж
выпол нены</w>
воспо мина
бен зин</w>
f l
Ор ен
геро я</w>
много кварти
до ставлены</w>
восто чной</w>
от ча
И вуа
м ю
разъя с
p d
ма не
помо г</w>
у пор
Добави м</w>
народ ы</w>
возник ла</w>
тех ни
Алта пресс</w>
S erv
вс кры
Демокра тическая</w>
вля ться</w>
заба сто
мя со</w>
ж мите</w>
Ju ly</w>
Лондо на</w>
Пен сион
сопер ник</w>
Конвен цией</w>
дерев ьев</w>
Пон ятно</w>
не просто</w>
по думать</w>
каса ющейся</w>
прия тия</w>
выгод но</w>
Жи ри
худож ник</w>
ра со
подозрева емый</w>
комплек сов</w>
ч ников</w>
сельскохозяй ственной</w>
Е лиза
торговл ю</w>
Майк л</w>
по ли</w>
имен ем</w>
очеред ного</w>
Су пер
М ГУ</w>
лет нему</w>
уязви мых</w>
комплек сной</w>
Пол та
и ть</w>
ва ете</w>
ap p
ли лись</w>
приме ром</w>
Води тель</w>
мар ка</w>
ОР ГА
за им
обзор у</w>
пере ходе</w>
ско ром</w>
англий ский</w>
тек сте</w>
бель ги
ционе р</w>
подпи сы
Про чие</w>
совершен ные</w>
Оста льные</w>
В Контакте</w>
использу емых</w>
Ку д
сексуаль ных</w>
р ти
свед ениям</w>
. b
ви чу</w>
бур га</w>
ac h</w>
19 60</w>
необходи мого</w>
вклю чен</w>
конку ри
зая вить</w>
em ent</w>
НЫ Е</w>
F e
воен ное</w>
с бро
на чис
Про хо
Зако ном</w>
физи ческого</w>
г р
филиа ла</w>
Венесуэ лы</w>
Ниж нем</w>
референду м</w>
Д е</w>
повез ло</w>
P e
поле вой</w>
А ста
россия нин</w>
кана ле</w>
попу ля
Государ ственного</w>
Д С</w>
дни ка</w>
оккупи рованных</w>
Вьет на
www. aif.ru</w>
пар ень</w>
указа нной</w>
Суще ствует</w>
коллек тив</w>
международ ную</w>
выступи т</w>
Но ва
У ров
сирий ских</w>
ор г
А ни
раз вле
пенси й</w>
отме тки</w>
выво дов</w>
Воору женных</w>
сти ческого</w>
Мурман ской</w>
4 3
всеобъемлю щего</w>
рез юми
ак ку
Ф З</w>
представлен о</w>
Волго градской</w>
Russi an</w>
прош лый</w>
четвер том</w>
ров у</w>
писа тель</w>
увелич ением</w>
и е
шен ный</w>
церемо ния</w>
использо ваны</w>
К .</w>
за веду
теп ла</w>
у мира
с хо
Александ ром</w>
Ю г
ol d
ль ду</w>
занима лись</w>
само провозгла
би лет</w>
масшта бах</w>
п ье
а лю
a ult</w>
первен ства</w>
спор тивные</w>
день гами</w>
кре а
убе дить</w>
на всегда</w>
та р</w>
народ ный</w>
повест ка</w>
проводи мых</w>
Стани слав</w>
точ ных</w>
в верх</w>
хоро шим</w>
I T
ма рок</w>
Гага рина</w>
ме тся</w>
точ ный</w>
Ю вен
р ту
ли ей</w>
верто лета</w>
обще жи
сохра нять</w>
штей н</w>
преступ лениях</w>
одержа л</w>
нала дить</w>
м но</w>
ка б
Сла вя
в ная</w>
М КС</w>
при лега
конфлик те</w>
про то
В спо
Ме га
Да вайте</w>
особы е</w>
реви зии</w>
совеща ниях</w>
вы р
го не</w>
набере жной</w>
гото вятся</w>
дек са</w>
ти сь</w>
совер шение</w>
предприя тиях</w>
к м.</w>
тив ши
успе хом</w>
Стра на</w>
ё м</w>
пере рыва</w>
ро кра
ци кло
чи н</w>
раз ры
ш лись</w>
Метал лур
отпра вления</w>
ме шает</w>
Ма с
разви вается</w>
A L</w>
p x</w>
v ate</w>
д ра</w>
Яко вле
воз лага
Про да
сан ти
Ше реме
любы м</w>
рова в</w>
середи ны</w>
с меж
друзь ями</w>
пи ть
выпол нением</w>
бир жи</w>
L o
про вали
вне сли</w>
Росбал т</w>
с му
ги ги
А кти
на ем
Извести й</w>
ство вания</w>
Д ве</w>
Исла мской</w>
сер ти
трени рово
u ary</w>
про хождения</w>
ско ордини
эта пах</w>
рее стра</w>
жела ет</w>
За чем</w>
отсут ствуют</w>
рефор ма</w>
совершенство вание</w>
сове те</w>
ст ного</w>
стоя щих</w>
фи я</w>
Рас ходы</w>
не распространения</w>
ec h
план ше
О цен
отра жа
Пунк ты</w>
болез нь</w>
по хва
наде ются</w>
Робер т</w>
er g
преподава телей</w>
худож ников</w>
предположи ть</w>
Ин ди
исследо вании</w>
уг ля</w>
Раз мер</w>
теп ло</w>
кро с
владель цем</w>
бесе де</w>
кри тики</w>
Луч ший</w>
зависи мость</w>
осуществля ются</w>
У рал</w>
дополнитель ное</w>
внеш него</w>
d ll</w>
обви нению</w>
верто лет</w>
гаран тирует</w>
слуша ния</w>
не официальных</w>
пере у
oug h</w>
16 ,
архитек тур
Индоне зия</w>
не ров</w>
интер на
Фору ма</w>
6 ,5</w>
Пред ложение</w>
el i
убежи ще</w>
C. 2</w>
ка ют</w>
свобод ное</w>
комна та</w>
от сро
брига ды</w>
Гор ь
навы ков</w>
публи чных</w>
об уч
a k</w>
2 20</w>
Ве чер
бы стро
al so</w>
Г Э
ж ка</w>
И С</w>
нау ке</w>
схе ме</w>
бол гар
га м
Го лу
W e</w>
науч ные</w>
мор скому</w>
вы бран
восто р
карто фе
проис ходило</w>
смотри м</w>
1 14</w>
ста вят</w>
совершен ных</w>
ла ти
близо сти</w>
вы работки</w>
состоя лись</w>
А ри
Ту рец
Ра ды</w>
по йдут</w>
us s
раз рыв</w>
Запа де</w>
финансо во</w>
Ми ло
Ар те
А да
ар хе
Макси ма
дли тельного</w>
У раль
В Е
му же
an t
сня ли</w>
многи ми</w>
отправля йте</w>
не осторо
Григо рий</w>
пом нить</w>
фе ев</w>
ве со
выбо рам</w>
глоба лизации</w>
нару ша
V .</w>
значи тельного</w>
уро ки</w>
охран у</w>
ча со
конкурен тов</w>
Республи кан
присоедини лись</w>
пору чено</w>
Д ис
верну лась</w>
Хе ль
эк замен
преследо вание</w>
вы шед
ле сного</w>
вос питы
дальней шему</w>
им пуль
Си рию</w>
выбра ли</w>
ti on
сельскохозяй ственных</w>
партнер ских</w>
мла ден
pl ay
b r
Ве че
www. s
с .
Настоя щий</w>
способ ствуют</w>
про двига
жилищ ного</w>
ти пи
Jan uary</w>
де пре
обеща л</w>
вл я</w>
землетряс ения</w>
c re
защит ников</w>
поправ ками</w>
па тро
голосо вании</w>
дав ности</w>
ва вшие</w>
пор но
СК И
пер выми</w>
способ на</w>
реста вра
Тюмен ской</w>
сегодняш него</w>
д ку</w>
получи ло</w>
Словаки и</w>
Ку бке</w>
наблюд ению</w>
Toy ota</w>
Даге стана</w>
специаль ная</w>
Е ль
Са й
Об зор</w>
лю бая</w>
за о
Калифор ния</w>
Иг ра</w>
ф ре
Фе дор</w>
по вод</w>
подверга ются</w>
пред ло
ре визоров</w>
тя ми</w>
Пер вым</w>
фи чу</w>
раз ными</w>
правитель ственные</w>
Макси ма</w>
Му з
sr c</w>
ат теста
зна ниями</w>
экономи чески</w>
м ная</w>
по кро
подозре вают</w>
Нау ка</w>
Екатеринбур га</w>
ре ше
аль ный</w>
корпу с</w>
гвар дии</w>
американ ском</w>
ш кина</w>
ви лась</w>
чита л</w>
целост ности</w>
2, 2</w>
Эри тре
Ту льской</w>
снима ть</w>
территориаль ной</w>
М и</w>
ссо н</w>
подотчет ности</w>
вкла да</w>
сожа ление</w>
M ar</w>
т тере</w>
до ставлен</w>
в ени
да ция</w>
агре га
не которыми</w>
я ние</w>
ку ля
ро вич</w>
бан ки
име ем</w>
Ни кара
з ной</w>
поздра вил</w>
ров ский</w>
прекра щение</w>
ми ей</w>
дело вой</w>
ниче ство</w>
уточ няется</w>
сканда ла</w>
жа р
лиде рами</w>
кон фе
боль ший</w>
пропу ск
ассоциа ция</w>
право мер
пу ск</w>
Фран су
мину совку</w>
това ра</w>
кра тный</w>
лагер ь</w>
переч ня</w>
н ские</w>
находя щиеся</w>
ди станции</w>
лен ная</w>
персона лу</w>
дальней шие</w>
входя щих</w>
выбо рами</w>
Гвине я</w>
отде льным</w>
Финанси рование</w>
пре вен
пя тый</w>
оконча тельного</w>
на зывать</w>
стере о
со стяза
повы шать</w>
КОМИ ТЕ
не жели</w>
Дан ный</w>
Mar ch</w>
ненави сти</w>
хоро шего</w>
разработа ны</w>
сокра щении</w>
I G
бра ка</w>
стави в</w>
мани пу
сти н</w>
торго во</w>
следова тельно</w>
О казалось</w>
па то
информи ровать</w>
по меня
Э ф
Са мые</w>
благо состояния</w>
8 7
та жа</w>
f ac
пря мом</w>
ш ени
прилож ений</w>
уско рить</w>
v o
P R
со ставлен
Гу д
способо в</w>
ne w</w>
африкан ской</w>
кажды е</w>
Рос ста
регистра цию</w>
Тан за
у ходу</w>
Ф ар
w ar
объек тах</w>
порта ла</w>
По хо
Ка меру
страхо вых</w>
рье з</w>
ш око
региональ ное</w>
автобу сов</w>
отпу ска</w>
воору жение</w>
Зе ландии</w>
маршру т</w>
про играл</w>
h el
си льного</w>
обеспечи т</w>
мо ю</w>
Пе тров
жен ской</w>
тяже лых</w>
ли зин
ата ке</w>
согла шению</w>
с дви
доро жно</w>
поня тия</w>
награ д</w>
Од но</w>
artic le</w>
скор ректи
за мы
нен ные</w>
роди телям</w>
й о
И знача
сена тор</w>
ЦР У</w>
ли ться</w>
превы шать</w>
о позна
журнали стами</w>
сою зе</w>
прока т</w>
регла менти
дви жении</w>
M o
Од ной</w>
жа не</w>
oun ter</w>
супру ги</w>
расши рении</w>
G L
запре те</w>
Моло деж
Запи ска</w>
зем ля</w>
ви з</w>
докумен тами</w>
жа ми</w>
гла зами</w>
ба х
Лю би
2, 4</w>
Кузне цов</w>
ма тики</w>
Е ме
цен ные</w>
низ кий</w>
тран сфер
одеж ду</w>
Подготов ка</w>
хра ма</w>
подпи си</w>
ском па
бе рите</w>
сти ческие</w>
семина ра</w>
ев ского</w>
развед ыва
суверени тета</w>
го е</w>
Прави ло</w>
Анато лия</w>
ди спет
сер б
лен ность</w>
Аль бер
б я
ра тор
проходи ла</w>
эле мент</w>
шко льных</w>
госпитализи рованы</w>
автомоби лем</w>
бо ли</w>
Трибу нала</w>
се ссиях</w>
каби нет</w>
Полицей ские</w>
Каза нь</w>
промышлен ность</w>
запад ной</w>
19 67</w>
певи ца</w>
посад ку</w>
мас ла</w>
бра тьев</w>
бю рокра
на нес</w>
Га м
про сла
К О</w>
плате жи</w>
ли шение</w>
Деся ти
бер га</w>
поступа ть</w>
С ю
or g
ключе вые</w>
по совето
инф ляция</w>
отли чаются</w>
ге й
собы тиях</w>
устанавли вает</w>
ри ка
хи м</w>
добы чу</w>
пере ло
пря мого</w>
уби ты</w>
люби телей</w>
Серге ю</w>
публика ций</w>
материа лам</w>
ми но
цен ам</w>
кни ге</w>
архитек туры</w>
Ри чар
Никара гуа</w>
жа м</w>
Чи ка
Yor k</w>
счита ться</w>
b et
обстанов ка</w>
визи том</w>
действу ющей</w>
подтвержда я</w>
Е сте
юриди ческого</w>
Север ный</w>
на хо
вы годы</w>
обнару жения</w>
технологи ям</w>
следо вать</w>
по единок</w>
Бе й
Барсело на</w>
У крепление</w>
прожи вают</w>
завер шение</w>
ТЕЛ Ь
Щ И
Сотрудни чество</w>
ма й</w>
плани ровалось</w>
задержа нии</w>
куль тура</w>
соба к</w>
род ы</w>
al e</w>
холдин г</w>
структур ных</w>
j ect</w>
наш ла</w>
В клю
Реа ла</w>
sp ace</w>
обусло влено</w>
бер ку
убий ств</w>
координа цию</w>
ня м</w>
действу я</w>
экологи ческого</w>
поиска х</w>
ста х</w>
рез юме</w>
Мес си</w>
ран ены</w>
бло к
рабо чую</w>
жи лой</w>
б ене
устанавли вать</w>
интер нета</w>
ж ениях</w>
вто ри
en s</w>
спас ения</w>
магази не</w>
судь бу</w>
ис править</w>
Г ран
и ное</w>
Че н</w>
ра тор</w>
ло вые</w>
0, 1</w>
ру ющей</w>
прогно зы</w>
соц сетях</w>
инициати вой</w>
жен ным</w>
ствен ности</w>
материа лах</w>
ко сме
холо ди
Бах рей
те мой</w>
над пи
стра новых</w>
прода жа</w>
ь и</w>
поки нули</w>
ищ ет</w>
част ном</w>
убы тки</w>
бой цов</w>
офице ров</w>
Арби тра
обяза тельного</w>
вос хи
а зербайджа
энерге тической</w>
Сер дю
Вра чи</w>
В ся</w>
у пла
пу га
програм ми
произо йти</w>
ди о
c o</w>
а с</w>
аль бом</w>
че ш
на несен
3 60</w>
продли тся</w>
Л а</w>
утвер дить</w>
бу с</w>
му н
т руп
не удоб
вы вез
возме з
wid th</w>
попро бовать</w>
номе ром</w>
Использо вание</w>
лю ка
тради ционной</w>
На за
198 4</w>
неправитель ственные</w>
тематиче ских</w>
регули рование</w>
обы чной</w>
предприя тии</w>
Служ бы</w>
Самар ской</w>
Восто чный</w>
выс шей</w>
достигну тый</w>
аналоги чным</w>
ё т</w>
запро сы</w>
на бора</w>
колле гии</w>
2, 3</w>
та льной</w>
недоволь ство</w>
b le</w>
по лет</w>
занима ть</w>
телевид ения</w>
Бри тании</w>
устрой ству</w>
сель ской</w>
фо л
предусматри вают</w>
х их</w>
лете ть</w>
обсу ждении</w>
ст ят</w>
согласи лась</w>
Амери ка</w>
п по</w>
те ори
не ва</w>
измен ениями</w>
Хо чу</w>
рав ной</w>
страда ют</w>
транспор ту</w>
кла ссе</w>
роди не</w>
врата рь</w>
H y
из готови
кандида том</w>
напад ений</w>
вок зала</w>
э волю
имуще ством</w>
оговор ки</w>
аналоги чные</w>
неизвест ные</w>
ду ют</w>
1 16</w>
t ri
Am er
E l</w>
знако мый</w>
банкро тства</w>
наимен о
альбо ма</w>
бое вые</w>
g et
d u
p ic
Т били
ми ли</w>
возвра щении</w>
теку щий</w>
ен ностью</w>
Парла мен
це ли
напря женности</w>
Американ ский</w>
позволи л</w>
китай ской</w>
большин ством</w>
г ера</w>
науч ный</w>
Франсу а</w>
s on
Тур цию</w>
Га а
чи вать</w>
допол ня
перио ды</w>
ОПЕ К</w>
ко к
Е В
м нением</w>
долж ное</w>
У о
бесе ды</w>
Словаки я</w>
A N
Па лестин
тем пами</w>
ня к</w>
едино гла
за каза</w>
прими рения</w>
улы ба
запад ные</w>
ст ро</w>
ремон ти
транспор тное</w>
Волгогра д</w>
c ar
ам бу
фак та</w>
М ы
Об яза
ва емости</w>
фарма цев
у шли</w>
специаль ную</w>
род ного</w>
ту ров</w>
Л я
тяже лые</w>
комна ты</w>
выра стет</w>
секун ду</w>
го вая</w>
Ма рии</w>
основа тель</w>
де вело
ни ном</w>
не понятно</w>
ч ны</w>
удоволь ствие</w>
Справедли вой</w>
СКА Я</w>
пе до</w>
аспек тах</w>
th ing</w>
след ственных</w>
Кип ра</w>
определен ного</w>
I I
5 .</w>
окружа ющую</w>
Арсена л</w>
государствен ную</w>
Ре жи
кто ром</w>
g re
собра нии</w>
совмест ное</w>
рассказыва л</w>
намер ение</w>
систе мами</w>
Причи на</w>
ск лон
Я май
политиче ском</w>
уголов ным</w>
жа ние</w>
поня ли</w>
ши т</w>
отказыва ется</w>
рас сла
ше ствие</w>
t ure</w>
О собо
чу ж
Кры м
по этап
Цен ы</w>
У люка
разгово ра</w>
призыва ем</w>
ни чь
ве щ
опублико вала</w>
выз вала</w>
за горе
финансо вом</w>
популяр ность</w>
со ра
Кана де</w>
муж ем</w>
природ ного</w>
ша т</w>
моло ка</w>
все рьез</w>
ар е</w>
увеличи вается</w>
раз ы</w>
фами лии</w>
Ронал ду</w>
и ду
дело вых</w>
опреде лению</w>
ста рые</w>
па виль
Бе резо
сторон ники</w>
современ ным</w>
Клю че
я х
постоян ный</w>
сдела ны</w>
истори ческого</w>
Б об
пара метров</w>
гла сит</w>
широ ко
сня л</w>
Ниж ний</w>
обстанов ке</w>
стра нно</w>
расстоя нии</w>
Суд ья</w>
пра й
пригово рен</w>
по сты</w>
настаи вает</w>
oun t</w>
ново год
зе много</w>
китай ских</w>
s ite</w>
домаш ний</w>
выра жение</w>
пере работки</w>
сообще ству</w>
и ном</w>
И бра
звез да</w>
ди в</w>
трени ровки</w>
столич ных</w>
р ений</w>
не вероя
до вести</w>
приме ров</w>
работа ем</w>
ва ющее</w>
цве тов</w>
спец службы</w>
ци ар
я ро
T A</w>
ограни ченными</w>
бан ках</w>
разде лу</w>
гра ф
полу острове</w>
заверши л</w>
выну жден
кали б
аль ного</w>
Афгани стан</w>
разрабаты вать</w>
К У
ши ли</w>
надлежа щие</w>
н ских</w>
ста рей
цио нер
ба з</w>
H ere</w>
возбу ждении</w>
w s
кладби ще</w>
ar m
а ро
index .php</w>
измени лась</w>
оста вшихся</w>
одоб рен
с бли
мо им</w>
че л</w>
са до
Домоде дово</w>
спорт смен</w>
порта ле</w>
разбира тельство</w>
Ц К</w>
хокке и
не состоя
привод ят</w>
Уров ень</w>
сде лка</w>
Аван гар
Ма хачка
ме ров</w>
во преки</w>
ар ген
Суда н</w>
срав нения</w>
си деть</w>
называ ли</w>
Иор да
с можете</w>
гендер ных</w>
ван ными</w>
воз никнуть</w>
при уро
доброволь цев</w>
капита льного</w>
бюдже тной</w>
Центра льно
7 7
2 4.
ли ст
пес ню</w>
ксеноф оби
От вет</w>
район у</w>
AT A</w>
До ма</w>
ми н.</w>
против ном</w>
значи тельных</w>
Ла й
Тро и
аресто ваны</w>
сло ев</w>
жесто кого</w>
ог нем</w>
финансо вая</w>
я бло
у са</w>
янва рь</w>
поступи ли</w>
африкан ского</w>
У д
умень шить</w>
Д А</w>
низ ма</w>
получи в</w>
ха м</w>
двига телей</w>
поч ве</w>
тради ционные</w>
в вод
Со кра
вне сен</w>
га р</w>
устано вок</w>
Види мо</w>
М ТС</w>
ар сена
свя зыва
C R
Лит ва</w>
част ях</w>
вла жности</w>
органи зм</w>
при клад
презен тации</w>
in al</w>
носи ли</w>
измени тся</w>
украин цев</w>
во лей
Кады ров</w>
альян са</w>
Тор педо</w>
Пос мо
разме ров</w>
Обще ственной</w>
пере клю
жен ная</w>
Го род
Кав каза</w>
обыгра л</w>
акка ун
2 40</w>
По стано
Иг р</w>
стремя тся</w>
о ва</w>
наз вала</w>
17 ,
Площа дь</w>
сирий ского</w>
пользо вание</w>
учрежд ении</w>
сове ты</w>
ск воз
забы вать</w>
де шь</w>
лизо вать</w>
Пожа лу
заяви в</w>
служеб ных</w>
Cor r
со болез
разработ кой</w>
вознагра ждения</w>
бизне сом</w>
администра цией</w>
площа док</w>
оты гра
ОН Ф</w>
л лы</w>
ри тей
Центра льный</w>
n ing</w>
Латви я</w>
площад ка</w>
м ра
М ЕН
Севасто поля</w>
не исправ
Директо ра</w>
образ а</w>
схе ма</w>
т т
надлежа щей</w>
преступ ностью</w>
ресур с</w>
против ника</w>
гото вят</w>
необходи м</w>
1, 9</w>
найден ы</w>
Ба зе
указа нием</w>
влен ного</w>
технологи я</w>
меди ки</w>
находя сь</w>
лов ский</w>
ли т</w>
снаб жение</w>
со т</w>
откры той</w>
написа ть</w>
форвар да</w>
зер ка
стои ть</w>
ти ко</w>
коло сса
Саха лин
за пустить</w>
след ственные</w>
Совеща ния</w>
з ени
са ла
На с</w>
На звание</w>
болез ней</w>
запи ске</w>
Ир ландия</w>
ля тся</w>
от прав
тран сли
ка бе
Посо л</w>
привер женности</w>
при це
Филь м</w>
ар мию</w>
культур ные</w>
сопроти вление</w>
Сен тябрь</w>
возмож ны</w>
отра жение</w>
юри ст</w>
ван ную</w>
соблюд ении</w>
табли цы</w>
кну л</w>
Стра ны</w>
отмеча лось</w>
се ссион
ско пи
Кирги зии</w>
Ф Р</w>
Бе ре
ag en</w>
министер ств</w>
ар т</w>
написа но</w>
совершенство ванию</w>
ви дами</w>
го скомпа
Ar e</w>
свобо да</w>
Ио си
стимули рования</w>
поис ки</w>
жи телями</w>
А ви
жен ских</w>
бо го
об щение</w>
Следова тели</w>
Ере ван</w>
су ть</w>
ф ф</w>
Т ен
Н ТВ</w>
Ка ж
следо вало</w>
специали стами</w>
ли сты</w>
сове тов</w>
хо рва
o w</w>
дни ми</w>
дея телей</w>
пенсион ных</w>
производи тельности</w>
Джей мс</w>
аль ных</w>
цве ты</w>
Израи ле</w>
ре пети
докумен там</w>
стар ших</w>
ви дах</w>
упа ли</w>
Бо гда
исполни телей</w>
К ло
указа нного</w>
сом нитель
барре лей</w>
б рю
Ни каких</w>
интере са</w>
лли н</w>
статисти ка</w>
Администра ция</w>
продолжа л</w>
един ственная</w>
е пи
Га лина</w>
установлен ного</w>
Ме ха
о ставили</w>
коэффициен т</w>
жела ющие</w>
выпуск ников</w>
француз ской</w>
потребо вали</w>
num ber</w>
С ви
клет ки</w>
2. 2</w>
Але ппо</w>
Ко л
Р от
работа ющие</w>
независи мой</w>
равно прави
выста во
F .
t ur
Венесуэ ла</w>
перене сти</w>
дизай н</w>
ri l</w>
ле вые</w>
ле вая</w>
че чен
бе ло</w>
инвести ционной</w>
ци стер
жи вых</w>
у держа
по шла</w>
sch e</w>
a th
получа л</w>
пере крест
понима ем</w>
Законо проект</w>
содержа ть</w>
2, 7</w>
роди телями</w>
свое образ
гово ры</w>
способ ных</w>
х ран
неот лож
характери зо
не ту</w>
дово лен</w>
0, 2</w>
зву чит</w>
пала те</w>
fir st</w>
ло я
Фран ци
немец кого</w>
ше б
Проце сс</w>
ба на
тен циар
стар тует</w>
си лах</w>
За бай
измен ением</w>
Акаде мии</w>
боль ше
а парта
содержа т</w>
килограм мов</w>
Федераль ная</w>
отече ственного</w>
судь бы</w>
ин фици
продемонстри ровать</w>
Fr i</w>
у са
ч о</w>
ше лся</w>
турни рной</w>
ры ми</w>
Г ан
Ж Д
Бу ря
предпринима теля</w>
сило вых</w>
формиро вании</w>
О веч
Ин гу
сим пто
М Ф
в вели</w>
рестора н</w>
увелич ении</w>
объя вить</w>
подтвержда ют</w>
Ф БР</w>
ку с</w>
язы ком</w>
юри стов</w>
ко опера
Кубан ь</w>
введен ы</w>
опера циям</w>
ис ка</w>
t rem
подвер гну
строго го</w>
вы ве
Де ву
наме ре
труд ностей</w>
жест ко</w>
ционе ры</w>
корпора ция</w>
пожела ет</w>
спа сибо</w>
бы вшая</w>
постро ен</w>
ж дем</w>
проек тами</w>
4 4
автомоби льных</w>
В Р</w>
свиде тельства</w>
о пор
Са ма</w>
сег менте</w>
электро нные</w>
под лежит</w>
За кон
фир ма</w>
изба виться</w>
препят ствия</w>
иско па
точ ные</w>
контак т</w>
ру кой</w>
в след</w>
реак цию</w>
направля ть</w>
Э мира
четвер ть</w>
москов ский</w>
раст ений</w>
переда ли</w>
де гра
иде а
не что</w>
юриди ческие</w>
ст .
У сло
проводи л</w>
проте ст</w>
потребу ет</w>
Ба гда
мя н</w>
обвиня ется</w>
стра ниц</w>
развива ющимися</w>
Гра жда
Н .
стоя ли</w>
значи тельную</w>
ic es</w>
пе рии</w>
ж ут</w>
аль ные</w>
из лага
обнару жен</w>
пото ков</w>
аспек там</w>
трибу на
усили ями</w>
вед я</w>
лич ным</w>
НП Ф</w>
мор ские</w>
штра фов</w>
норма тивных</w>
про стых</w>
Мурман ска</w>
ключе вой</w>
Vie ws</w>
заме тили</w>
сда чи</w>
наруши телей</w>
находи лось</w>
Пер вой</w>
Мол до
хули ган
хра м</w>
аналоги чный</w>
wh en</w>
направи ли</w>
Под готови
клиен ты</w>
разверты вания</w>
олимпий ского</w>
ь ева</w>
ля т</w>
феде рация</w>
взи ма
s el
причи нах</w>
B ar
ъ ю
ow n</w>
э сто
р ского</w>
отче те</w>
спраши вает</w>
район ного</w>
смотри те</w>
партнер ство</w>
сни м
об о</w>
НА Я</w>
обсужда ли</w>
созна ние</w>
ро с</w>
сса жи
y m
ва ша</w>
F i</w>
материа лами</w>
мо ле
же лу
то вые</w>
уча ству
оцени вают</w>
пси холо
пригла шение</w>
S R.
Куль тура</w>
жела я</w>
Само лет</w>
Фут бол</w>
рели зе</w>
от правил</w>
един ственной</w>
чи м</w>
ран него</w>
ассоциа ций</w>
ou se</w>
покол ений</w>
РФ ПЛ</w>
транспор том</w>
дни ков</w>
Ap r</w>
S ec
По се
Ми тро
ни куда</w>
Ка кой</w>
б р
I D
собра л</w>
внутрен ний</w>
выступа ли</w>
H T
наро дам</w>
Un known</w>
Роспотреб надзора</w>
эпо хи</w>
проез да</w>
заклю чить</w>
ч ье</w>
со пря
Д оста
усугу б
а бор
рас критико
силь ным</w>
спо р</w>
из лиш
вод ство</w>
нату раль
остров ных</w>
Шереме ть
ба нд
Но вое</w>
посе тили</w>
кад ры</w>
разгово ры</w>
ва ше</w>
ro om</w>
приобре тен
i f</w>
Глав ным</w>
да вали</w>
спор тивного</w>
име ющим</w>
позволи ла</w>
й дя</w>
институ ты</w>
розы гры
ви чем</w>
изда нию</w>
F i
предвыбор ной</w>
Се ти</w>
КА Д</w>
i v</w>
Ме мо
Жа ней
побереж ье</w>
А бу</w>
чи х</w>
F C</w>
8 6
Же ла
тор ги</w>
Дж она</w>
оз ера</w>
рекомендо вать</w>
отче тный</w>
Араб ская</w>
Европей ская</w>
ЦИ Я</w>
му ще
1 17</w>
с дать</w>
религиоз ной</w>
недоста тки</w>
приобре л</w>
ауди о
Леони да</w>
поло сы</w>
направл ениях</w>
Анто ни
0 000</w>
ка меру</w>
пило т</w>
олимпий ский</w>
без от
подлежа т</w>
за блу
претенден тов</w>
телевид ение</w>
говори ла</w>
выбо ре</w>
правозащит ников</w>
опу сты
бе зо
бо ну
Ста ро
Па у
Ва й
стан цию</w>
Нов городе</w>
выпла те</w>
por t
посла н
вынес ения</w>
очевид цев</w>
кре м
C. 5</w>
Наб люда
Тре тья
экспер тами</w>
предпочита ют</w>
опусты ни
ваго нов</w>
электро нного</w>
инстру ментом</w>
концеп ция</w>
столкну лся</w>
инфра структура</w>
нефтя ной</w>
вши мися</w>
Б ло
ди е
3 D</w>
пе тров
съем ки</w>
но вания</w>
поблагода рил</w>
pri vate</w>
навы ки</w>
домаш него</w>
si d
Д не
вен ти
P age</w>
Си луа
ла в
республи к</w>
воз ник</w>
соору жений</w>
g ov
л э
органи зма</w>
B .
P or
прод лении</w>
отче тов</w>
Ш от
безна казан
Д РК</w>
осве щения</w>
Окон ча
поч ты</w>
прошед шие</w>
валю т</w>
мастер а</w>
ourn al</w>
Сторо нами</w>
отка зе</w>
напад ении</w>
ра та</w>
тер мо
от ры
д кой</w>
ду ман
дю й
P S</w>
ко й
2, 6</w>
об щен
воспита ния</w>
Алжи р</w>
инвалид ности</w>
услови ем</w>
профсою зов</w>
банков ского</w>
Доб ро
пере имено
поддержа ние</w>
те л.</w>
под программы</w>
продолжа ли</w>
пассажи ры</w>
ти роваться</w>
рас ка
ня тся</w>
v en
спец на
ю жной</w>
ию нь</w>
Х оте
Вра та
мас ло</w>
не сомненно</w>
А рен
эвакуа ции</w>
праздни ки</w>
Ф ур
лей тен
доступ е</w>
За держа
гре б
Плани руется</w>
Ка са
Москов ская</w>
Свобо да</w>
С ни
вы се
знако мых</w>
тамож енных</w>
от части</w>
целя ми</w>
любо му</w>
Эдуар д</w>
ми ль</w>
экра не</w>
дума ют</w>
обнаружи л</w>
связ ям</w>
откры ты</w>
an a</w>
цен ко</w>
избра ния</w>
А к</w>
Го вори
сохран ении</w>
при влек
ци та
слож ный</w>
e .com</w>
обраща ет</w>
граждан ское</w>
пры ж
город ском</w>
гор до
под ъем
нен ного</w>
Дар фу
Виде о</w>
мошенниче ство</w>
ак та</w>
li ke</w>
изуч ению</w>
m ess
присут ствии</w>
футболь ных</w>
фла г</w>
израиль ских</w>
межправитель ственных</w>
серь е
рен табе
Corr .1</w>
У слуги</w>
Com p
agr am</w>
C o
зна ние</w>
Золо той</w>
при зем
плани рование</w>
казах стан
Фа би
Молда вии</w>
а по
ве б
установ ка</w>
мест но</w>
При нима
ко ма
ис ки</w>
1 13</w>
Г рен
приорите ты</w>
предпринима тели</w>
подар ки</w>
за работал</w>
подъ е
живу щих</w>
трене ров</w>
ри ску
расче тов</w>
le y</w>
поедин ке</w>
пра вой</w>
Университе та</w>
ye ar</w>
выте ка
инвести ционного</w>
нуж д</w>
коман ду
Н обе
пода ла</w>
Со ко
полу тора</w>
значи тельная</w>
мигран ты</w>
Д жен
Я бло
тор ской</w>
По нома
однозна чно</w>
кандида ты</w>
в водить</w>
u b</w>
с горе
аген тов</w>
направлен ной</w>
M in
k a</w>
зи ей</w>
enc ounter</w>
Ме стные</w>
цен ность</w>
гру за</w>
Волгогра де</w>
Ме то
ди ну</w>
ю вели
основ ную</w>
экс клюзи
1 22</w>
каче ством</w>
ди сло
побереж ья</w>
Су б
ко вое</w>
ту зиа
пога шения</w>
сбо ры</w>
Е Р</w>
структу рой</w>
n er</w>
Ap ril</w>
привет ству
х тен
терак т</w>
Ма га
Оче ред
извест ной</w>
гра фа</w>
Любо вь</w>
переме щения</w>
относя щихся</w>
У би
Д непро
Про ведение</w>
едино рос
Вы ступа
al t</w>
тро их</w>
Служ ба</w>
3 .1</w>
дела ем</w>
си ю</w>
му д
гр н</w>
ни чем</w>
кана лов</w>
ска жу</w>
посе ления</w>
oo r</w>
опублико ваны</w>
судо ход
бо и</w>
квалифици рованных</w>
сбор ных</w>
1. 2</w>
ст ный</w>
Б от
ционе ров</w>
ро га
напада ющего</w>
ство вание</w>
нор ма</w>
лич ную</w>
палестин ской</w>
дра го
кон ь
катего рия</w>
выру чка</w>
er r
лич ном</w>
М Э
a h
пени тенциар
га й
Ро мана</w>
am p</w>
прав ду</w>
исклю чение</w>
мел ких</w>
Рас ши
валю те</w>
le g
месторо ждения</w>
ж ский</w>
Краснодар ского</w>
Т у</w>
Экономи ческий</w>
ко ля
мо ем</w>
целя м</w>
спектак ля</w>
Ислам ская</w>
испыты вают</w>
Жиз нь</w>
о се
ту берку
аналоги чных</w>
Сове тов</w>
вооружен ными</w>
сти на</w>
нарко тики</w>
Факульта тивного</w>
е жене
специаль ное</w>
ин три
вклю ченных</w>
предполага ют</w>
си льных</w>
Пя т
Компа нии</w>
ошиб ку</w>
созы ва</w>
Ли шь</w>
ки ше
инфек ции</w>
Ав гу
столич ном</w>
У НИ
верх ней</w>
эк стре
Ю лии</w>
ха н</w>
от дох
плани ру
ро сы</w>
принципиаль но</w>
T e
первонача льно</w>
Би р
Тбили си</w>
нару шает</w>
библиоте ки</w>
Со друже
13 5</w>
маши ност
высо кими</w>
О н
вы явля
кри па
использо вались</w>
профессиональ ные</w>
кори до
шо к</w>
циф ра</w>
се ль</w>
Б О
пя того</w>
ai r
рубе ж</w>
минист ры</w>
аре стом</w>
з ла</w>
пригла сил</w>
ве тери
присут ствовали</w>
юби ле
на след
концеп цию</w>
ня ли</w>
чув ствует</w>
зака зов</w>
госпитализи рован</w>
ш ти
правитель ственной</w>
прави лом</w>
А пелля
поблагода рить</w>
Алтай ского</w>
к ви
сформи ровать</w>
демонстри рует</w>
следова телей</w>
гря ду
высказа лся</w>
ощу ти
Есте ственно</w>
Ни чего</w>
Са ра
обсужда ется</w>
ю мо
вл ениям</w>
полез ных</w>
a x</w>
P ri
ме бе
0, 3</w>
Эф фек
име ло</w>
Кита ем</w>
Министер ством</w>
нако п
пе ль
лич ное</w>
реги онам</w>
198 1</w>
осо бую</w>
М юн
Акти ви
заинтересован ные</w>
wor k</w>
тек сты</w>
S at</w>
возмож ен</w>
вы би
ал ма
ез дить</w>
служа т</w>
испыты вает</w>
дея ния</w>
необходи мыми</w>
низ м</w>
недо во
подоб ный</w>
Все м</w>
Ф РС</w>
ха нов</w>
Кан дида
утвер жден</w>
роди лась</w>
раз гла
оправ ды
из держки</w>
значи тельным</w>
лич ными</w>
моти вам</w>
зе н</w>
Л ев</w>
голо су
поме ша
фана тов</w>
судь бе</w>
кандида туры</w>
информи рованности</w>
15 5</w>
рассматри вают</w>
предыду щем</w>
оши бка</w>
пациен та</w>
У спе
Пра ва</w>
заби ть</w>
но жом</w>
П ле
класси фикации</w>
И ГИ
ша ться</w>
у строить</w>
либе раль
луч шую</w>
ре ке</w>
доль ше</w>
Спе ц
ДП С</w>
л тон</w>
ба лета</w>
Про тив</w>
вы вода</w>
Нов город</w>
де пор
ве се</w>
лагер е</w>
ак тер
вы чис
до н
Эсто ния</w>
организо вана</w>
Фору м</w>
незакон ном</w>
про бу
Со вер
дискримина цией</w>
влад ения</w>
ру б</w>
Б уда
НИ ЗА
Ис ходя</w>
страш но</w>
связа нными</w>
банкро т
бо ла</w>
чита телей</w>
регуляр ных</w>
разгово ре</w>
ста ном</w>
ра с</w>
Ко валь
от работа
призы вы</w>
налого вые</w>
проводи мой</w>
отрас лей</w>
поле вых</w>
[...]
