{
  ",</w>": 4,
  ".</w>": 5,
  "the</w>": 6,
  "in</w>": 7,
  ":</w>": 8,
  "of</w>": 9,
  "@-@</w>": 10,
  "and</w>": 11,
  "und</w>": 12,
  "der</w>": 13,
  ")</w>": 14,
  "(</w>": 15,
  "to</w>": 16,
  "die</w>": 17,
  "-</w>": 18,
  "a</w>": 19,
  "/</w>": 20,
  "von</w>": 21,
  "is</w>": 22,
  "for</w>": 23,
  "&quot;</w>": 24,
  "den</w>": 25,
  "on</w>": 26,
  "zu</w>": 27,
  "mit</w>": 28,
  "für</w>": 29,
  "with</w>": 30,
  "The</w>": 31,
  "an</w>": 32,
  "1</w>": 33,
  "ist</w>": 34,
  "des</w>": 35,
  "2</w>": 36,
  "auf</w>": 37,
  "that</w>": 38,
  "das</w>": 39,
  "es</w>": 40,
  "as</w>": 41,
  "are</w>": 42,
  "Sie</w>": 43,
  "be</w>": 44,
  "im</w>": 45,
  "eine</w>": 46,
  "by</w>": 47,
  "from</w>": 48,
  "3</w>": 49,
  "S": 50,
  "Die</w>": 51,
  "C": 52,
  "at</w>": 53,
  "ein</w>": 54,
  "P": 55,
  "dem</w>": 56,
  "or</w>": 57,
  "M": 58,
  "T": 59,
  "A": 60,
  "it</w>": 61,
  "I</w>": 62,
  "you</w>": 63,
  "ago</w>": 64,
  "4</w>": 65,
  "B": 66,
  "sich</w>": 67,
  "D": 68,
  "x</w>": 69,
  "werden</w>": 70,
  "Vor</w>": 71,
  "E": 72,
  "er</w>": 73,
  "nicht</w>": 74,
  "L": 75,
  "F": 76,
  "will</w>": 77,
  "this</w>": 78,
  "um</w>": 79,
  "G": 80,
  ";</w>": 81,
  "was</w>": 82,
  "als</w>": 83,
  "Vehicles</w>": 84,
  "K": 85,
  "o</w>": 86,
  "sind</w>": 87,
  "V": 88,
  "R": 89,
  "not</w>": 90,
  "oder</w>": 91,
  "5</w>": 92,
  "H": 93,
  "s</w>": 94,
  "k": 95,
  "er": 96,
  "In</w>": 97,
  "have</w>": 98,
  "in": 99,
  "00</w>": 100,
  "auch</w>": 101,
  "m</w>": 102,
  "i</w>": 103,
  "?</w>": 104,
  "wird</w>": 105,
  "aus</w>": 106,
  "10</w>": 107,
  "an": 108,
  "can</w>": 109,
  "d": 110,
  "!</w>": 111,
  "which</w>": 112,
  "3": 113,
  "&#124;</w>": 114,
  "I": 115,
  "p": 116,
  "am</w>": 117,
  "4": 118,
  "all</w>": 119,
  "en</w>": 120,
  "en": 121,
  "de</w>": 122,
  "dass</w>": 123,
  "N": 124,
  "s": 125,
  "be": 126,
  "6</w>": 127,
  "sie</w>": 128,
  "über</w>": 129,
  "has</w>": 130,
  "einer</w>": 131,
  "c": 132,
  "e": 133,
  "e</w>": 134,
  "5": 135,
  "we</w>": 136,
  "ver": 137,
  "O": 138,
  "so</w>": 139,
  "A</w>": 140,
  "...</w>": 141,
  "U": 142,
  "o": 143,
  "t": 144,
  "nach</w>": 145,
  "m": 146,
  "einen</w>": 147,
  "bei</w>": 148,
  "2": 149,
  "wir</w>": 150,
  ".": 151,
  "your</w>": 152,
  "one</w>": 153,
  "W": 154,
  "6": 155,
  "E</w>": 156,
  "also</w>": 157,
  "un": 158,
  "our</w>": 159,
  "Das</w>": 160,
  "einem</w>": 161,
  "a": 162,
  "wie</w>": 163,
  "years</w>": 164,
  "re": 165,
  "hat</w>": 166,
  "y": 167,
  "An": 168,
  "+</w>": 169,
  "8</w>": 170,
  "Z": 171,
  "te</w>": 172,
  "18</w>": 173,
  "&apos;s</w>": 174,
  "ation</w>": 175,
  "v": 176,
  "Der</w>": 177,
  "zur</w>": 178,
  "f": 179,
  "g": 180,
  "7</w>": 181,
  "al": 182,
  "t</w>": 183,
  "zum</w>": 184,
  "ten</w>": 185,
  "us</w>": 186,
  "its</w>": 187,
  "b": 188,
  "g</w>": 189,
  "EUR</w>": 190,
  "haben</w>": 191,
  "Ver": 192,
  "ge": 193,
  "7": 194,
  "x": 195,
  "n": 196,
  "ich</w>": 197,
  "l</w>": 198,
  "ch": 199,
  "z": 200,
  "more</w>": 201,
  "20</w>": 202,
  "%</w>": 203,
  "mm</w>": 204,
  "ung</w>": 205,
  "Jahren</w>": 206,
  "u": 207,
  "8": 208,
  "ar": 209,
  "12</w>": 210,
  "i": 211,
  "durch</w>": 212,
  "können</w>": 213,
  "their</w>": 214,
  "Fahrzeuge</w>": 215,
  "st": 216,
  "&#93;</w>": 217,
  "X": 218,
  "9": 219,
  "k</w>": 220,
  "Y": 221,
  "di": 222,
  "bis</w>": 223,
  "S</w>": 224,
  "li": 225,
  "1": 226,
  "or": 227,
  "&#91;</w>": 228,
  "L</w>": 229,
  "ab": 230,
  "T</w>": 231,
  "ing</w>": 232,
  "ti": 233,
  "al</w>": 234,
  "time</w>": 235,
  "up</w>": 236,
  "h": 237,
  "y</w>": 238,
  "11</w>": 239,
  "man</w>": 240,
  "30</w>": 241,
  "15</w>": 242,
  "ter</w>": 243,
  "el": 244,
  "D</w>": 245,
  "c</w>": 246,
  "u</w>": 247,
  "€</w>": 248,
  "nur</w>": 249,
  "xHamster</w>": 250,
  "O</w>": 251,
  "0": 252,
  "This</w>": 253,
  "Hotel</w>": 254,
  "05</w>": 255,
  "vor</w>": 256,
  "J": 257,
  "9</w>": 258,
  ".com</w>": 259,
  "l": 260,
  "kann</w>": 261,
  "but</w>": 262,
  "new</w>": 263,
  "year</w>": 264,
  "he</w>": 265,
  "wurde</w>": 266,
  "10": 267,
  "ri": 268,
  "Be": 269,
  "they</w>": 270,
  "50</w>": 271,
  "d</w>": 272,
  "on": 273,
  "EU</w>": 274,
  "M</w>": 275,
  "0</w>": 276,
  "his</w>": 277,
  "sch": 278,
  "p</w>": 279,
  "European</w>": 280,
  "Re": 281,
  "war</w>": 282,
  "do</w>": 283,
  "It</w>": 284,
  "big</w>": 285,
  "08</w>": 286,
  "ein": 287,
  "other</w>": 288,
  "about</w>": 289,
  "aus": 290,
  "06</w>": 291,
  "b</w>": 292,
  "been</w>": 293,
  "*</w>": 294,
  "only</w>": 295,
  "ent": 296,
  "able</w>": 297,
  "Es</w>": 298,
  "25</w>": 299,
  "In": 300,
  "km</w>": 301,
  "months</w>": 302,
  "le": 303,
  "46": 304,
  "Jahr</w>": 305,
  "de": 306,
  "at": 307,
  "Ab": 308,
  "Al": 309,
  "uns</w>": 310,
  "le</w>": 311,
  "ed</w>": 312,
  "j": 313,
  "ro": 314,
  "n</w>": 315,
  "07</w>": 316,
  "B</w>": 317,
  "out</w>": 318,
  "aber</w>": 319,
  "diese</w>": 320,
  "alle</w>": 321,
  "r": 322,
  "16</w>": 323,
  "Ã</w>": 324,
  "mi": 325,
  "14</w>": 326,
  "F</w>": 327,
  "th": 328,
  "R</w>": 329,
  "vom</w>": 330,
  "C</w>": 331,
  "am": 332,
  "We</w>": 333,
  "no</w>": 334,
  "18": 335,
  "Er": 336,
  "mehr</w>": 337,
  "19": 338,
  "dieser</w>": 339,
  "cm</w>": 340,
  "ra": 341,
  "01</w>": 342,
  "12": 343,
  "Monaten</w>": 344,
  "si": 345,
  "w": 346,
  "Airport</w>": 347,
  "sein</w>": 348,
  "ale</w>": 349,
  "online</w>": 350,
  "em": 351,
  "13</w>": 352,
  "el</w>": 353,
  "se": 354,
  "se</w>": 355,
  "ate</w>": 356,
  "es": 357,
  "ers</w>": 358,
  "r</w>": 359,
  "were</w>": 360,
  "h</w>": 361,
  "who</w>": 362,
  "24</w>": 363,
  "per</w>": 364,
  "me</w>": 365,
  "end</w>": 366,
  "there</w>": 367,
  "V</w>": 368,
  "noch</w>": 369,
  "33": 370,
  "15": 371,
  "ine</w>": 372,
  "da</w>": 373,
  "Sch": 374,
  "Con": 375,
  "very</w>": 376,
  "X</w>": 377,
  "chen</w>": 378,
  "z</w>": 379,
  "ts</w>": 380,
  "#</w>": 381,
  "te": 382,
  "into</w>": 383,
  "ungen</w>": 384,
  "Aus": 385,
  "wenn</w>": 386,
  "well</w>": 387,
  "ch</w>": 388,
  "Ein": 389,
  "sche</w>": 390,
  "um": 391,
  "40</w>": 392,
  "sp": 393,
  "Ich</w>": 394,
  "as": 395,
  "Wir</w>": 396,
  "ab</w>": 397,
  "P</w>": 398,
  "first</w>": 399,
  "ot": 400,
  "N</w>": 401,
  "2015</w>": 402,
  "ar</w>": 403,
  "ge</w>": 404,
  "con": 405,
  "-": 406,
  "17</w>": 407,
  "st</w>": 408,
  "St": 409,
  "K</w>": 410,
  "eines</w>": 411,
  "system</w>": 412,
  "ter": 413,
  "19</w>": 414,
  "lo": 415,
  "vi": 416,
  "would</w>": 417,
  "op": 418,
  "21</w>": 419,
  "ad": 420,
  "gen</w>": 421,
  "16": 422,
  "unter</w>": 423,
  "13": 424,
  "sehr</w>": 425,
  "20": 426,
  "use</w>": 427,
  "Ch": 428,
  "ap": 429,
  "04</w>": 430,
  "la": 431,
  "vor": 432,
  "ni": 433,
  "45": 434,
  "people</w>": 435,
  "Ex": 436,
  "ated</w>": 437,
  "them</w>": 438,
  "auf": 439,
  "30": 440,
  "co": 441,
  "these</w>": 442,
  "any</w>": 443,
  "22</w>": 444,
  "100</w>": 445,
  "age</w>": 446,
  "like</w>": 447,
  "sh": 448,
  "00": 449,
  "than</w>": 450,
  "f</w>": 451,
  "sen</w>": 452,
  "sowie</w>": 453,
  "ur": 454,
  "17": 455,
  "ungs": 456,
  "had</w>": 457,
  "two</w>": 458,
  "14": 459,
  "ent</w>": 460,
  "ag": 461,
  "ck": 462,
  "G</w>": 463,
  "CH": 464,
  "if</w>": 465,
  "Vi": 466,
  "AN": 467,
  "it": 468,
  "ass</w>": 469,
  "th</w>": 470,
  "ings</w>": 471,
  "ihre</w>": 472,
  "02</w>": 473,
  "when</w>": 474,
  "most</w>": 475,
  "inter": 476,
  "anal</w>": 477,
  "way</w>": 478,
  "H</w>": 479,
  "such</w>": 480,
  "ert</w>": 481,
  "Lo": 482,
  "bi": 483,
  "ac": 484,
  "&apos;</w>": 485,
  "Union</w>": 486,
  "area</w>": 487,
  "men</w>": 488,
  "03</w>": 489,
  "Mo": 490,
  "my</w>": 491,
  "ER": 492,
  "et": 493,
  "ations</w>": 494,
  "ne": 495,
  "IN": 496,
  "Tube</w>": 497,
  "Mar": 498,
  "schen</w>": 499,
  "work</w>": 500,
  "Ar": 501,
  "Li": 502,
  "sten</w>": 503,
  "v</w>": 504,
  "should</w>": 505,
  "•</w>": 506,
  "over</w>": 507,
  "bar</w>": 508,
  "mo": 509,
  "free</w>": 510,
  "et</w>": 511,
  "You</w>": 512,
  "23</w>": 513,
  "daß</w>": 514,
  "os": 515,
  "Commission</w>": 516,
  "between</w>": 517,
  "do": 518,
  "gibt</w>": 519,
  "De": 520,
  "09</w>": 521,
  "ler</w>": 522,
  "ST": 523,
  "der": 524,
  "AR": 525,
  "information</w>": 526,
  "now</w>": 527,
  "EN": 528,
  "diesem</w>": 529,
  "U</w>": 530,
  "days</w>": 531,
  "zwischen</w>": 532,
  "ina</w>": 533,
  "IS": 534,
  "Sh": 535,
  "ze</w>": 536,
  "Future</w>": 537,
  "2013</w>": 538,
  "_</w>": 539,
  "Kommission</w>": 540,
  "1.": 541,
  "lich</w>": 542,
  "Im</w>": 543,
  "Heavy</w>": 544,
  "many</w>": 545,
  "os</w>": 546,
  "Seite</w>": 547,
  "made</w>": 548,
  "ne</w>": 549,
  "zu": 550,
  "26</w>": 551,
  "us": 552,
  "50": 553,
  "old</w>": 554,
  "2016</w>": 555,
  "ve</w>": 556,
  "ec": 557,
  "Machines</w>": 558,
  "im": 559,
  "ul": 560,
  "2012</w>": 561,
  "les</w>": 562,
  "hier</w>": 563,
  "60</w>": 564,
  "go</w>": 565,
  "her</w>": 566,
  "28</w>": 567,
  "some</w>": 568,
  "room</w>": 569,
  "2014</w>": 570,
  "große</w>": 571,
  "2010</w>": 572,
  "world</w>": 573,
  "day</w>": 574,
  "For</w>": 575,
  "fi": 576,
  "Di": 577,
  "Se": 578,
  "Ihre</w>": 579,
  "qu": 580,
  "Vor": 581,
  "ant</w>": 582,
  "Bo": 583,
  "=</w>": 584,
  "2011</w>": 585,
  "ie</w>": 586,
  "PornHub</w>": 587,
  "ner</w>": 588,
  "den": 589,
  "is": 590,
  "immer</w>": 591,
  "ern</w>": 592,
  "And</w>": 593,
  "service</w>": 594,
  "32</w>": 595,
  "2009</w>": 596,
  "Mon": 597,
  "pro</w>": 598,
  "90</w>": 599,
  "ing": 600,
  "Spiele</w>": 601,
  "27</w>": 602,
  "°</w>": 603,
  "must</w>": 604,
  "ex": 605,
  "ck</w>": 606,
  "W</w>": 607,
  "liche</w>": 608,
  "anderen</w>": 609,
  "über": 610,
  "high</w>": 611,
  "ds</w>": 612,
  "Pro": 613,
  "milf</w>": 614,
  "place</w>": 615,
  "seine</w>": 616,
  "after</w>": 617,
  "ke</w>": 618,
  "car</w>": 619,
  "tra": 620,
  "Und</w>": 621,
  "Su": 622,
  "ster</w>": 623,
  "see</w>": 624,
  "Hotels</w>": 625,
  "tes</w>": 626,
  "29</w>": 627,
  "EN</w>": 628,
  "35</w>": 629,
  "Layer</w>": 630,
  "eren</w>": 631,
  "OR": 632,
  "erung</w>": 633,
  "Le": 634,
  "2.": 635,
  "tion</w>": 636,
  "land</w>": 637,
  "ten": 638,
  "ca</w>": 639,
  "au": 640,
  "Photoshop</w>": 641,
  "Po": 642,
  "gen": 643,
  "45</w>": 644,
  "Sp": 645,
  "for": 646,
  "pro": 647,
  "ste</w>": 648,
  "set</w>": 649,
  "Porn</w>": 650,
  "AT": 651,
  "available</w>": 652,
  "ER</w>": 653,
  "Zeit</w>": 654,
  "unter": 655,
  "through</w>": 656,
  "31</w>": 657,
  "ens</w>": 658,
  "If</w>": 659,
  "hotel</w>": 660,
  "to": 661,
  "ber</w>": 662,
  "what</w>": 663,
  "Europe</w>": 664,
  "Ge": 665,
  "ating</w>": 666,
  "wurden</w>": 667,
  "bo": 668,
  "order</w>": 669,
  "make</w>": 670,
  "großer</w>": 671,
  "tits</w>": 672,
  "may</w>": 673,
  "›</w>": 674,
  "used</w>": 675,
  "om": 676,
  "zwei</w>": 677,
  "ol": 678,
  "where</w>": 679,
  "ber": 680,
  "ding</w>": 681,
  "Wenn</w>": 682,
  "w</w>": 683,
  "Mit</w>": 684,
  "just</w>": 685,
  "ting</w>": 686,
  "Co": 687,
  "here</w>": 688,
  "Ein</w>": 689,
  "24": 690,
  "®</w>": 691,
  "80</w>": 692,
  "view</w>": 693,
  "ma</w>": 694,
  "Par": 695,
  "ken</w>": 696,
  "cken</w>": 697,
  "Y</w>": 698,
  "neue</w>": 699,
  "müssen</w>": 700,
  "ins</w>": 701,
  "ä": 702,
  "take</w>": 703,
  "RO": 704,
  "even</w>": 705,
  "AL": 706,
  "ru": 707,
  "dann</w>": 708,
  "part</w>": 709,
  "Tattoo</w>": 710,
  "he": 711,
  "ohne</w>": 712,
  "sc": 713,
  "vo": 714,
  "Ihnen</w>": 715,
  "Zu": 716,
  "IT": 717,
  "Germany</w>": 718,
  "seit</w>": 719,
  "RE": 720,
  "ihr</w>": 721,
  "lichen</w>": 722,
  "Diese</w>": 723,
  "keine</w>": 724,
  "@</w>": 725,
  "since</w>": 726,
  "TV</w>": 727,
  "ha": 728,
  "dieses</w>": 729,
  "her": 730,
  "ei": 731,
  "bietet</w>": 732,
  "Ro": 733,
  "Car": 734,
  "small</w>": 735,
  "ci": 736,
  "games</w>": 737,
  "Bi": 738,
  "ger": 739,
  "Jahre</w>": 740,
  "gi": 741,
  "US</w>": 742,
  "ic": 743,
  "ous</w>": 744,
  "sa": 745,
  "ic</w>": 746,
  "same</w>": 747,
  "ator</w>": 748,
  "Com": 749,
  "kon": 750,
  "Bilder</w>": 751,
  "Q": 752,
  "so": 753,
  "king</w>": 754,
  "then</w>": 755,
  "Auf": 756,
  "under</w>": 757,
  "fe": 758,
  "sk": 759,
  "par": 760,
  "fer": 761,
  "com": 762,
  "Kon": 763,
  "ted</w>": 764,
  "New</w>": 765,
  "ors</w>": 766,
  "2007</w>": 767,
  "len</w>": 768,
  "Über": 769,
  "ger</w>": 770,
  "art</w>": 771,
  "products</w>": 772,
  "é": 773,
  "ce</w>": 774,
  "Menschen</w>": 775,
  "ati": 776,
  "house</w>": 777,
  "ir": 778,
  "arsch</w>": 779,
  "man": 780,
  "Ma": 781,
  "ft</w>": 782,
  "No": 783,
  "because</w>": 784,
  "All</w>": 785,
  "eh": 786,
  "unsere</w>": 787,
  "ments</w>": 788,
  "ur</w>": 789,
  "good</w>": 790,
  "right</w>": 791,
  "per": 792,
  "need</w>": 793,
  "43</w>": 794,
  ".net</w>": 795,
  "$</w>": 796,
  "Wien</w>": 797,
  "data</w>": 798,
  "ser": 799,
  "ak": 800,
  "Berlin</w>": 801,
  "di</w>": 802,
  "id</w>": 803,
  "25": 804,
  "En": 805,
  "important</w>": 806,
  "hand": 807,
  "ly</w>": 808,
  "Für</w>": 809,
  "without</w>": 810,
  "ons</w>": 811,
  "tions</w>": 812,
  "TXXX</w>": 813,
  "2008</w>": 814,
  "3.": 815,
  "andere</w>": 816,
  "lat": 817,
  "Inter": 818,
  "ad</w>": 819,
  "ms</w>": 820,
  "gegen</w>": 821,
  "du</w>": 822,
  "General</w>": 823,
  "Her": 824,
  "ari": 825,
  "ON": 826,
  "Gu": 827,
  "ut": 828,
  "number</w>": 829,
  "neuen</w>": 830,
  "German</w>": 831,
  "ben</w>": 832,
  "finden</w>": 833,
  "ma": 834,
  "elle</w>": 835,
  "offers</w>": 836,
  "ps</w>": 837,
  "pe": 838,
  "ere</w>": 839,
  "Art</w>": 840,
  "different</w>": 841,
  "water</w>": 842,
  "po": 843,
  "States</w>": 844,
  "and": 845,
  "ung": 846,
  "Informationen</w>": 847,
  "asi": 848,
  "che</w>": 849,
  "how</w>": 850,
  "countries</w>": 851,
  "il": 852,
  "la</w>": 853,
  "eb": 854,
  "sion</w>": 855,
  "Welt</w>": 856,
  "November</w>": 857,
  "ia</w>": 858,
  "33</w>": 859,
  "re</w>": 860,
  "0.": 861,
  "On</w>": 862,
  "being</w>": 863,
  "life</w>": 864,
  "teen</w>": 865,
  "Council</w>": 866,
  "ig": 867,
  "Or": 868,
  "tu": 869,
  "before</w>": 870,
  "2006</w>": 871,
  "Bar": 872,
  "site</w>": 873,
  "own</w>": 874,
  "get</w>": 875,
  "those</w>": 876,
  "70</w>": 877,
  "ihrer</w>": 878,
  "mp": 879,
  "su": 880,
  "ty</w>": 881,
  "ed": 882,
  "Per": 883,
  "Unternehmen</w>": 884,
  "long</w>": 885,
  "EL": 886,
  "line</w>": 887,
  "seiner</w>": 888,
  "tt": 889,
  "ment</w>": 890,
  "Deutschland</w>": 891,
  "ta": 892,
  "him</w>": 893,
  "back</w>": 894,
  "There</w>": 895,
  "me": 896,
  "support</w>": 897,
  "Tag</w>": 898,
  "allen</w>": 899,
  "ure</w>": 900,
  "36</w>": 901,
  "UN": 902,
  "damit</w>": 903,
  "Z</w>": 904,
  "Zimmer</w>": 905,
  "Online</w>": 906,
  "quality</w>": 907,
  "enden</w>": 908,
  "34</w>": 909,
  "ties</w>": 910,
  "week</w>": 911,
  "Un": 912,
  "Europäischen</w>": 913,
  "Qu": 914,
  "Tu": 915,
  "So": 916,
  "ary</w>": 917,
  "Bra": 918,
  "Unter": 919,
  "4.": 920,
  "Preis</w>": 921,
  "rooms</w>": 922,
  "month</w>": 923,
  "els</w>": 924,
  "gu": 925,
  "wi": 926,
  "26": 927,
  "ther": 928,
  "55</w>": 929,
  "find</w>": 930,
  "da": 931,
  "Woche</w>": 932,
  "II</w>": 933,
  "ans</w>": 934,
  "April</w>": 935,
  "Eine</w>": 936,
  "best</w>": 937,
  "September</w>": 938,
  "dr": 939,
  "times</w>": 940,
  "during</w>": 941,
  "27": 942,
  "development</w>": 943,
  "form</w>": 944,
  "So</w>": 945,
  "As</w>": 946,
  "AS": 947,
  "stellen</w>": 948,
  "Tra": 949,
  "&gt;</w>": 950,
  "isch</w>": 951,
  "possible</w>": 952,
  "La</w>": 953,
  "city</w>": 954,
  "AG</w>": 955,
  "last</w>": 956,
  "Me": 957,
  "market</w>": 958,
  "ino</w>": 959,
  "em</w>": 960,
  "Au": 961,
  "est": 962,
  "Amarillas": 963,
  "ß</w>": 964,
  "Si": 965,
  "mat": 966,
  "around</w>": 967,
  "sch</w>": 968,
  "muss</w>": 969,
  "dies</w>": 970,
  "all": 971,
  "ker</w>": 972,
  "gel": 973,
  "28": 974,
  "ana</w>": 975,
  "Mr</w>": 976,
  "av": 977,
  "public</w>": 978,
  "ou": 979,
  "zen</w>": 980,
  "gra": 981,
  "within</w>": 982,
  "ff": 983,
  "could</w>": 984,
  "0,": 985,
  "ph": 986,
  "ka</w>": 987,
  "Lu": 988,
  "IC": 989,
  "Stadt</w>": 990,
  "company</w>": 991,
  "Gra": 992,
  "wieder</w>": 993,
  "no": 994,
  "light</w>": 995,
  "tive</w>": 996,
  "ko": 997,
  "ven": 998,
  "ellen</w>": 999,
  "á": 1000,
  "services</w>": 1001,
  "waren</w>": 1002,
  "2,": 1003,
  "40": 1004,
  "diesen</w>": 1005,
  "bu": 1006,
  "With</w>": 1007,
  "ende</w>": 1008,
  "Internet</w>": 1009,
  "scher</w>": 1010,
  "nen</w>": 1011,
  "each</w>": 1012,
  "Member</w>": 1013,
  "geben</w>": 1014,
  "wo</w>": 1015,
  "Euro</w>": 1016,
  "play</w>": 1017,
  "1,": 1018,
  "tri": 1019,
  "less</w>": 1020,
  "zeit</w>": 1021,
  "2005</w>": 1022,
  "zi": 1023,
  "sondern</w>": 1024,
  "great</w>": 1025,
  "both</w>": 1026,
  "37</w>": 1027,
  "tung</w>": 1028,
  "against</w>": 1029,
  "To": 1030,
  "ran": 1031,
  ".0": 1032,
  "ance</w>": 1033,
  "GmbH</w>": 1034,
  "ja</w>": 1035,
  "Er</w>": 1036,
  "three</w>": 1037,
  "international</w>": 1038,
  "Ferien": 1039,
  "ts": 1040,
  "unserer</w>": 1041,
  "machen</w>": 1042,
  "comp": 1043,
  "August</w>": 1044,
  "dis": 1045,
  "But</w>": 1046,
  "sen": 1047,
  "Du": 1048,
  "titten</w>": 1049,
  "ist": 1050,
  "pa": 1051,
  "Ad": 1052,
  "ll</w>": 1053,
  "Haus</w>": 1054,
  "San</w>": 1055,
  "War": 1056,
  "fen</w>": 1057,
  "ates</w>": 1058,
  "Europa</w>": 1059,
  "²</w>": 1060,
  "viele</w>": 1061,
  "©</w>": 1062,
  "38": 1063,
  "sehen</w>": 1064,
  "38</w>": 1065,
  "42</w>": 1066,
  "während</w>": 1067,
  "ES": 1068,
  "HD</w>": 1069,
  "ersten</w>": 1070,
  "President</w>": 1071,
  "ob": 1072,
  "bel</w>": 1073,
  "ile</w>": 1074,
  "ep": 1075,
  "ves</w>": 1076,
  "cht</w>": 1077,
  "co</w>": 1078,
  "ents</w>": 1079,
  "stellung</w>": 1080,
  "liegt</w>": 1081,
  "PC</w>": 1082,
  "Nr.</w>": 1083,
  "ori": 1084,
  "Wei": 1085,
  "ally</w>": 1086,
  "ce": 1087,
  "Entwicklung</w>": 1088,
  "ore</w>": 1089,
  "amp": 1090,
  "un</w>": 1091,
  "mich</w>": 1092,
  "tion": 1093,
  "Bu": 1094,
  "1010</w>": 1095,
  "2004</w>": 1096,
  "200</w>": 1097,
  "habe</w>": 1098,
  "Tagen</w>": 1099,
  "Ne": 1100,
  "del</w>": 1101,
  "Daten</w>": 1102,
  "mon": 1103,
  "kommen</w>": 1104,
  "Ihr</w>": 1105,
  "He</w>": 1106,
  "Home</w>": 1107,
  "mu": 1108,
  "res</w>": 1109,
  "heute</w>": 1110,
  "AC": 1111,
  "48</w>": 1112,
  "CO": 1113,
  "ö": 1114,
  "top</w>": 1115,
  "Images</w>": 1116,
  "Herr</w>": 1117,
  "bereits</w>": 1118,
  "Hand": 1119,
  "want</w>": 1120,
  "Wie</w>": 1121,
  "Artikel</w>": 1122,
  "cu": 1123,
  "To</w>": 1124,
  "Alle</w>": 1125,
  "real</w>": 1126,
  "via</w>": 1127,
  "ence</w>": 1128,
  "ON</w>": 1129,
  "ters</w>": 1130,
  "2000</w>": 1131,
  "Spiel</w>": 1132,
  "41</w>": 1133,
  "ub": 1134,
  "mer": 1135,
  "und": 1136,
  "sti": 1137,
  "System</w>": 1138,
  "still</w>": 1139,
  "min": 1140,
  "every</w>": 1141,
  "war": 1142,
  "Ri": 1143,
  "ihren</w>": 1144,
  "39</w>": 1145,
  "Sa": 1146,
  "59</w>": 1147,
  "ie": 1148,
  "gut</w>": 1149,
  "Produkte</w>": 1150,
  "bri": 1151,
  "gr": 1152,
  "ell": 1153,
  "offer</w>": 1154,
  "amateur</w>": 1155,
  "game</w>": 1156,
  "erte</w>": 1157,
  "res": 1158,
  "kom": 1159,
  "Cars</w>": 1160,
  "God</w>": 1161,
  "shall</w>": 1162,
  "USA</w>": 1163,
  "production</w>": 1164,
  "Gar": 1165,
  "case</w>": 1166,
  "ra</w>": 1167,
  "Ac": 1168,
  "SP": 1169,
  "Service</w>": 1170,
  "hatte</w>": 1171,
  "said</w>": 1172,
  "blowjob</w>": 1173,
  "tigen</w>": 1174,
  "group</w>": 1175,
  "500</w>": 1176,
  "car": 1177,
  "does</w>": 1178,
  "5.": 1179,
  "Fire</w>": 1180,
  "large</w>": 1181,
  "Page</w>": 1182,
  "fu": 1183,
  "ß": 1184,
  "China</w>": 1185,
  "price</w>": 1186,
  "level</w>": 1187,
  "Details</w>": 1188,
  "power</w>": 1189,
  "process</w>": 1190,
  "Bal": 1191,
  "52</w>": 1192,
  "Bau": 1193,
  "Porn": 1194,
  "pre": 1195,
  "ationen</w>": 1196,
  "Trucks</w>": 1197,
  "come</w>": 1198,
  "ase</w>": 1199,
  "already</w>": 1200,
  "cal</w>": 1201,
  "trans": 1202,
  "del": 1203,
  "based</w>": 1204,
  "Free</w>": 1205,
  "alen</w>": 1206,
  "know</w>": 1207,
  "tic</w>": 1208,
  "selbst</w>": 1209,
  "much</w>": 1210,
  "br": 1211,
  "tige</w>": 1212,
  "zimmer</w>": 1213,
  "ant": 1214,
  "44</w>": 1215,
  "51</w>": 1216,
  "95</w>": 1217,
  "mir</w>": 1218,
  "denen</w>": 1219,
  "Liefer": 1220,
  "je</w>": 1221,
  "Tri": 1222,
  "drei</w>": 1223,
  "At</w>": 1224,
  "million</w>": 1225,
  "IT</w>": 1226,
  "zusammen": 1227,
  "jetzt</w>": 1228,
  "ser</w>": 1229,
  "Gr": 1230,
  "Gen": 1231,
  "product</w>": 1232,
  "Our</w>": 1233,
  "mar": 1234,
  "children</w>": 1235,
  "page</w>": 1236,
  "49</w>": 1237,
  "ene</w>": 1238,
  "Auf</w>": 1239,
  "du": 1240,
  "ach": 1241,
  "Set</w>": 1242,
  "ens": 1243,
  "Th": 1244,
  "ano</w>": 1245,
  "Allgemein</w>": 1246,
  "sive</w>": 1247,
  "Pal": 1248,
  "example</w>": 1249,
  "lation</w>": 1250,
  "tr": 1251,
  "ard</w>": 1252,
  "AM": 1253,
  "systems</w>": 1254,
  "mann</w>": 1255,
  "75</w>": 1256,
  "RA": 1257,
  "May</w>": 1258,
  "air</w>": 1259,
  "design</w>": 1260,
  "Pre": 1261,
  "ness</w>": 1262,
  "beim</w>": 1263,
  "following</w>": 1264,
  "3,": 1265,
  "Monat</w>": 1266,
  "interest</w>": 1267,
  "gh": 1268,
  "bar": 1269,
  "ganz</w>": 1270,
  "lu": 1271,
  "58</w>": 1272,
  "Cal": 1273,
  "ry</w>": 1274,
  "Ter": 1275,
  "seinen</w>": 1276,
  "alt</w>": 1277,
  "black</w>": 1278,
  "geb": 1279,
  "let</w>": 1280,
  "up": 1281,
  "job</w>": 1282,
  "La": 1283,
  "ell</w>": 1284,
  "est</w>": 1285,
  "special</w>": 1286,
  "point</w>": 1287,
  "ausge": 1288,
  "located</w>": 1289,
  "including</w>": 1290,
  "men": 1291,
  "Land</w>": 1292,
  "schon</w>": 1293,
  "business</w>": 1294,
  "low</w>": 1295,
  "Ru": 1296,
  "He": 1297,
  "stri": 1298,
  "name</w>": 1299,
  "CD</w>": 1300,
  "führen</w>": 1301,
  "56</w>": 1302,
  "ality</w>": 1303,
  "fe</w>": 1304,
  "Teil</w>": 1305,
  "enk": 1306,
  "57</w>": 1307,
  "LE": 1308,
  "Um": 1309,
  "va</w>": 1310,
  "mal</w>": 1311,
  "the": 1312,
  "sel": 1313,
  "Do": 1314,
  "46</w>": 1315,
  "Nach</w>": 1316,
  "cre": 1317,
  "ang": 1318,
  "Ju": 1319,
  "Pu": 1320,
  "They</w>": 1321,
  "position</w>": 1322,
  "related</w>": 1323,
  "country</w>": 1324,
  "Mitgliedstaaten</w>": 1325,
  "SE": 1326,
  "France</w>": 1327,
  "Star": 1328,
  "ability</w>": 1329,
  "Kinder</w>": 1330,
  "found</w>": 1331,
  "using</w>": 1332,
  "tran": 1333,
  "Bereich</w>": 1334,
  "end": 1335,
  "cher</w>": 1336,
  "Pi": 1337,
  "Ko": 1338,
  "viel</w>": 1339,
  "erhalten</w>": 1340,
  "ys</w>": 1341,
  "energy</w>": 1342,
  "side</w>": 1343,
  "haus</w>": 1344,
  "ity</w>": 1345,
  "eln</w>": 1346,
  "economic</w>": 1347,
  "fo": 1348,
  "que</w>": 1349,
  "course</w>": 1350,
  "double</w>": 1351,
  "jedoch</w>": 1352,
  "54</w>": 1353,
  "ta</w>": 1354,
  "ade</w>": 1355,
  "lassen</w>": 1356,
  "access</w>": 1357,
  "MP": 1358,
  "masturbation</w>": 1359,
  "son</w>": 1360,
  "col": 1361,
  "Kar": 1362,
  "go": 1363,
  "alog</w>": 1364,
  "lin": 1365,
  "enz": 1366,
  "gs</w>": 1367,
  "Dr.</w>": 1368,
  "ks</w>": 1369,
  "she</w>": 1370,
  "Man": 1371,
  "47</w>": 1372,
  "Airbrush</w>": 1373,
  "help</w>": 1374,
  "Umgebung</w>": 1375,
  "ali": 1376,
  "Spiel": 1377,
  "Sk": 1378,
  "8.": 1379,
  "6.": 1380,
  "denn</w>": 1381,
  "Rei": 1382,
  "down</w>": 1383,
  "report</w>": 1384,
  "lan": 1385,
  "ische</w>": 1386,
  "platz</w>": 1387,
  "red</w>": 1388,
  "version</w>": 1389,
  "put</w>": 1390,
  "size</w>": 1391,
  "mail</w>": 1392,
  "today</w>": 1393,
  "project</w>": 1394,
  "full</w>": 1395,
  "Pa": 1396,
  "stand</w>": 1397,
  "oo": 1398,
  "babe</w>": 1399,
  "natural</w>": 1400,
  "erten</w>": 1401,
  "home</w>": 1402,
  "solo</w>": 1403,
  "Gi": 1404,
  "65</w>": 1405,
  "53</w>": 1406,
  "Fi": 1407,
  "einige</w>": 1408,
  "Fe": 1409,
  "June</w>": 1410,
  "ihm</w>": 1411,
  "9,": 1412,
  "next</w>": 1413,
  "pu": 1414,
  "schwanz</w>": 1415,
  "tet</w>": 1416,
  "Kom": 1417,
  "night</w>": 1418,
  "gehen</w>": 1419,
  "further</w>": 1420,
  "ro</w>": 1421,
  "Flughafen</w>": 1422,
  "nun</w>": 1423,
  "again</w>": 1424,
  "Ber": 1425,
  "young</w>": 1426,
  "ative</w>": 1427,
  "Europäische</w>": 1428,
  "open</w>": 1429,
  "geht</w>": 1430,
  "social</w>": 1431,
  "Ho": 1432,
  "min</w>": 1433,
  "fin": 1434,
  "we": 1435,
  "Lin": 1436,
  "sollte</w>": 1437,
  "GotPorn</w>": 1438,
  "Juni</w>": 1439,
  "enz</w>": 1440,
  "hand</w>": 1441,
  "IL": 1442,
  "tisch</w>": 1443,
  "ches</w>": 1444,
  "Cli": 1445,
  "unseren</w>": 1446,
  "Rahmen</w>": 1447,
  "Nu": 1448,
  "ses</w>": 1449,
  "Cat": 1450,
  "za</w>": 1451,
  "enti": 1452,
  "berg</w>": 1453,
  "cht": 1454,
  "ling</w>": 1455,
  "while</w>": 1456,
  "pp": 1457,
  "kg</w>": 1458,
  "Leben</w>": 1459,
  "off</w>": 1460,
  "bra": 1461,
  "Mi": 1462,
  "ces</w>": 1463,
  "Te": 1464,
  "¼</w>": 1465,
  "soll</w>": 1466,
  "Ent": 1467,
  "No</w>": 1468,
  "DI": 1469,
  "5,": 1470,
  "heit</w>": 1471,
  "ini": 1472,
  "23": 1473,
  "cock</w>": 1474,
  "therefore</w>": 1475,
  "station</w>": 1476,
  "ong</w>": 1477,
  "too</w>": 1478,
  "management</w>": 1479,
  "International</w>": 1480,
  "mature</w>": 1481,
  "met": 1482,
  "wei": 1483,
  "ster": 1484,
  "tern</w>": 1485,
  "Cor": 1486,
  "Bei</w>": 1487,
  "pi": 1488,
  "wa": 1489,
  "Website</w>": 1490,
  "weeks</w>": 1491,
  "Ta": 1492,
  "future</w>": 1493,
  "weil</w>": 1494,
  "ihn</w>": 1495,
  "Wochen</w>": 1496,
  "eri": 1497,
  "Personen</w>": 1498,
  "bed</w>": 1499,
  "together</w>": 1500,
  "range</w>": 1501,
  "sub": 1502,
  "over": 1503,
  "always</w>": 1504,
  "au</w>": 1505,
  "licher</w>": 1506,
  "An</w>": 1507,
  "2018</w>": 1508,
  "eu": 1509,
  "stra": 1510,
  "29": 1511,
  "entfernt</w>": 1512,
  "Sal": 1513,
  "ets</w>": 1514,
  "Dies</w>": 1515,
  "großen</w>": 1516,
  "är": 1517,
  "hei": 1518,
  "cs</w>": 1519,
  "Mai</w>": 1520,
  "bel": 1521,
  "9.": 1522,
  "Grund": 1523,
  "pri": 1524,
  "ges</w>": 1525,
  "US": 1526,
  "möglich</w>": 1527,
  "pool</w>": 1528,
  "Google</w>": 1529,
  "What</w>": 1530,
  "Neu": 1531,
  "family</w>": 1532,
  "99</w>": 1533,
  "Group</w>": 1534,
  "Arbeit</w>": 1535,
  "March</w>": 1536,
  "1x</w>": 1537,
  "Windows</w>": 1538,
  "total</w>": 1539,
  "hr": 1540,
  "Software</w>": 1541,
  "ihnen</w>": 1542,
  "ischen</w>": 1543,
  "United</w>": 1544,
  "einfach</w>": 1545,
  "fied</w>": 1546,
  "ier": 1547,
  "möchte</w>": 1548,
  "LAR</w>": 1549,
  "ben": 1550,
  "etwas</w>": 1551,
  "net</w>": 1552,
  "conditions</w>": 1553,
  "working</w>": 1554,
  "control</w>": 1555,
  "second</w>": 1556,
  "inc": 1557,
  "Can": 1558,
  "Bild</w>": 1559,
  "stehen</w>": 1560,
  "near</w>": 1561,
  "board</w>": 1562,
  "Frau</w>": 1563,
  "ye": 1564,
  "2002</w>": 1565,
  "Anzahl</w>": 1566,
  "Tr": 1567,
  "policy</w>": 1568,
  "Sc": 1569,
  "World</w>": 1570,
  "alo": 1571,
  "ble</w>": 1572,
  "For": 1573,
  "schaft</w>": 1574,
  "Kunden</w>": 1575,
  "December</w>": 1576,
  "2003</w>": 1577,
  "ok": 1578,
  "·</w>": 1579,
  "Parliament</w>": 1580,
  "bieten</w>": 1581,
  "away</w>": 1582,
  "je": 1583,
  "Ende</w>": 1584,
  "des": 1585,
  "300</w>": 1586,
  "Person</w>": 1587,
  "Pat": 1588,
  "ange": 1589,
  "DE</w>": 1590,
  "Kat": 1591,
  "amateure</w>": 1592,
  "material</w>": 1593,
  "Rat</w>": 1594,
  "human</w>": 1595,
  "did</w>": 1596,
  "Als</w>": 1597,
  "ics</w>": 1598,
  "blasen</w>": 1599,
  "hi": 1600,
  "af": 1601,
  "Porno</w>": 1602,
  "ang</w>": 1603,
  "dazu</w>": 1604,
  "person</w>": 1605,
  "ast": 1606,
  "technology</w>": 1607,
  "AL</w>": 1608,
  "alles</w>": 1609,
  "From</w>": 1610,
  "rei": 1611,
  "IP</w>": 1612,
  "tro": 1613,
  "Games</w>": 1614,
  "ü": 1615,
  "ev": 1616,
  "tur": 1617,
  "Mal": 1618,
  "Uhr</w>": 1619,
  "por": 1620,
  "areas</w>": 1621,
  "weiter</w>": 1622,
  "ton</w>": 1623,
  "few</w>": 1624,
  "ware</w>": 1625,
  "az": 1626,
  "na": 1627,
  "ord": 1628,
  "Hin": 1629,
  "bin</w>": 1630,
  "Nähe</w>": 1631,
  "Cre": 1632,
  "ga": 1633,
  "Hei": 1634,
  "experience</w>": 1635,
  "tz": 1636,
  "means</w>": 1637,
  "ver</w>": 1638,
  "companies</w>": 1639,
  "ose</w>": 1640,
  "City</w>": 1641,
  "Ö": 1642,
  "ente</w>": 1643,
  "When</w>": 1644,
  "TR": 1645,
  "ern": 1646,
  "field</w>": 1647,
  "St.</w>": 1648,
  "ob</w>": 1649,
  "ml</w>": 1650,
  "&apos;t</w>": 1651,
  "main</w>": 1652,
  "7.": 1653,
  "weitere</w>": 1654,
  "sches</w>": 1655,
  "hin": 1656,
  "October</w>": 1657,
  "building</w>": 1658,
  "wer": 1659,
  "Beispiel</w>": 1660,
  "fl": 1661,
  "national</w>": 1662,
  "Ti": 1663,
  "Frage</w>": 1664,
  "lei": 1665,
  "Oktober</w>": 1666,
  "Was</w>": 1667,
  "Auch</w>": 1668,
  "give</w>": 1669,
  "4,": 1670,
  "ory</w>": 1671,
  "welche</w>": 1672,
  "web": 1673,
  "These</w>": 1674,
  "OL": 1675,
  "OS</w>": 1676,
  "El": 1677,
  "Bei": 1678,
  "kleine</w>": 1679,
  "ette</w>": 1680,
  "software</w>": 1681,
  "After</w>": 1682,
  "arbeiten</w>": 1683,
  "Shi": 1684,
  "rights</w>": 1685,
  "Sport</w>": 1686,
  "durch": 1687,
  "Lage</w>": 1688,
  "allem</w>": 1689,
  "EC": 1690,
  "Pr": 1691,
  "Restaurant</w>": 1692,
  "í": 1693,
  "Ort</w>": 1694,
  "private</w>": 1695,
  "ho": 1696,
  "lar</w>": 1697,
  "ue</w>": 1698,
  "Ba": 1699,
  "sta": 1700,
  "erste</w>": 1701,
  "sions</w>": 1702,
  "ical</w>": 1703,
  "tional</w>": 1704,
  "März</w>": 1705,
  "Tage</w>": 1706,
  "Von</w>": 1707,
  "ction</w>": 1708,
  "deren</w>": 1709,
  "sts</w>": 1710,
  "befindet</w>": 1711,
  "Dezember</w>": 1712,
  "played</w>": 1713,
  "Kunst": 1714,
  "Play</w>": 1715,
  "verschiedenen</w>": 1716,
  "aller</w>": 1717,
  "Pla": 1718,
  "Bericht</w>": 1719,
  "ded</w>": 1720,
  "ya</w>": 1721,
  "Shop</w>": 1722,
  "Museum</w>": 1723,
  "state</w>": 1724,
  "tem</w>": 1725,
  "provide</w>": 1726,
  "lung</w>": 1727,
  "style</w>": 1728,
  "ah": 1729,
  ".de</w>": 1730,
  "steht</w>": 1731,
  "political</w>": 1732,
  "halten</w>": 1733,
  "region</w>": 1734,
  "ca.</w>": 1735,
  "Am</w>": 1736,
  "EL</w>": 1737,
  "PS</w>": 1738,
  "One</w>": 1739,
  "200": 1740,
  "64</w>": 1741,
  "ies</w>": 1742,
  "Bel": 1743,
  "close</w>": 1744,
  "Design</w>": 1745,
  "Aber</w>": 1746,
  "fication</w>": 1747,
  "change</w>": 1748,
  "Jesus</w>": 1749,
  "Tre": 1750,
  "UR": 1751,
  "000</w>": 1752,
  "Dat": 1753,
  "cam</w>": 1754,
  "Region</w>": 1755,
  "ES</w>": 1756,
  "IN</w>": 1757,
  "ess</w>": 1758,
  "85</w>": 1759,
  "Israel</w>": 1760,
  "AD": 1761,
  "ort</w>": 1762,
  "Wi": 1763,
  "Ste": 1764,
  "cks</w>": 1765,
  "bs</w>": 1766,
  "SA</w>": 1767,
  "las": 1768,
  "é</w>": 1769,
  "gt</w>": 1770,
  "works</w>": 1771,
  "Ak": 1772,
  "Rec": 1773,
  "gel</w>": 1774,
  "current</w>": 1775,
  "fast</w>": 1776,
  "Spain</w>": 1777,
  "until</w>": 1778,
  "lot</w>": 1779,
  "left</w>": 1780,
  "Wasser": 1781,
  "result</w>": 1782,
  "ero": 1783,
  "ail": 1784,
  "say</w>": 1785,
  "Fli": 1786,
  "Karte</w>": 1787,
  "ste": 1788,
  "na</w>": 1789,
  "ss": 1790,
  "ität</w>": 1791,
  "Download</w>": 1792,
  "ages</w>": 1793,
  "present</w>": 1794,
  "e.": 1795,
  "Cas": 1796,
  "research</w>": 1797,
  "July</w>": 1798,
  "enten</w>": 1799,
  "can": 1800,
  "Ihren</w>": 1801,
  "non</w>": 1802,
  "industry</w>": 1803,
  "file</w>": 1804,
  "Italy</w>": 1805,
  "results</w>": 1806,
  "Techni": 1807,
  "Fl": 1808,
  "EU": 1809,
  "tw": 1810,
  "zzle</w>": 1811,
  "freie</w>": 1812,
  "anisch</w>": 1813,
  "look</w>": 1814,
  "il</w>": 1815,
  "ss</w>": 1816,
  "brü": 1817,
  "Zeiten</w>": 1818,
  "fol": 1819,
  "würde</w>": 1820,
  "head</w>": 1821,
  "ler": 1822,
  "ID</w>": 1823,
  "ve": 1824,
  "show</w>": 1825,
  "rund</w>": 1826,
  "90": 1827,
  "Har": 1828,
  "spritzen</w>": 1829,
  "cker</w>": 1830,
  "Weg</w>": 1831,
  "become</w>": 1832,
  "Präsident</w>": 1833,
  "another</w>": 1834,
  "tungen</w>": 1835,
  "Des": 1836,
  "eng": 1837,
  "Dis": 1838,
  "prices</w>": 1839,
  "Mat": 1840,
  "cat": 1841,
  "law</w>": 1842,
  "lichkeit</w>": 1843,
  "nach": 1844,
  "Juli</w>": 1845,
  "europäischen</w>": 1846,
  "face</w>": 1847,
  "Seiten</w>": 1848,
  "vers": 1849,
  "ass": 1850,
  "dern</w>": 1851,
  "führt</w>": 1852,
  "Dr": 1853,
  "reife</w>": 1854,
  "rental</w>": 1855,
  "fri": 1856,
  "Web": 1857,
  "tre": 1858,
  "letzten</w>": 1859,
  "2017</w>": 1860,
  "Regi": 1861,
  "sal": 1862,
  "Lei": 1863,
  "taken</w>": 1864,
  "Classic</w>": 1865,
  "How</w>": 1866,
  "list</w>": 1867,
  "2001</w>": 1868,
  "doch</w>": 1869,
  "particular</w>": 1870,
  "hen</w>": 1871,
  "meine</w>": 1872,
  "zer</w>": 1873,
  "January</w>": 1874,
  "mit": 1875,
  "Nacht</w>": 1876,
  "app": 1877,
  "chten</w>": 1878,
  "iz": 1879,
  "Col": 1880,
  "AN</w>": 1881,
  "sollten</w>": 1882,
  "6,": 1883,
  "nehmen</w>": 1884,
  "called</w>": 1885,
  "bin": 1886,
  "sea</w>": 1887,
  "Uni": 1888,
  "Hel": 1889,
  "XL</w>": 1890,
  "ME": 1891,
  "ek": 1892,
  "Paris</w>": 1893,
  "IM": 1894,
  "11": 1895,
  "local</w>": 1896,
  "far</w>": 1897,
  "necessary</w>": 1898,
  "kommt</w>": 1899,
  "various</w>": 1900,
  "contact</w>": 1901,
  "enen</w>": 1902,
  "My</w>": 1903,
  "Min": 1904,
  "Audi</w>": 1905,
  "Hy": 1906,
  "seinem</w>": 1907,
  "kaufen</w>": 1908,
  "Gott</w>": 1909,
  "fa": 1910,
  "direkt</w>": 1911,
  "liegen</w>": 1912,
  "sex</w>": 1913,
  "Red": 1914,
  "Sti": 1915,
  "Verfügung</w>": 1916,
  "Arbeits": 1917,
  "dabei</w>": 1918,
  "japanese</w>": 1919,
  "TS</w>": 1920,
  "Video</w>": 1921,
  "kt</w>": 1922,
  "My": 1923,
  "ren": 1924,
  "Go": 1925,
  "Char": 1926,
  "ide": 1927,
  "bereich</w>": 1928,
  "ual</w>": 1929,
  "living</w>": 1930,
  "Ziel</w>": 1931,
  "ving</w>": 1932,
  "start</w>": 1933,
  "VPorn</w>": 1934,
  "cl": 1935,
  "ess": 1936,
  "wollen</w>": 1937,
  "führung</w>": 1938,
  "ak</w>": 1939,
  "ath": 1940,
  "question</w>": 1941,
  "8,": 1942,
  "ga</w>": 1943,
  "DURA</w>": 1944,
  "gesch": 1945,
  "DL": 1946,
  "mm": 1947,
  "several</w>": 1948,
  "innen</w>": 1949,
  "iert</w>": 1950,
  "stellt</w>": 1951,
  "fer</w>": 1952,
  "schwarz</w>": 1953,
  "financial</w>": 1954,
  "fact</w>": 1955,
  "Ober": 1956,
  "sis</w>": 1957,
  "centre</w>": 1958,
  "food</w>": 1959,
  "pen": 1960,
  "having</w>": 1961,
  "Imp": 1962,
  "din</w>": 1963,
  "bei": 1964,
  "oll": 1965,
  "Zusammenarbeit</w>": 1966,
  "Mor": 1967,
  "beach</w>": 1968,
  "DVD</w>": 1969,
  "j</w>": 1970,
  "clear</w>": 1971,
  "ven</w>": 1972,
  "Ihrer</w>": 1973,
  "anti": 1974,
  "Pri": 1975,
  "News</w>": 1976,
  "Villa</w>": 1977,
  "Benutz": 1978,
  "Unterstützung</w>": 1979,
  "ender</w>": 1980,
  "pan": 1981,
  "liches</w>": 1982,
  "ws</w>": 1983,
  "frau</w>": 1984,
  "les": 1985,
  "tiert</w>": 1986,
  "eigenen</w>": 1987,
  "English</w>": 1988,
  "Stunden</w>": 1989,
  "sagen</w>": 1990,
  "Januar</w>": 1991,
  "beautiful</w>": 1992,
  "wor": 1993,
  "Win": 1994,
  "town</w>": 1995,
  "protection</w>": 1996,
  "Ph": 1997,
  "self</w>": 1998,
  "150</w>": 1999,
  "ktion</w>": 2000,
  "cor": 2001,
  "ik": 2002,
  "80": 2003,
  "Mag": 2004,
  "gang</w>": 2005,
  "sor": 2006,
  "videos</w>": 2007,
  "given</w>": 2008,
  "ani": 2009,
  "ink": 2010,
  "Fal": 2011,
  "date</w>": 2012,
  "Daten": 2013,
  "Autom": 2014,
  "Your</w>": 2015,
  "Park</w>": 2016,
  "Spielen</w>": 2017,
  "ähnliche</w>": 2018,
  "Camping</w>": 2019,
  "LO": 2020,
  "ery</w>": 2021,
  "Maßnahmen</w>": 2022,
  "ars</w>": 2023,
  "Wasser</w>": 2024,
  "dar": 2025,
  "IS</w>": 2026,
  "vielen</w>": 2027,
  "shop</w>": 2028,
  "Fin": 2029,
  "action</w>": 2030,
  "pov</w>": 2031,
  "words</w>": 2032,
  "Nor": 2033,
  "ah</w>": 2034,
  "bare</w>": 2035,
  "front</w>": 2036,
  "better</w>": 2037,
  "euch</w>": 2038,
  "whole</w>": 2039,
  "nette</w>": 2040,
  "än": 2041,
  "stic</w>": 2042,
  "among</w>": 2043,
  "stat": 2044,
  "pl": 2045,
  "modern</w>": 2046,
  "60": 2047,
  "single</w>": 2048,
  "JizzBunker</w>": 2049,
  "estate</w>": 2050,
  "Qualität</w>": 2051,
  "user</w>": 2052,
  "Vol": 2053,
  "len": 2054,
  "four</w>": 2055,
  "72</w>": 2056,
  "innerhalb</w>": 2057,
  "Pan": 2058,
  "ny</w>": 2059,
  "period</w>": 2060,
  "zz": 2061,
  "bringen</w>": 2062,
  "Dieses</w>": 2063,
  "Videos</w>": 2064,
  "m2</w>": 2065,
  "book</w>": 2066,
  "ick</w>": 2067,
  "Da</w>": 2068,
  "IG": 2069,
  "tieren</w>": 2070,
  "Programm</w>": 2071,
  "Ther": 2072,
  "DE": 2073,
  "kl": 2074,
  "q": 2075,
  "worden</w>": 2076,
  "white</w>": 2077,
  "Por": 2078,
  "little</w>": 2079,
  "type</w>": 2080,
  "Platz</w>": 2081,
  "Dra": 2082,
  "anz": 2083,
  "body</w>": 2084,
  "ini</w>": 2085,
  "test</w>": 2086,
  "AG": 2087,
  "eller</w>": 2088,
  "Ra": 2089,
  "NE": 2090,
  "los</w>": 2091,
  "As": 2092,
  "rec": 2093,
  "cking</w>": 2094,
  "jungendliche</w>": 2095,
  "ex</w>": 2096,
  "However</w>": 2097,
  "á</w>": 2098,
  "Am": 2099,
  "ite</w>": 2100,
  "mer</w>": 2101,
  "tun</w>": 2102,
  "ads</w>": 2103,
  "Hier</w>": 2104,
  "Land": 2105,
  "chte</w>": 2106,
  "Wor": 2107,
  "beh": 2108,
  "ering</w>": 2109,
  "cul": 2110,
  "beiden</w>": 2111,
  "etwa</w>": 2112,
  "Um</w>": 2113,
  "PDF</w>": 2114,
  "Italien</w>": 2115,
  "Concept</w>": 2116,
  "ums</w>": 2117,
  "music</w>": 2118,
  "above</w>": 2119,
  "text</w>": 2120,
  "hal": 2121,
  "files</w>": 2122,
  "ders</w>": 2123,
  "speci": 2124,
  "LA": 2125,
  "blonde</w>": 2126,
  "vers</w>": 2127,
  "ut</w>": 2128,
  "1.</w>": 2129,
  "Rel": 2130,
  "Fac": 2131,
  "kW</w>": 2132,
  "darauf</w>": 2133,
  "video</w>": 2134,
  "Added</w>": 2135,
  "under": 2136,
  "fully</w>": 2137,
  "short</w>": 2138,
  "69</w>": 2139,
  "fest": 2140,
  "updates</w>": 2141,
  "website</w>": 2142,
  "painting</w>": 2143,
  "live</w>": 2144,
  "cumshot</w>": 2145,
  "cultural</w>": 2146,
  "Ger": 2147,
  "Lat": 2148,
  "sper": 2149,
  "act</w>": 2150,
  "ju": 2151,
  "key</w>": 2152,
  "besteht</w>": 2153,
  "Fragen</w>": 2154,
  "Fu": 2155,
  "Frankreich</w>": 2156,
  "box</w>": 2157,
  "ght</w>": 2158,
  "Fall</w>": 2159,
  "application</w>": 2160,
  "Buch": 2161,
  "voll": 2162,
  "ill": 2163,
  "House</w>": 2164,
  "bre": 2165,
  "Beschreibung</w>": 2166,
  "Pe": 2167,
  "bit</w>": 2168,
  "views</w>": 2169,
  "Pra": 2170,
  "minutes</w>": 2171,
  "measures</w>": 2172,
  "Namen</w>": 2173,
  "according</w>": 2174,
  "tische</w>": 2175,
  "ging</w>": 2176,
  "rü": 2177,
  "tical</w>": 2178,
  "Points</w>": 2179,
  "park</w>": 2180,
  "enn": 2181,
  "baren</w>": 2182,
  "cke</w>": 2183,
  "wife</w>": 2184,
  "100": 2185,
  "gl": 2186,
  "Dri": 2187,
  "known</w>": 2188,
  "vier</w>": 2189,
  "space</w>": 2190,
  "security</w>": 2191,
  "Plat": 2192,
  "Bet": 2193,
  "76</w>": 2194,
  "Kirche</w>": 2195,
  "Sol": 2196,
  "Gruppe</w>": 2197,
  "Form</w>": 2198,
  "amp</w>": 2199,
  "Version</w>": 2200,
  "char": 2201,
  "bb": 2202,
  "yl": 2203,
  "Unterkunft</w>": 2204,
  "Durch": 2205,
  "zusammen</w>": 2206,
  "Tro": 2207,
  "wer</w>": 2208,
  "dle</w>": 2209,
  "mal": 2210,
  "400</w>": 2211,
  "ct</w>": 2212,
  "Geschichte</w>": 2213,
  "parts</w>": 2214,
  "insbesondere</w>": 2215,
  "stell": 2216,
  "sy": 2217,
  "map</w>": 2218,
  "third</w>": 2219,
  "tor</w>": 2220,
  "common</w>": 2221,
  "stay</w>": 2222,
  "ture</w>": 2223,
  "activities</w>": 2224,
  "points</w>": 2225,
  "requests</w>": 2226,
  "Bri": 2227,
  "besten</w>": 2228,
  "South</w>": 2229,
  "una</w>": 2230,
  "ll": 2231,
  "kein</w>": 2232,
  "Schablonen</w>": 2233,
  "har": 2234,
  "party</w>": 2235,
  "Zugriffe</w>": 2236,
  "Preise</w>": 2237,
  "96</w>": 2238,
  "situation</w>": 2239,
  "kosten": 2240,
  "brunette</w>": 2241,
  "ologie</w>": 2242,
  "ella</w>": 2243,
  "stu": 2244,
  "Le</w>": 2245,
  "hours</w>": 2246,
  "98</w>": 2247,
  "love</w>": 2248,
  "provided</w>": 2249,
  "ish</w>": 2250,
  "Fest": 2251,
  "tischen</w>": 2252,
  "Werk": 2253,
  "Haupt": 2254,
  "visit</w>": 2255,
  "led</w>": 2256,
  "Kor": 2257,
  "Sub": 2258,
  "Tags</w>": 2259,
  "AC</w>": 2260,
  "aten</w>": 2261,
  "Det": 2262,
  "pages": 2263,
  "Mu": 2264,
  "OS": 2265,
  "ski</w>": 2266,
  "ants</w>": 2267,
  "C.</w>": 2268,
  "That</w>": 2269,
  "70": 2270,
  "chen": 2271,
  "Stencils</w>": 2272,
  "gro": 2273,
  "Ländern</w>": 2274,
  "alten</w>": 2275,
  "AS</w>": 2276,
  "Val": 2277,
  "ba</w>": 2278,
  "int</w>": 2279,
  "¤</w>": 2280,
  "jeder</w>": 2281,
  "ale": 2282,
  "fra": 2283,
  "Ergebnisse</w>": 2284,
  "basis</w>": 2285,
  "heart</w>": 2286,
  "Op": 2287,
  "tionen</w>": 2288,
  "spielte</w>": 2289,
  "Parlament</w>": 2290,
  "etc</w>": 2291,
  "mittel</w>": 2292,
  "Updates</w>": 2293,
  "especially</w>": 2294,
  "film</w>": 2295,
  "machine</w>": 2296,
  "Nach": 2297,
  "wagen</w>": 2298,
  "dafür</w>": 2299,
  "AT</w>": 2300,
  "ese</w>": 2301,
  "unserem</w>": 2302,
  "ds": 2303,
  "bus</w>": 2304,
  "ET": 2305,
  "vol": 2306,
  "David</w>": 2307,
  "Sho": 2308,
  "indi": 2309,
  "Ø</w>": 2310,
  "leben</w>": 2311,
  "..</w>": 2312,
  "sol": 2313,
  "Fil": 2314,
  "pping</w>": 2315,
  "erg": 2316,
  "Air</w>": 2317,
  "value</w>": 2318,
  "dildo</w>": 2319,
  "besonders</w>": 2320,
  "weniger</w>": 2321,
  "Mer": 2322,
  "Weise</w>": 2323,
  "cannot</w>": 2324,
  "laden</w>": 2325,
  "Doppel": 2326,
  "Information</w>": 2327,
  "vari": 2328,
  "bank</w>": 2329,
  "anlage</w>": 2330,
  "LED</w>": 2331,
  "macht</w>": 2332,
  "setzen</w>": 2333,
  "Tit": 2334,
  "February</w>": 2335,
  "spiel": 2336,
  "mic</w>": 2337,
  "tis</w>": 2338,
  "son": 2339,
  "needs</w>": 2340,
  "Pol": 2341,
  "Number</w>": 2342,
  "State</w>": 2343,
  "yer</w>": 2344,
  "standard</w>": 2345,
  "Größe</w>": 2346,
  "Produkt</w>": 2347,
  "equipment</w>": 2348,
  "10.": 2349,
  "ment": 2350,
  "things</w>": 2351,
  "customers</w>": 2352,
  "Ha": 2353,
  "University</w>": 2354,
  "ire</w>": 2355,
  "gar": 2356,
  "sing</w>": 2357,
  "projects</w>": 2358,
  "Marina</w>": 2359,
  "ich": 2360,
  "einge": 2361,
  "Zentrum</w>": 2362,
  "form": 2363,
  "www.": 2364,
  "arbeit</w>": 2365,
  "Spanien</w>": 2366,
  "2x</w>": 2367,
  "Standard</w>": 2368,
  "Yacht</w>": 2369,
  "By</w>": 2370,
  "wide</w>": 2371,
  "sm": 2372,
  "dy</w>": 2373,
  "center</w>": 2374,
  "Fotos</w>": 2375,
  "zes</w>": 2376,
  "Minister</w>": 2377,
  "Zei": 2378,
  "shed</w>": 2379,
  "bau": 2380,
  "ats</w>": 2381,
  "team</w>": 2382,
  "ology</w>": 2383,
  "val": 2384,
  "ption</w>": 2385,
  "Top</w>": 2386,
  "dung</w>": 2387,
  "Februar</w>": 2388,
  "Ser": 2389,
  "MB</w>": 2390,
  "Foto</w>": 2391,
  "word</w>": 2392,
  "....</w>": 2393,
  "win": 2394,
  "Bade": 2395,
  "kt": 2396,
  "blond</w>": 2397,
  "ories</w>": 2398,
  "ved</w>": 2399,
  "trade</w>": 2400,
  "far": 2401,
  "addition</w>": 2402,
  "dort</w>": 2403,
  "AU": 2404,
  "dessen</w>": 2405,
  "personal</w>": 2406,
  "Ku": 2407,
  "wen": 2408,
  "developed</w>": 2409,
  "Europe": 2410,
  "ship</w>": 2411,
  "built</w>": 2412,
  "tungs": 2413,
  "star</w>": 2414,
  "zurück</w>": 2415,
  "unser</w>": 2416,
  "ack</w>": 2417,
  "str": 2418,
  "cli": 2419,
  "wel": 2420,
  "ations": 2421,
  "zeug</w>": 2422,
  "ice</w>": 2423,
  "individual</w>": 2424,
  "tigung</w>": 2425,
  "ism</w>": 2426,
  "fac": 2427,
  "ami": 2428,
  "medi": 2429,
  "davon</w>": 2430,
  "Küche</w>": 2431,
  "om</w>": 2432,
  "Hand</w>": 2433,
  "stige</w>": 2434,
  "making</w>": 2435,
  "Minuten</w>": 2436,
  "imp": 2437,
  "EP": 2438,
  "due</w>": 2439,
  "ham": 2440,
  "Av": 2441,
  "mel": 2442,
  "however</w>": 2443,
  "mis": 2444,
  "hin</w>": 2445,
  "Apart": 2446,
  "Hoch": 2447,
  "performance</w>": 2448,
  "Interessantes</w>": 2449,
  "Bre": 2450,
  "Möglichkeit</w>": 2451,
  "Boo": 2452,
  "complete</w>": 2453,
  "pe</w>": 2454,
  "7,": 2455,
  "rate</w>": 2456,
  "che": 2457,
  "XXX": 2458,
  "massage</w>": 2459,
  "Ca": 2460,
  "zugefügt</w>": 2461,
  "often</w>": 2462,
  "ili": 2463,
  "Energie": 2464,
  "Millionen</w>": 2465,
  "IB": 2466,
  "ideal</w>": 2467,
  "AB": 2468,
  "compilation</w>": 2469,
  "Farbe</w>": 2470,
  "Sicherheit</w>": 2471,
  "sed</w>": 2472,
  "Br": 2473,
  "IE": 2474,
  "van</w>": 2475,
  "itself</w>": 2476,
  "apartment</w>": 2477,
  "Bad</w>": 2478,
  "cooperation</w>": 2479,
  "mod": 2480,
  "think</w>": 2481,
  "insgesamt</w>": 2482,
  "ensure</w>": 2483,
  "Acc": 2484,
  "250</w>": 2485,
  "stelle</w>": 2486,
  "Chi": 2487,
  "ation": 2488,
  "Dan</w>": 2489,
  "training</w>": 2490,
  "took</w>": 2491,
  "really</w>": 2492,
  "61</w>": 2493,
  "Hilfe</w>": 2494,
  "comes</w>": 2495,
  "cur": 2496,
  "ring</w>": 2497,
  "mom</w>": 2498,
  "Apartment</w>": 2499,
  "mag": 2500,
  "Bor": 2501,
  "bzw.</w>": 2502,
  "Glitter</w>": 2503,
  "once</w>": 2504,
  "sur": 2505,
  "Grad</w>": 2506,
  "Ben": 2507,
  "Sel": 2508,
  "verwendet</w>": 2509,
  "hren</w>": 2510,
  "ßen</w>": 2511,
  "MAR": 2512,
  "Ele": 2513,
  "series</w>": 2514,
  "original</w>": 2515,
  "members</w>": 2516,
  "Car</w>": 2517,
  "Plan": 2518,
  "sei</w>": 2519,
  "history</w>": 2520,
  "Wohn": 2521,
  "orgas": 2522,
  "Musik</w>": 2523,
  "OT": 2524,
  "oni": 2525,
  "general</w>": 2526,
  "core</w>": 2527,
  "schaften</w>": 2528,
  "tigkeit</w>": 2529,
  "media</w>": 2530,
  "ße</w>": 2531,
  "einmal</w>": 2532,
  "Jo": 2533,
  "Lan": 2534,
  "ological</w>": 2535,
  "Kan": 2536,
  "Staaten</w>": 2537,
  "Blick</w>": 2538,
  "gas</w>": 2539,
  "zeigt</w>": 2540,
  "Ü": 2541,
  "Familie</w>": 2542,
  "tel</w>": 2543,
  "ai</w>": 2544,
  "erreichen</w>": 2545,
  "kitchen</w>": 2546,
  "ihrem</w>": 2547,
  "hotels</w>": 2548,
  "specific</w>": 2549,
  "Euro": 2550,
  "tter</w>": 2551,
  "onal</w>": 2552,
  "Einzel": 2553,
  "fall</w>": 2554,
  "More</w>": 2555,
  "nature</w>": 2556,
  "sto": 2557,
  "Ur": 2558,
  "certain</w>": 2559,
  "Glitzer</w>": 2560,
  "stock</w>": 2561,
  "weit</w>": 2562,
  "wissen</w>": 2563,
  "places</w>": 2564,
  "88</w>": 2565,
  "least</w>": 2566,
  "sowohl</w>": 2567,
  "Mit": 2568,
  "active</w>": 2569,
  "women</w>": 2570,
  "came</w>": 2571,
  "increase</w>": 2572,
  "Thursday</w>": 2573,
  "stein</w>": 2574,
  "Cer": 2575,
  "120</w>": 2576,
  "Austria</w>": 2577,
  "Dateien</w>": 2578,
  "upon</w>": 2579,
  "racial</w>": 2580,
  "aler</w>": 2581,
  "strong</w>": 2582,
  "ff</w>": 2583,
  "Dieser</w>": 2584,
  "jap": 2585,
  "71</w>": 2586,
  "table</w>": 2587,
  "IP": 2588,
  "Wohnung</w>": 2589,
  "Fri": 2590,
  "program</w>": 2591,
  "IA</w>": 2592,
  "Price</w>": 2593,
  "lange</w>": 2594,
  "gegeben</w>": 2595,
  "Direc": 2596,
  "problem</w>": 2597,
  "construction</w>": 2598,
  "Gesellschaft</w>": 2599,
  "68</w>": 2600,
  "oil</w>": 2601,
  "ration</w>": 2602,
  "hom": 2603,
  "J</w>": 2604,
  "Del": 2605,
  "content</w>": 2606,
  "camp": 2607,
  "internationalen</w>": 2608,
  "Black</w>": 2609,
  "Höhe</w>": 2610,
  "easy</w>": 2611,
  "ying</w>": 2612,
  "pres": 2613,
  "Vo": 2614,
  "parking</w>": 2615,
  "HER": 2616,
  "Hamburg</w>": 2617,
  "Projekt</w>": 2618,
  "66</w>": 2619,
  "ground</w>": 2620,
  "decision</w>": 2621,
  "hol": 2622,
  "enjoy</w>": 2623,
  "Fer": 2624,
  "Immobilien": 2625,
  "о": 2626,
  "direc": 2627,
  "provides</w>": 2628,
  "health</w>": 2629,
  "tik</w>": 2630,
  "Ihrem</w>": 2631,
  "zer": 2632,
  "gemacht</w>": 2633,
  "63</w>": 2634,
  "programme</w>": 2635,
  "--</w>": 2636,
  "operation</w>": 2637,
  "transport</w>": 2638,
  "money</w>": 2639,
  "Geb": 2640,
  "flo": 2641,
  "Res": 2642,
  "Je": 2643,
  "accommodation</w>": 2644,
  "77</w>": 2645,
  "Sei": 2646,
  "oren</w>": 2647,
  "kten</w>": 2648,
  "National</w>": 2649,
  "92</w>": 2650,
  "Men": 2651,
  "ron": 2652,
  "62</w>": 2653,
  "Fra": 2654,
  "Motor": 2655,
  "Mail</w>": 2656,
  "speed</w>": 2657,
  "ona</w>": 2658,
  "hof</w>": 2659,
  "Name</w>": 2660,
  "Q</w>": 2661,
  "zei": 2662,
  "Tor": 2663,
  "fil": 2664,
  "DI</w>": 2665,
  "office</w>": 2666,
  "Rück": 2667,
  "technical</w>": 2668,
  "cri": 2669,
  "Please</w>": 2670,
  "Meer</w>": 2671,
  "tish</w>": 2672,
  "environment</w>": 2673,
  "Frei": 2674,
  "ever</w>": 2675,
  "French</w>": 2676,
  "ena</w>": 2677,
  "post": 2678,
  "Bar</w>": 2679,
  "include</w>": 2680,
  "Peter</w>": 2681,
  "MA</w>": 2682,
  "sport</w>": 2683,
  "Donnerstag</w>": 2684,
  "Medi": 2685,
  "meisten</w>": 2686,
  "barkeit</w>": 2687,
  "Japan</w>": 2688,
  "fort</w>": 2689,
  "along</w>": 2690,
  "Frauen</w>": 2691,
  "PC": 2692,
  "whether</w>": 2693,
  "lose</w>": 2694,
  "Mil": 2695,
  "ls</w>": 2696,
  "Camping": 2697,
  "edi": 2698,
  "Thema</w>": 2699,
  "sofort</w>": 2700,
  "yet</w>": 2701,
  "Tex": 2702,
  "alität</w>": 2703,
  "Ob": 2704,
  "tte</w>": 2705,
  "beg": 2706,
  "ola</w>": 2707,
  "ges": 2708,
  "ines</w>": 2709,
  "create</w>": 2710,
  "problems</w>": 2711,
  "AP</w>": 2712,
  "Text</w>": 2713,
  "See</w>": 2714,
  "ft": 2715,
  "Today</w>": 2716,
  "Fo": 2717,
  "raum</w>": 2718,
  "BE": 2719,
  "event</w>": 2720,
  "directly</w>": 2721,
  "voll</w>": 2722,
  "tor": 2723,
  "ful</w>": 2724,
  "max</w>": 2725,
  "tik": 2726,
  "ress</w>": 2727,
  "burg</w>": 2728,
  "könnte</w>": 2729,
  "det</w>": 2730,
  "floor</w>": 2731,
  "plan</w>": 2732,
  "road</w>": 2733,
  "ony</w>": 2734,
  "Rechts": 2735,
  "atic</w>": 2736,
  "Community</w>": 2737,
  "agreement</w>": 2738,
  "XX": 2739,
  "ó": 2740,
  "werk</w>": 2741,
  "1000</w>": 2742,
  "Team</w>": 2743,
  "ken": 2744,
  "growth</w>": 2745,
  "View</w>": 2746,
  "Groß": 2747,
  "anzu": 2748,
  "reser": 2749,
  "Sex</w>": 2750,
  "bet": 2751,
  "Herrn</w>": 2752,
  "tig</w>": 2753,
  "Schweiz</w>": 2754,
  "illa</w>": 2755,
  "Ap": 2756,
  "Länder</w>": 2757,
  "wäre</w>": 2758,
  "Ros": 2759,
  "makes</w>": 2760,
  "ann": 2761,
  "Lebens": 2762,
  "fahren</w>": 2763,
  "esen</w>": 2764,
  "Dom": 2765,
  "out": 2766,
  "El</w>": 2767,
  "78</w>": 2768,
  "gew": 2769,
  "gegenüber</w>": 2770,
  "erk": 2771,
  "fur": 2772,
  "request</w>": 2773,
  "tions": 2774,
  "UL": 2775,
  "hd</w>": 2776,
  "guests</w>": 2777,
  "drei": 2778,
  "ir</w>": 2779,
  "dy": 2780,
  "Dec": 2781,
  "91</w>": 2782,
  "ek</w>": 2783,
  "location</w>": 2784,
  "others</w>": 2785,
  "67</w>": 2786,
  "Unsere</w>": 2787,
  "thus</w>": 2788,
  "tube</w>": 2789,
  "ol</w>": 2790,
  "Stra": 2791,
  "97</w>": 2792,
  "Problem</w>": 2793,
  "Rot": 2794,
  "Auto</w>": 2795,
  "door</w>": 2796,
  "ences</w>": 2797,
  "IC</w>": 2798,
  "Wel": 2799,
  "1999</w>": 2800,
  "code</w>": 2801,
  "urs</w>": 2802,
  "acc": 2803,
  "links</w>": 2804,
  "London</w>": 2805,
  "cts</w>": 2806,
  "lungen</w>": 2807,
  "born</w>": 2808,
  "ain</w>": 2809,
  "towards</w>": 2810,
  "term</w>": 2811,
  "FI": 2812,
  "CH</w>": 2813,
  "bathroom</w>": 2814,
  "Mos": 2815,
  "Europ": 2816,
  "Hor": 2817,
  "600</w>": 2818,
  "sel</w>": 2819,
  "erreicht</w>": 2820,
  "gef": 2821,
  "Ski": 2822,
  "sites</w>": 2823,
  "major</w>": 2824,
  "Bank</w>": 2825,
  "why</w>": 2826,
  "zug</w>": 2827,
  "cia</w>": 2828,
  "jeden</w>": 2829,
  "costs</w>": 2830,
  ".000</w>": 2831,
  "Pen": 2832,
  "wirklich</w>": 2833,
  "Max</w>": 2834,
  "sure</w>": 2835,
  "Zukunft</w>": 2836,
  "ort": 2837,
  "Fre": 2838,
  "ester</w>": 2839,
  "tete</w>": 2840,
  "hard</w>": 2841,
  "aci": 2842,
  "jahr</w>": 2843,
  "issues</w>": 2844,
  "itäten</w>": 2845,
  "tic": 2846,
  "model</w>": 2847,
  "ols</w>": 2848,
  "tan": 2849,
  "done</w>": 2850,
  "11.": 2851,
  "93</w>": 2852,
  "additional</w>": 2853,
  "century</w>": 2854,
  "land": 2855,
  "ov": 2856,
  "ateg": 2857,
  "anc": 2858,
  "erst</w>": 2859,
  "erungs": 2860,
  "San": 2861,
  "800</w>": 2862,
  "onen</w>": 2863,
  "features</w>": 2864,
  "Here</w>": 2865,
  "network</w>": 2866,
  "Radio</w>": 2867,
  "Agriculture</w>": 2868,
  "role</w>": 2869,
  "off": 2870,
  "something</w>": 2871,
  "yp": 2872,
  "Ker": 2873,
  "Rolle</w>": 2874,
  "rau": 2875,
  "g.</w>": 2876,
  "entwickelt</w>": 2877,
  "Zusammen": 2878,
  "Geschäfts": 2879,
  "account</w>": 2880,
  "users</w>": 2881,
  "bitte</w>": 2882,
  "konnte</w>": 2883,
  "vel": 2884,
  "Center</w>": 2885,
  "Bedeutung</w>": 2886,
  "legal</w>": 2887,
  "ming</w>": 2888,
  ",": 2889,
  "suchen</w>": 2890,
  "plan": 2891,
  "image</w>": 2892,
  "geh": 2893,
  "taking</w>": 2894,
  "gruppe</w>": 2895,
  "language</w>": 2896,
  "35": 2897,
  "sollen</w>": 2898,
  "rich": 2899,
  "reiber</w>": 2900,
  "pf": 2901,
  "Gesch": 2902,
  "kleinen</w>": 2903,
  "lic": 2904,
  "sogar</w>": 2905,
  "Game</w>": 2906,
  "uni": 2907,
  "Church</w>": 2908,
  "government</w>": 2909,
  "spielen</w>": 2910,
  "conc": 2911,
  "Finanz": 2912,
  "shower</w>": 2913,
  "materials</w>": 2914,
  "customer</w>": 2915,
  "sionen</w>": 2916,
  "Best": 2917,
  "3D</w>": 2918,
  "Vil": 2919,
  "86</w>": 2920,
  "looking</w>": 2921,
  "Â</w>": 2922,
  "going</w>": 2923,
  "inv": 2924,
  "weise</w>": 2925,
  "maximum</w>": 2926,
  "zeich": 2927,
  "ara</w>": 2928,
  "thing</w>": 2929,
  "steel</w>": 2930,
  "aria</w>": 2931,
  "Santa</w>": 2932,
  "events</w>": 2933,
  "Friday</w>": 2934,
  "holiday</w>": 2935,
  "reach</w>": 2936,
  "issue</w>": 2937,
  "subject</w>": 2938,
  "LE</w>": 2939,
  "EC</w>": 2940,
  "ool</w>": 2941,
  "gute</w>": 2942,
  "Durch</w>": 2943,
  "Anwendung</w>": 2944,
  "bl": 2945,
  "culture</w>": 2946,
  "ones</w>": 2947,
  "fort": 2948,
  "81</w>": 2949,
  "Hal": 2950,
  "kind</w>": 2951,
  "Klima": 2952,
  "CO</w>": 2953,
  "solution</w>": 2954,
  "global</w>": 2955,
  "inger</w>": 2956,
  "Suche</w>": 2957,
  "dom": 2958,
  "Any": 2959,
  "Management</w>": 2960,
  "AR</w>": 2961,
  "arbeitung</w>": 2962,
  "zed</w>": 2963,
  "Bl": 2964,
  "Markt</w>": 2965,
  "address</w>": 2966,
  "Saint</w>": 2967,
  "American</w>": 2968,
  "ian</w>": 2969,
  "pla": 2970,
  "73</w>": 2971,
  "ently</w>": 2972,
  "fre": 2973,
  "Off": 2974,
  "required</w>": 2975,
  "Mobile</w>": 2976,
  "mobile</w>": 2977,
  "vier": 2978,
  "App": 2979,
  "Recht</w>": 2980,
  "tliche</w>": 2981,
  "Dienstleistungen</w>": 2982,
  "fle": 2983,
  "z.B.</w>": 2984,
  "might</w>": 2985,
  "cer": 2986,
  "continue</w>": 2987,
  "gende</w>": 2988,
  "believe</w>": 2989,
  "particularly</w>": 2990,
  "Sex": 2991,
  "verschiedene</w>": 2992,
  "bekannt</w>": 2993,
  "22": 2994,
  "John</w>": 2995,
  "gestellt</w>": 2996,
  "anzeigen</w>": 2997,
  "74</w>": 2998,
  "Code</w>": 2999,
  "gn": 3000,
  "saw</w>": 3001,
  "White</w>": 3002,
  "Luft": 3003,
  "ux</w>": 3004,
  "stand": 3005,
  "hoch": 3006,
  "ht</w>": 3007,
  "bil": 3008,
  "atisch</w>": 3009,
  "essen</w>": 3010,
  "Web</w>": 3011,
  "connection</w>": 3012,
  "Ä": 3013,
  "schnell</w>": 3014,
  "Book</w>": 3015,
  "sector</w>": 3016,
  "Du</w>": 3017,
  "ef": 3018,
  "iger</w>": 3019,
  "dom</w>": 3020,
  "ada</w>": 3021,
  "SO": 3022,
  "olo": 3023,
  "dra": 3024,
  "Maria</w>": 3025,
  "Fol": 3026,
  "round</w>": 3027,
  "nisse</w>": 3028,
  "Original</w>": 3029,
  "Lord</w>": 3030,
  "amm": 3031,
  "multi": 3032,
  "Charter</w>": 3033,
  "ke": 3034,
  "Liste</w>": 3035,
  "mission</w>": 3036,
  "weg</w>": 3037,
  "weiß</w>": 3038,
  "hard": 3039,
  "gung</w>": 3040,
  "Strand</w>": 3041,
  "Produ": 3042,
  "Station</w>": 3043,
  "elt</w>": 3044,
  "Man</w>": 3045,
  "sicher</w>": 3046,
  "requirements</w>": 3047,
  "möchten</w>": 3048,
  "equipped</w>": 3049,
  "hatten</w>": 3050,
  "Camp": 3051,
  "wählen</w>": 3052,
  "fla": 3053,
  "ban": 3054,
  "dur": 3055,
  "nice</w>": 3056,
  "enter</w>": 3057,
  "New": 3058,
  "half</w>": 3059,
  "tiv": 3060,
  "breakfast</w>": 3061,
  "Fi</w>": 3062,
  "Probleme</w>": 3063,
  "Bas": 3064,
  "eg": 3065,
  "High</w>": 3066,
  "Fel": 3067,
  "terms</w>": 3068,
  "late</w>": 3069,
  "USB</w>": 3070,
  "meeting</w>": 3071,
  "94</w>": 3072,
  "Unser</w>": 3073,
  "79</w>": 3074,
  "daher</w>": 3075,
  "held</w>": 3076,
  "ros": 3077,
  "created</w>": 3078,
  "sierung</w>": 3079,
  "cher": 3080,
  "Switzerland</w>": 3081,
  "zeigen</w>": 3082,
  "tä": 3083,
  "items</w>": 3084,
  "bur": 3085,
  "ests</w>": 3086,
  "lesbian</w>": 3087,
  "Tran": 3088,
  "statt</w>": 3089,
  "Wal": 3090,
  "work": 3091,
  "Met": 3092,
  "hinaus</w>": 3093,
  "class</w>": 3094,
  "Descri": 3095,
  "download</w>": 3096,
  "assi": 3097,
  "sted</w>": 3098,
  "Weiter": 3099,
  "verb": 3100,
  "port</w>": 3101,
  "unterstützt</w>": 3102,
  "Da": 3103,
  "äre</w>": 3104,
  "Costa</w>": 3105,
  "2.</w>": 3106,
  "almost</w>": 3107,
  "band</w>": 3108,
  "Kunst</w>": 3109,
  "Fa": 3110,
  "rich</w>": 3111,
  "Out": 3112,
  "gerade</w>": 3113,
  "solutions</w>": 3114,
  "TM</w>": 3115,
  "please</w>": 3116,
  "Hu": 3117,
  "oms</w>": 3118,
  "Fach": 3119,
  "setzung</w>": 3120,
  "designed</w>": 3121,
  "AP": 3122,
  "82</w>": 3123,
  "wood</w>": 3124,
  "kli": 3125,
  "ots</w>": 3126,
  "tseite</w>": 3127,
  "Regierung</w>": 3128,
  "folgenden</w>": 3129,
  "fy</w>": 3130,
  "frei</w>": 3131,
  "cover</w>": 3132,
  "befinden</w>": 3133,
  "Universität</w>": 3134,
  "dri": 3135,
  "Up</w>": 3136,
  "green</w>": 3137,
  "Mess": 3138,
  "ental</w>": 3139,
  "Geh": 3140,
  "seen</w>": 3141,
  "safety</w>": 3142,
  "During</w>": 3143,
  "Verfahren</w>": 3144,
  "tives</w>": 3145,
  "wohnung</w>": 3146,
  "supply</w>": 3147,
  "Fahr": 3148,
  "partner</w>": 3149,
  "Im": 3150,
  "84</w>": 3151,
  "travel</w>": 3152,
  "Partner</w>": 3153,
  "tel": 3154,
  "mische</w>": 3155,
  "Product</w>": 3156,
  "Dan": 3157,
  "Ni": 3158,
  "pages</w>": 3159,
  "care</w>": 3160,
  "89</w>": 3161,
  "tim": 3162,
  "rules</w>": 3163,
  "ora</w>": 3164,
  "Trans": 3165,
  "gab</w>": 3166,
  "jo": 3167,
  "rop": 3168,
  "Freitag</w>": 3169,
  "basi": 3170,
  "Pap": 3171,
  "aps</w>": 3172,
  "Natur": 3173,
  "bro": 3174,
  "Cap": 3175,
  "Cu": 3176,
  "details</w>": 3177,
  "takes</w>": 3178,
  "nor": 3179,
  "Republic</w>": 3180,
  "mo</w>": 3181,
  "erst": 3182,
  "heiten</w>": 3183,
  "fest</w>": 3184,
  "83</w>": 3185,
  "Lösung</w>": 3186,
  "Ka": 3187,
  "five</w>": 3188,
  "plat": 3189,
  "ett": 3190,
  "III</w>": 3191,
  "Michael</w>": 3192,
  "applications</w>": 3193,
  "flu": 3194,
  "Multi": 3195,
  "Barcelona</w>": 3196,
  "bau</w>": 3197,
  "tory</w>": 3198,
  "eben</w>": 3199,
  "TO": 3200,
  "boat</w>": 3201,
  "Gäste</w>": 3202,
  "ay": 3203,
  "Kal": 3204,
  "Lust</w>": 3205,
  "sa</w>": 3206,
  "Einsatz</w>": 3207,
  "GB</w>": 3208,
  "check</w>": 3209,
  "verfügbar</w>": 3210,
  "hon": 3211,
  "wichtig</w>": 3212,
  "cc": 3213,
  "girl</w>": 3214,
  "Tur": 3215,
  "color</w>": 3216,
  "mechan": 3217,
  "ways</w>": 3218,
  "card</w>": 3219,
  "mischen</w>": 3220,
  "ko</w>": 3221,
  "Schabl": 3222,
  "read</w>": 3223,
  "ech": 3224,
  "Bitte</w>": 3225,
  "A4</w>": 3226,
  "ely</w>": 3227,
  "Wa": 3228,
  "sat": 3229,
  "Last</w>": 3230,
  "fik": 3231,
  "thre": 3232,
  "themselves</w>": 3233,
  "You": 3234,
  "cases</w>": 3235,
  "added</w>": 3236,
  "stor": 3237,
  "pol": 3238,
  "36": 3239,
  "PR": 3240,
  "later</w>": 3241,
  "AI": 3242,
  "Natur</w>": 3243,
  "Hi": 3244,
  "â</w>": 3245,
  "Gri": 3246,
  "porn</w>": 3247,
  "Photo</w>": 3248,
  "ane</w>": 3249,
  "never</w>": 3250,
  "Paul</w>": 3251,
  "facilities</w>": 3252,
  "Film</w>": 3253,
  "Comp": 3254,
  "mol": 3255,
  "oft</w>": 3256,
  "Wieder": 3257,
  "Pro</w>": 3258,
  "Anfrage</w>": 3259,
  "Breakfast</w>": 3260,
  "De</w>": 3261,
  "ai": 3262,
  "ete</w>": 3263,
  "turn</w>": 3264,
  "öffentlichen</w>": 3265,
  "ganze</w>": 3266,
  "VW</w>": 3267,
  "Richtung</w>": 3268,
  "currently</w>": 3269,
  "Spei": 3270,
  "SE</w>": 3271,
  "similar</w>": 3272,
  "fa</w>": 3273,
  "unique</w>": 3274,
  "wür": 3275,
  "S.</w>": 3276,
  "sei": 3277,
  "neu</w>": 3278,
  "persons</w>": 3279,
  "arian</w>": 3280,
  "Hol": 3281,
  "plätze</w>": 3282,
  "oc": 3283,
  "lang</w>": 3284,
  "Dar": 3285,
  "ns</w>": 3286,
  "restaurant</w>": 3287,
  "ica</w>": 3288,
  "Club</w>": 3289,
  "Christian</w>": 3290,
  "Zu</w>": 3291,
  "gefunden</w>": 3292,
  "rä": 3293,
  "beauty</w>": 3294,
  "KB</w>": 3295,
  "Sy": 3296,
  "ote</w>": 3297,
  "xi": 3298,
  "Kur": 3299,
  "ki</w>": 3300,
  "perfect</w>": 3301,
  "DC</w>": 3302,
  "nung</w>": 3303,
  "pra": 3304,
  "Gel": 3305,
  "Flo": 3306,
  "Zur</w>": 3307,
  "Sard": 3308,
  "MS</w>": 3309,
  "Welt": 3310,
  "Liebe</w>": 3311,
  "ari</w>": 3312,
  "verfügt</w>": 3313,
  "sse</w>": 3314,
  "past</w>": 3315,
  "questions</w>": 3316,
  "mus</w>": 3317,
  "spiele</w>": 3318,
  "Since</w>": 3319,
  "Ren": 3320,
  "ieren</w>": 3321,
  "Kunden": 3322,
  "tex": 3323,
  "ot</w>": 3324,
  "Insel</w>": 3325,
  "ania</w>": 3326,
  "HP</w>": 3327,
  "included</w>": 3328,
  "groups</w>": 3329,
  "12.": 3330,
  "Verbindung</w>": 3331,
  "tags</w>": 3332,
  "lle</w>": 3333,
  "TH": 3334,
  "direct</w>": 3335,
  "gleichen</w>": 3336,
  "helfen</w>": 3337,
  "gran": 3338,
  "natürliche</w>": 3339,
  "Now</w>": 3340,
  "screen</w>": 3341,
  "gilt</w>": 3342,
  "inf": 3343,
  "Frankfurt</w>": 3344,
  "Schutz</w>": 3345,
  "Aut": 3346,
  "step</w>": 3347,
  "school</w>": 3348,
  "Mehr</w>": 3349,
  "dopp": 3350,
  "87</w>": 3351,
  "changes</w>": 3352,
  "blue</w>": 3353,
  "Emp": 3354,
  "Spe": 3355,
  "ka": 3356,
  "Far": 3357,
  "stru": 3358,
  "computer</w>": 3359,
  "lines</w>": 3360,
  "shows</w>": 3361,
  "era</w>": 3362,
  "1998</w>": 3363,
  "Sur": 3364,
  "Raum</w>": 3365,
  "ici": 3366,
  "Mittel": 3367,
  "Umwelt": 3368,
  "Terrasse</w>": 3369,
  "Poly": 3370,
  "Sonnen": 3371,
  "garden</w>": 3372,
  "plant</w>": 3373,
  "ismus</w>": 3374,
  "Tour</w>": 3375,
  "Anti": 3376,
  "cally</w>": 3377,
  "Schlafzimmer</w>": 3378,
  "tage</w>": 3379,
  "kor": 3380,
  "DA": 3381,
  "weisen</w>": 3382,
  "nächsten</w>": 3383,
  "Committee</w>": 3384,
  "nichts</w>": 3385,
  "maschine</w>": 3386,
  "ine": 3387,
  "ctions</w>": 3388,
  "hinzu": 3389,
  "politischen</w>": 3390,
  "stage</w>": 3391,
  "call</w>": 3392,
  "indem</w>": 3393,
  "Mio.</w>": 3394,
  "sound</w>": 3395,
  "longer</w>": 3396,
  "mb": 3397,
  "standards</w>": 3398,
  "utt": 3399,
  "cost</w>": 3400,
  "shing</w>": 3401,
  "coming</w>": 3402,
  "ebenfalls</w>": 3403,
  "wine</w>": 3404,
  "kan": 3405,
  "wegen</w>": 3406,
  "Golf</w>": 3407,
  "mes</w>": 3408,
  "sum": 3409,
  "ganzen</w>": 3410,
  "oth</w>": 3411,
  "knowledge</w>": 3412,
  "Sunday</w>": 3413,
  "SC": 3414,
  "paper</w>": 3415,
  "att": 3416,
  "zen": 3417,
  "Reihe</w>": 3418,
  "HD": 3419,
  "matter</w>": 3420,
  "weltweit</w>": 3421,
  "run</w>": 3422,
  "darüber</w>": 3423,
  "former</w>": 3424,
  "SCH": 3425,
  "Außen": 3426,
  "dor": 3427,
  "bleiben</w>": 3428,
  "jede</w>": 3429,
  "Innen": 3430,
  "lower</w>": 3431,
  "bon": 3432,
  "ca": 3433,
  "³</w>": 3434,
  "effect</w>": 3435,
  "museum</w>": 3436,
  "stre": 3437,
  "outdoor</w>": 3438,
  "à</w>": 3439,
  "uses</w>": 3440,
  "natürlich</w>": 3441,
  "bring</w>": 3442,
  "Zugang</w>": 3443,
  "tation</w>": 3444,
  "tz</w>": 3445,
  "early</w>": 3446,
  "PAR": 3447,
  "sichts": 3448,
  "Tag": 3449,
  "Porno": 3450,
  "selbst": 3451,
  "tragen</w>": 3452,
  "sagte</w>": 3453,
  "Sun": 3454,
  "member</w>": 3455,
  "Verein": 3456,
  "charter</w>": 3457,
  "Typ</w>": 3458,
  "aufge": 3459,
  "mati": 3460,
  "positive</w>": 3461,
  "Eu": 3462,
  "gehört</w>": 3463,
  "tro</w>": 3464,
  "cel": 3465,
  "Services</w>": 3466,
  "Commissioner</w>": 3467,
  "Gal": 3468,
  "drive</w>": 3469,
  "verein": 3470,
  "ites</w>": 3471,
  "anten</w>": 3472,
  "riding</w>": 3473,
  "cil</w>": 3474,
  "latest</w>": 3475,
  "posi": 3476,
  "photos</w>": 3477,
  "try</w>": 3478,
  "search</w>": 3479,
  "liefer": 3480,
  "arbeitet</w>": 3481,
  "Day</w>": 3482,
  "Centre</w>": 3483,
  "aid</w>": 3484,
  "consi": 3485,
  "zurück": 3486,
  "pictures</w>": 3487,
  "Street</w>": 3488,
  "penet": 3489,
  "press</w>": 3490,
  "Do</w>": 3491,
  "lage</w>": 3492,
  "don</w>": 3493,
  "201": 3494,
  "ti</w>": 3495,
  "Thomas</w>": 3496,
  "ord</w>": 3497,
  "Stu": 3498,
  "ei</w>": 3499,
  "ki": 3500,
  "mil": 3501,
  "moment</w>": 3502,
  "47": 3503,
  "cing</w>": 3504,
  "ige</w>": 3505,
  "shops</w>": 3506,
  "AND</w>": 3507,
  "IV": 3508,
  "oben</w>": 3509,
  "ermöglicht</w>": 3510,
  "digital</w>": 3511,
  "ier</w>": 3512,
  "unterstützen</w>": 3513,
  "gest": 3514,
  "Berg": 3515,
  "village</w>": 3516,
  "sent</w>": 3517,
  "ye</w>": 3518,
  "Cam": 3519,
  "cal": 3520,
  "Datei</w>": 3521,
  "tin": 3522,
  "recht</w>": 3523,
  "hu": 3524,
  "wind</w>": 3525,
  "findet</w>": 3526,
  "cap": 3527,
  "West": 3528,
  "society</w>": 3529,
  "Nord": 3530,
  "York</w>": 3531,
  "straße</w>": 3532,
  "ast</w>": 3533,
  "setzt</w>": 3534,
  "asse</w>": 3535,
  "gg": 3536,
  "gleich</w>": 3537,
  "EM": 3538,
  "cop": 3539,
  "gan": 3540,
  "wunder": 3541,
  "Bro": 3542,
  "central</w>": 3543,
  "Top": 3544,
  "lead</w>": 3545,
  "Saturday</w>": 3546,
  "Hau": 3547,
  "Garten</w>": 3548,
  "picture</w>": 3549,
  "uren</w>": 3550,
  "äu": 3551,
  "Urlaub</w>": 3552,
  "SU": 3553,
  "Ban": 3554,
  "regi": 3555,
  "Wein": 3556,
  "Produkt": 3557,
  "nis</w>": 3558,
  "dress</w>": 3559,
  "pat": 3560,
  "Tru": 3561,
  "Martin</w>": 3562,
  "Spi": 3563,
  "leicht</w>": 3564,
  "genden</w>": 3565,
  "Power</w>": 3566,
  "frei": 3567,
  "Live</w>": 3568,
  "ör": 3569,
  "Rad": 3570,
  "ameter</w>": 3571,
  "mor": 3572,
  "supp": 3573,
  "proposal</w>": 3574,
  "ales</w>": 3575,
  "Of</w>": 3576,
  "TO</w>": 3577,
  "Brow": 3578,
  "Wetter</w>": 3579,
  "sieren</w>": 3580,
  "teile</w>": 3581,
  "rent</w>": 3582,
  "leitung</w>": 3583,
  "MO": 3584,
  "feld</w>": 3585,
  "reality</w>": 3586,
  "ky</w>": 3587,
  "alter</w>": 3588,
  "lt</w>": 3589,
  "effective</w>": 3590,
  "Deutsch</w>": 3591,
  "Sport": 3592,
  "ty": 3593,
  "Saf": 3594,
  "Mann</w>": 3595,
  "leading</w>": 3596,
  "everything</w>": 3597,
  "flat</w>": 3598,
  "North</w>": 3599,
  "Aus</w>": 3600,
  "ckt</w>": 3601,
  "AD</w>": 3602,
  "herunter": 3603,
  "stoff": 3604,
  "communication</w>": 3605,
  "schl": 3606,
  "nie</w>": 3607,
  "zy": 3608,
  "includes</w>": 3609,
  "mittel": 3610,
  "wal": 3611,
  "ansicht</w>": 3612,
  "alte</w>": 3613,
  "Business</w>": 3614,
  "Voll": 3615,
  "ker": 3616,
  "Bon": 3617,
  "keep</w>": 3618,
  "America</w>": 3619,
  "responsible</w>": 3620,
  "treatment</w>": 3621,
  "ör</w>": 3622,
  "gasse</w>": 3623,
  "weight</w>": 3624,
  "&apos;": 3625,
  "beginning</w>": 3626,
  "TI": 3627,
  "nutzen</w>": 3628,
  "His</w>": 3629,
  "ach</w>": 3630,
  "ig</w>": 3631,
  "Material</w>": 3632,
  "Russia</w>": 3633,
  "capacity</w>": 3634,
  "Africa</w>": 3635,
  "met</w>": 3636,
  "klassi": 3637,
  "effizi": 3638,
  "qui": 3639,
  "sports</w>": 3640,
  "Che": 3641,
  "zation</w>": 3642,
  "Data</w>": 3643,
  "mt</w>": 3644,
  "lar": 3645,
  "Kl": 3646,
  "limited</w>": 3647,
  "First</w>": 3648,
  "TE</w>": 3649,
  "BO": 3650,
  "excellent</w>": 3651,
  "besser</w>": 3652,
  "outside</w>": 3653,
  "werde</w>": 3654,
  "Gemeinschaft</w>": 3655,
  "stoff</w>": 3656,
  "kam</w>": 3657,
  "Big</w>": 3658,
  "Wednesday</w>": 3659,
  "print</w>": 3660,
  "forward</w>": 3661,
  "IR": 3662,
  "genau</w>": 3663,
  "Other</w>": 3664,
  "kes</w>": 3665,
  "cy": 3666,
  "Bur": 3667,
  "TA</w>": 3668,
  "Room</w>": 3669,
  "share</w>": 3670,
  "Programme</w>": 3671,
  "Sau": 3672,
  "WC</w>": 3673,
  "ils</w>": 3674,
  "wo": 3675,
  "Weitere</w>": 3676,
  "Sie": 3677,
  "BR": 3678,
  "meet</w>": 3679,
  "и": 3680,
  "Nicht</w>": 3681,
  "teil": 3682,
  "ement</w>": 3683,
  "lies</w>": 3684,
  "igung</w>": 3685,
  "ost</w>": 3686,
  "ha</w>": 3687,
  "poli": 3688,
  "legen</w>": 3689,
  "Heute</w>": 3690,
  "meiner</w>": 3691,
  "Österreich</w>": 3692,
  "down": 3693,
  "HE": 3694,
  "ously</w>": 3695,
  "West</w>": 3696,
  "ect</w>": 3697,
  "Auswahl</w>": 3698,
  "tal</w>": 3699,
  "Basi": 3700,
  "Pas": 3701,
  "Bab": 3702,
  "oom</w>": 3703,
  "Stück</w>": 3704,
  "ack": 3705,
  "Rein": 3706,
  "went</w>": 3707,
  "PO": 3708,
  "airport</w>": 3709,
  "citizens</w>": 3710,
  "force</w>": 3711,
  "Seit</w>": 3712,
  "function</w>": 3713,
  "Mittwoch</w>": 3714,
  "Technologie</w>": 3715,
  "Gottes</w>": 3716,
  "format</w>": 3717,
  "summer</w>": 3718,
  "buch</w>": 3719,
  "Serie</w>": 3720,
  "Wirtschaft</w>": 3721,
  "ey</w>": 3722,
  "Mal</w>": 3723,
  "opportunity</w>": 3724,
  "rest</w>": 3725,
  "zwar</w>": 3726,
  "Ci": 3727,
  "Office</w>": 3728,
  "entire</w>": 3729,
  "Inhalt</w>": 3730,
  "aging</w>": 3731,
  "Gesamt": 3732,
  "sale</w>": 3733,
  "Institute</w>": 3734,
  "ly": 3735,
  "situ": 3736,
  "hope</w>": 3737,
  "peri": 3738,
  "uri": 3739,
  "ball</w>": 3740,
  "š": 3741,
  "race</w>": 3742,
  "respect</w>": 3743,
  "ner": 3744,
  "Island</w>": 3745,
  "atur</w>": 3746,
  "uss": 3747,
  "education</w>": 3748,
  "Article</w>": 3749,
  "Kosten</w>": 3750,
  "Produc": 3751,
  "jedem</w>": 3752,
  "Bio": 3753,
  "teil</w>": 3754,
  "higher</w>": 3755,
  "prin": 3756,
  "amount</w>": 3757,
  "Ebene</w>": 3758,
  "Caf": 3759,
  "einigen</w>": 3760,
  "alle": 3761,
  "Search</w>": 3762,
  "walk</w>": 3763,
  "seite</w>": 3764,
  "™</w>": 3765,
  "ziehen</w>": 3766,
  "Vienna</w>": 3767,
  "Board</w>": 3768,
  "gar</w>": 3769,
  "sle": 3770,
  "simple</w>": 3771,
  "syn": 3772,
  "exp": 3773,
  "tlichen</w>": 3774,
  "Früh": 3775,
  "med</w>": 3776,
  "hy": 3777,
  "suitable</w>": 3778,
  "ask</w>": 3779,
  "true</w>": 3780,
  "emp": 3781,
  "study</w>": 3782,
  "WE": 3783,
  "tics</w>": 3784,
  "charge</w>": 3785,
  "Computer</w>": 3786,
  "versch": 3787,
  "couple</w>": 3788,
  "receive</w>": 3789,
  "property</w>": 3790,
  "cra": 3791,
  "models</w>": 3792,
  "Body": 3793,
  "tax</w>": 3794,
  "SC</w>": 3795,
  "condition</w>": 3796,
  "ba": 3797,
  "neben</w>": 3798,
  "trau": 3799,
  "ables</w>": 3800,
  "rise</w>": 3801,
  "Systems</w>": 3802,
  "boot</w>": 3803,
  "Then</w>": 3804,
  "East</w>": 3805,
  "mehrere</w>": 3806,
  "Restaurants</w>": 3807,
  "druck</w>": 3808,
  "Sten": 3809,
  "Produktion</w>": 3810,
  "alisierung</w>": 3811,
  "Energie</w>": 3812,
  "gleich": 3813,
  "Sonntag</w>": 3814,
  "temperatures</w>": 3815,
  "Brussels</w>": 3816,
  "modi": 3817,
  "Also</w>": 3818,
  "berei": 3819,
  "ble": 3820,
  "Transfer</w>": 3821,
  "gre": 3822,
  "ole</w>": 3823,
  "Sen": 3824,
  "Resi": 3825,
  "capital</w>": 3826,
  "CE</w>": 3827,
  "Samstag</w>": 3828,
  "modation</w>": 3829,
  "innovative</w>": 3830,
  "Richtlinie</w>": 3831,
  "photo</w>": 3832,
  "hour</w>": 3833,
  "web</w>": 3834,
  "rome</w>": 3835,
  "Politik</w>": 3836,
  "mein</w>": 3837,
  "wing</w>": 3838,
  "Sicherheits": 3839,
  "Entscheidung</w>": 3840,
  "Deb": 3841,
  "rather</w>": 3842,
  "jedes</w>": 3843,
  "Zum</w>": 3844,
  "ning</w>": 3845,
  "ley</w>": 3846,
  "adap": 3847,
  "behind</w>": 3848,
  "allows</w>": 3849,
  "sten": 3850,
  "Grund</w>": 3851,
  "Down": 3852,
  "sting</w>": 3853,
  "struc": 3854,
  "pr": 3855,
  "Zusammenhang</w>": 3856,
  "künfte</w>": 3857,
  "SI": 3858,
  "Rom": 3859,
  "components</w>": 3860,
  "hohe</w>": 3861,
  "We": 3862,
  "quite</w>": 3863,
  "rechts</w>": 3864,
  "gold</w>": 3865,
  "mouth</w>": 3866,
  "gy</w>": 3867,
  "ick": 3868,
  "hair": 3869,
  "ET</w>": 3870,
  "nation": 3871,
  "allow</w>": 3872,
  "Republik</w>": 3873,
  "pass</w>": 3874,
  "Red</w>": 3875,
  "pack": 3876,
  "rot": 3877,
  "PM</w>": 3878,
  "rat": 3879,
  "lab": 3880,
  "tures</w>": 3881,
  "Italian</w>": 3882,
  "Program": 3883,
  "gri": 3884,
  "tural</w>": 3885,
  "bad</w>": 3886,
  "Reser": 3887,
  "completely</w>": 3888,
  "schaffen</w>": 3889,
  "fü": 3890,
  "below</w>": 3891,
  "Bild": 3892,
  "Super": 3893,
  "pressure</w>": 3894,
  "Stri": 3895,
  "Angebot</w>": 3896,
  "è": 3897,
  "cation</w>": 3898,
  "famous</w>": 3899,
  "art": 3900,
  "Privat": 3901,
  "glass</w>": 3902,
  "Nutzung</w>": 3903,
  "autom": 3904,
  "Syn": 3905,
  "hair</w>": 3906,
  "Forschung</w>": 3907,
  "kte</w>": 3908,
  "Server</w>": 3909,
  "sprechen</w>": 3910,
  "Hersteller</w>": 3911,
  "unbe": 3912,
  "400": 3913,
  "DA</w>": 3914,
  "sisch</w>": 3915,
  "Erfahrung</w>": 3916,
  "ze": 3917,
  "gehören</w>": 3918,
  "investment</w>": 3919,
  "send</w>": 3920,
  "1997</w>": 3921,
  "Prä": 3922,
  "37": 3923,
  "sales</w>": 3924,
  "fahrt</w>": 3925,
  "Gold</w>": 3926,
  "vo</w>": 3927,
  "gabe</w>": 3928,
  "markt</w>": 3929,
  "Während</w>": 3930,
  "teilen</w>": 3931,
  "received</w>": 3932,
  "option</w>": 3933,
  "solche</w>": 3934,
  "Grand</w>": 3935,
  "Bedingungen</w>": 3936,
  "message</w>": 3937,
  "Sports</w>": 3938,
  "zeu": 3939,
  "established</w>": 3940,
  "itz": 3941,
  "fünf</w>": 3942,
  "WLAN</w>": 3943,
  "esome</w>": 3944,
  "sky</w>": 3945,
  "nu": 3946,
  "GO": 3947,
  "tal": 3948,
  "previous</w>": 3949,
  "length</w>": 3950,
  "meas": 3951,
  "zier": 3952,
  "dge</w>": 3953,
  "lash</w>": 3954,
  "Mittel</w>": 3955,
  "buy</w>": 3956,
  "tho": 3957,
  "ñ": 3958,
  "neu": 3959,
  "choose</w>": 3960,
  "operating</w>": 3961,
  "ata</w>": 3962,
  "visi": 3963,
  "B.</w>": 3964,
  "Sprache</w>": 3965,
  "erlaubt</w>": 3966,
  "gend</w>": 3967,
  "lau": 3968,
  "existing</w>": 3969,
  "island</w>": 3970,
  "ßt</w>": 3971,
  "ktionen</w>": 3972,
  "industrial</w>": 3973,
  "ks": 3974,
  "recent</w>": 3975,
  "bedeutet</w>": 3976,
  "inst": 3977,
  "Adresse</w>": 3978,
  "gging</w>": 3979,
  "dio</w>": 3980,
  "anti</w>": 3981,
  "Kultur</w>": 3982,
  "preis</w>": 3983,
  "GE": 3984,
  "Show</w>": 3985,
  "deal</w>": 3986,
  "analy": 3987,
  "don": 3988,
  "toys</w>": 3989,
  "einzu": 3990,
  "Mädchen</w>": 3991,
  "auszu": 3992,
  "reason</w>": 3993,
  "Leu": 3994,
  "parties</w>": 3995,
  "CL": 3996,
  "bility</w>": 3997,
  "¶</w>": 3998,
  "ay</w>": 3999,
  "Temp": 4000,
  "wert</w>": 4001,
  "dir</w>": 4002,
  "Fisch": 4003,
  "Kli": 4004,
  "weiteren</w>": 4005,
  "dule</w>": 4006,
  "soon</w>": 4007,
  "Not</w>": 4008,
  "pa</w>": 4009,
  "Kontakt</w>": 4010,
  "verwenden</w>": 4011,
  "figur": 4012,
  "presented</w>": 4013,
  "aufgrund</w>": 4014,
  "buchen</w>": 4015,
  "Portugal</w>": 4016,
  "satz</w>": 4017,
  "Verwendung</w>": 4018,
  "regional</w>": 4019,
  "forms</w>": 4020,
  "dat": 4021,
  "tiger</w>": 4022,
  "Prozent</w>": 4023,
  "Tab": 4024,
  "bild</w>": 4025,
  "crisis</w>": 4026,
  "markets</w>": 4027,
  "Gebiet</w>": 4028,
  "snow</w>": 4029,
  "miet": 4030,
  "siert</w>": 4031,
  "Studio</w>": 4032,
  "Shar": 4033,
  "spiel</w>": 4034,
  "optimi": 4035,
  "weiter": 4036,
  "plus</w>": 4037,
  "stock": 4038,
  "professional</w>": 4039,
  "xe</w>": 4040,
  "feel</w>": 4041,
  "Main</w>": 4042,
  "pper</w>": 4043,
  "träge</w>": 4044,
  "karte</w>": 4045,
  "ame</w>": 4046,
  "risk</w>": 4047,
  "ST</w>": 4048,
  "lie</w>": 4049,
  "unternehmen</w>": 4050,
  "treffen</w>": 4051,
  "Son": 4052,
  "DR": 4053,
  "gern</w>": 4054,
  "Ergebnis</w>": 4055,
  "wenig</w>": 4056,
  "Wert</w>": 4057,
  "wall</w>": 4058,
  "erz": 4059,
  "gemeinsam</w>": 4060,
  "Mitarbeiter</w>": 4061,
  "Lab": 4062,
  "rohr</w>": 4063,
  "Yo": 4064,
  "base</w>": 4065,
  "sha": 4066,
  "shi": 4067,
  "reviews</w>": 4068,
  "ate": 4069,
  "On": 4070,
  "throughout</w>": 4071,
  "Star</w>": 4072,
  "traditional</w>": 4073,
  "rates</w>": 4074,
  "Jetzt</w>": 4075,
  "approach</w>": 4076,
  "Chinese</w>": 4077,
  "ausgestattet</w>": 4078,
  "Sor": 4079,
  "Kategorie</w>": 4080,
  "peace</w>": 4081,
  "SS": 4082,
  "loads</w>": 4083,
  "either</w>": 4084,
  "&amp;</w>": 4085,
  "ination</w>": 4086,
  "Open</w>": 4087,
  "apartments</w>": 4088,
  "inen</w>": 4089,
  "Länge</w>": 4090,
  "The": 4091,
  "vision</w>": 4092,
  "licht</w>": 4093,
  "ama</w>": 4094,
  "info</w>": 4095,
  "EG</w>": 4096,
  "hor": 4097,
  "pati": 4098,
  "mieten</w>": 4099,
  "ón</w>": 4100,
  "Central</w>": 4101,
  "Bewertung</w>": 4102,
  "mark": 4103,
  "Swiss</w>": 4104,
  "daran</w>": 4105,
  "Kalender</w>": 4106,
  "lagen</w>": 4107,
  "ller</w>": 4108,
  "Mac": 4109,
  "dam</w>": 4110,
  "Schritt</w>": 4111,
  "college</w>": 4112,
  "ght": 4113,
  "Mas": 4114,
  "safe</w>": 4115,
  "Verfü": 4116,
  "Tan": 4117,
  "ING</w>": 4118,
  "authorities</w>": 4119,
  "ths</w>": 4120,
  "implementation</w>": 4121,
  "agri": 4122,
  "jung</w>": 4123,
  "deutlich</w>": 4124,
  "elles</w>": 4125,
  "Kinder": 4126,
  "1995</w>": 4127,
  "pal": 4128,
  "lässt</w>": 4129,
  "Lösungen</w>": 4130,
  "los": 4131,
  "economy</w>": 4132,
  "rus</w>": 4133,
  "Back": 4134,
  "kar": 4135,
  "Süd": 4136,
  "Nieder": 4137,
  "Forum</w>": 4138,
  "bereit</w>": 4139,
  "chs</w>": 4140,
  "institutions</w>": 4141,
  "dimen": 4142,
  "Möglichkeiten</w>": 4143,
  "Sea</w>": 4144,
  "PL": 4145,
  "gas": 4146,
  "acy</w>": 4147,
  "resources</w>": 4148,
  "HO": 4149,
  "across</w>": 4150,
  "с": 4151,
  "chi": 4152,
  "assen</w>": 4153,
  "Straße</w>": 4154,
  "т": 4155,
  "Series</w>": 4156,
  "Industrie</w>": 4157,
  "uli": 4158,
  "deutschen</w>": 4159,
  "Herzen</w>": 4160,
  "a.com</w>": 4161,
  "Mini": 4162,
  "politik</w>": 4163,
  "Texas</w>": 4164,
  "Nich": 4165,
  "senden</w>": 4166,
  "nia</w>": 4167,
  "competition</w>": 4168,
  "pt</w>": 4169,
  "buff": 4170,
  "Sil": 4171,
  "ggy</w>": 4172,
  "Prof.</w>": 4173,
  "Suite</w>": 4174,
  "Ukraine</w>": 4175,
  "enthält</w>": 4176,
  "Meter</w>": 4177,
  "keinen</w>": 4178,
  "Festival</w>": 4179,
  "illi": 4180,
  "bor": 4181,
  "igkeit</w>": 4182,
  "exhibition</w>": 4183,
  "verfahren</w>": 4184,
  "installation</w>": 4185,
  "produ": 4186,
  "terrace</w>": 4187,
  "wh": 4188,
  "partners</w>": 4189,
  "UM": 4190,
  "Ul": 4191,
  "Pass": 4192,
  "später</w>": 4193,
  "haltung</w>": 4194,
  "Mitglieder</w>": 4195,
  "source</w>": 4196,
  "Mö": 4197,
  "bo</w>": 4198,
  "ute</w>": 4199,
  "Christ</w>": 4200,
  "Prot": 4201,
  "ologi": 4202,
  "Type</w>": 4203,
  "staff</w>": 4204,
  "ün": 4205,
  "Net": 4206,
  "Key": 4207,
  "Schul": 4208,
  "ures</w>": 4209,
  "Sha": 4210,
  "ession</w>": 4211,
  "Anfang</w>": 4212,
  "AM</w>": 4213,
  "sau</w>": 4214,
  "hot</w>": 4215,
  "ctor</w>": 4216,
  "bett</w>": 4217,
  "Bus</w>": 4218,
  "Mol": 4219,
  "tour</w>": 4220,
  "34": 4221,
  "exchange</w>": 4222,
  "distance</w>": 4223,
  "progress</w>": 4224,
  "phone</w>": 4225,
  "tar": 4226,
  "difficult</w>": 4227,
  "genommen</w>": 4228,
  "Sohn</w>": 4229,
  "dence</w>": 4230,
  "gene</w>": 4231,
  "Sommer</w>": 4232,
  "3.</w>": 4233,
  "return</w>": 4234,
  "wish</w>": 4235,
  "mountain</w>": 4236,
  "Mel": 4237,
  "Ei": 4238,
  "fen": 4239,
  "lig": 4240,
  "BL": 4241,
  "Cri": 4242,
  "abge": 4243,
  "Pf": 4244,
  "success</w>": 4245,
  "sh</w>": 4246,
  "Dank</w>": 4247,
  "stop</w>": 4248,
  "Sterne</w>": 4249,
  "Bürger</w>": 4250,
  "potential</w>": 4251,
  "sil": 4252,
  "Bereichen</w>": 4253,
  "adopted</w>": 4254,
  "Sam": 4255,
  "gie</w>": 4256,
  "Manu": 4257,
  "Vorschlag</w>": 4258,
  "russi": 4259,
  "Bir": 4260,
  "enthalten</w>": 4261,
  "dich</w>": 4262,
  "surface</w>": 4263,
  "allowed</w>": 4264,
  "sw": 4265,
  "Reise": 4266,
  "trag": 4267,
  "spro": 4268,
  "choice</w>": 4269,
  "werte</w>": 4270,
  "Brüssel</w>": 4271,
  "ators</w>": 4272,
  "Alter</w>": 4273,
  "Lie": 4274,
  "Zurück</w>": 4275,
  "environmental</w>": 4276,
  "popular</w>": 4277,
  "DS</w>": 4278,
  "Situation</w>": 4279,
  "successful</w>": 4280,
  "empfehlen</w>": 4281,
  "Blue</w>": 4282,
  "Test": 4283,
  "BA</w>": 4284,
  "Über</w>": 4285,
  "paar</w>": 4286,
  "LA</w>": 4287,
  "Hans</w>": 4288,
  "Ach": 4289,
  "Hell": 4290,
  "Holiday</w>": 4291,
  "nimmt</w>": 4292,
  "zing</w>": 4293,
  "ji": 4294,
  "Tau": 4295,
  "Mikro": 4296,
  "bedingungen</w>": 4297,
  "weiterhin</w>": 4298,
  "dan": 4299,
  "Ven": 4300,
  "ären</w>": 4301,
  "internet</w>": 4302,
  "hoch</w>": 4303,
  "Cy": 4304,
  "structure</w>": 4305,
  "Umsetzung</w>": 4306,
  "75": 4307,
  "SS</w>": 4308,
  "Fle": 4309,
  "wand": 4310,
  "attention</w>": 4311,
  "EM</w>": 4312,
  "bal": 4313,
  "Tar": 4314,
  ".-": 4315,
  "extra</w>": 4316,
  "Ara": 4317,
  "super": 4318,
  "teten</w>": 4319,
  "THE</w>": 4320,
  "Grundlage</w>": 4321,
  "gesamten</w>": 4322,
  "inn": 4323,
  "Rates</w>": 4324,
  "started</w>": 4325,
  "Research</w>": 4326,
  "Link</w>": 4327,
  "Court</w>": 4328,
  "MA": 4329,
  "vation</w>": 4330,
  "Licht</w>": 4331,
  "my": 4332,
  "follow</w>": 4333,
  "Schn": 4334,
  "Zi": 4335,
  "einzelnen</w>": 4336,
  "uminium</w>": 4337,
  "practice</w>": 4338,
  "cken": 4339,
  "cross</w>": 4340,
  "community</w>": 4341,
  "Blo": 4342,
  "piece</w>": 4343,
  "stoffe</w>": 4344,
  "integrated</w>": 4345,
  "enough</w>": 4346,
  "hö": 4347,
  "Gemein": 4348,
  "bli": 4349,
  "bekommen</w>": 4350,
  "rela": 4351,
  "Sozial": 4352,
  "phase</w>": 4353,
  "tens</w>": 4354,
  "simply</w>": 4355,
  "Pool</w>": 4356,
  "Kraft</w>": 4357,
  "Rechte</w>": 4358,
  "needed</w>": 4359,
  "livi": 4360,
  "lesen</w>": 4361,
  "unit</w>": 4362,
  "highly</w>": 4363,
  "Denn</w>": 4364,
  "goods</w>": 4365,
  "levels</w>": 4366,
  "easily</w>": 4367,
  "UN</w>": 4368,
  "ful": 4369,
  "48": 4370,
  "ey": 4371,
  "published</w>": 4372,
  "boo": 4373,
  "Markt": 4374,
  "casting</w>": 4375,
  "fügen</w>": 4376,
  "gue</w>": 4377,
  "became</w>": 4378,
  "Angel": 4379,
  "Stad": 4380,
  "Ret": 4381,
  "final</w>": 4382,
  "internationale</w>": 4383,
  "wir": 4384,
  "train</w>": 4385,
  "Gebäude</w>": 4386,
  "Hü": 4387,
  "comple": 4388,
  "wid": 4389,
  "cars</w>": 4390,
  "Gewicht</w>": 4391,
  "ani</w>": 4392,
  "führ": 4393,
  "daily</w>": 4394,
  "Aktivitäten</w>": 4395,
  "ably</w>": 4396,
  "ello</w>": 4397,
  "eigene</w>": 4398,
  "Modell</w>": 4399,
  "Up": 4400,
  "nationalen</w>": 4401,
  "star": 4402,
  "pay</w>": 4403,
  "München</w>": 4404,
  "Back</w>": 4405,
  "wichtige</w>": 4406,
  "gem": 4407,
  "hohen</w>": 4408,
  "onia</w>": 4409,
  "kn": 4410,
  "Regu": 4411,
  "Gro": 4412,
  "attra": 4413,
  "Edition</w>": 4414,
  "red": 4415,
  "sun": 4416,
  "Winter</w>": 4417,
  "uss</w>": 4418,
  "lä": 4419,
  "Fehler</w>": 4420,
  "Press</w>": 4421,
  "Port": 4422,
  "improve</w>": 4423,
  "church</w>": 4424,
  "framework</w>": 4425,
  "holz</w>": 4426,
  "lig</w>": 4427,
  "link</w>": 4428,
  "says</w>": 4429,
  "Vorteile</w>": 4430,
  "Mad": 4431,
  "collection</w>": 4432,
  "Farben</w>": 4433,
  "ppe</w>": 4434,
  "Mari": 4435,
  "kre": 4436,
  "Wirtschafts": 4437,
  "sion": 4438,
  "Sun</w>": 4439,
  "Geld</w>": 4440,
  "bleibt</w>": 4441,
  "wieder": 4442,
  "fahr": 4443,
  "Cle": 4444,
  "grund": 4445,
  "Kin": 4446,
  "focus</w>": 4447,
  "ktor</w>": 4448,
  "1996</w>": 4449,
  "ud</w>": 4450,
  "Vir": 4451,
  "Life</w>": 4452,
  "tab": 4453,
  "stadt</w>": 4454,
  "Institut</w>": 4455,
  "temperature</w>": 4456,
  "amen</w>": 4457,
  "strip</w>": 4458,
  "Microsoft</w>": 4459,
  "lö": 4460,
  "tors</w>": 4461,
  "dungen</w>": 4462,
  "¡</w>": 4463,
  "Erde</w>": 4464,
  "Nur</w>": 4465,
  "jahre</w>": 4466,
  "Edel": 4467,
  "bike</w>": 4468,
  "rit": 4469,
  "zweiten</w>": 4470,
  "Dor": 4471,
  "post</w>": 4472,
  "stark</w>": 4473,
  "Kompon": 4474,
  "back": 4475,
  "ash": 4476,
  "komple": 4477,
  "Hab": 4478,
  "endar</w>": 4479,
  "AF": 4480,
  "ational</w>": 4481,
  "brought</w>": 4482,
  "oll</w>": 4483,
  "osp": 4484,
  "ready</w>": 4485,
  "produced</w>": 4486,
  "siehe</w>": 4487,
  "eck</w>": 4488,
  "entation</w>": 4489,
  "Fur": 4490,
  "male</w>": 4491,
  "types</w>": 4492,
  "colour</w>": 4493,
  "folgende</w>": 4494,
  "Reg": 4495,
  "Some</w>": 4496,
  "images</w>": 4497,
  "sit</w>": 4498,
  "Wort</w>": 4499,
  "FR": 4500,
  "continu": 4501,
  "ged</w>": 4502,
  "geln</w>": 4503,
  "ingen</w>": 4504,
  "Me</w>": 4505,
  "Vit": 4506,
  "increased</w>": 4507,
  "death</w>": 4508,
  "mental</w>": 4509,
  "fel": 4510,
  "gesehen</w>": 4511,
  "700</w>": 4512,
  "Kosten": 4513,
  "debate</w>": 4514,
  "ac</w>": 4515,
  "fähigkeit</w>": 4516,
  "She</w>": 4517,
  "Box</w>": 4518,
  "{</w>": 4519,
  "sicher": 4520,
  "sta</w>": 4521,
  "huge</w>": 4522,
  "Jahres</w>": 4523,
  "Sar": 4524,
  "child</w>": 4525,
  "ri</w>": 4526,
  "Vater</w>": 4527,
  "Prin": 4528,
  "Technik</w>": 4529,
  "Weather</w>": 4530,
  "sagt</w>": 4531,
  "kosten</w>": 4532,
  "erei</w>": 4533,
  "wichtigsten</w>": 4534,
  "schlu": 4535,
  "ome": 4536,
  "125</w>": 4537,
  ".e": 4538,
  "Mein</w>": 4539,
  "span": 4540,
  "oblig": 4541,
  "einzigar": 4542,
  "bon</w>": 4543,
  "processes</w>": 4544,
  "M.</w>": 4545,
  "lich": 4546,
  "brow": 4547,
  "UK</w>": 4548,
  "Control</w>": 4549,
  "Croatia</w>": 4550,
  "tag</w>": 4551,
  "complex</w>": 4552,
  "func": 4553,
  "transfer</w>": 4554,
  "season</w>": 4555,
  "Gl": 4556,
  "Hard": 4557,
  "storage</w>": 4558,
  "Best</w>": 4559,
  "Kr": 4560,
  "Well": 4561,
  "regard</w>": 4562,
  "fragen</w>": 4563,
  "stone</w>": 4564,
  "Deutsche</w>": 4565,
  "TE": 4566,
  "dre": 4567,
  "Sim": 4568,
  "Teile</w>": 4569,
  "appro": 4570,
  "herr": 4571,
  "player</w>": 4572,
  "minute</w>": 4573,
  "linien</w>": 4574,
  "VI</w>": 4575,
  "Hinter": 4576,
  "Bezug</w>": 4577,
  "stics</w>": 4578,
  "BMW</w>": 4579,
  "MI": 4580,
  "gener": 4581,
  "falls</w>": 4582,
  "volle</w>": 4583,
  "ump": 4584,
  "lic</w>": 4585,
  "tigt</w>": 4586,
  "fläche</w>": 4587,
  "Netherlands</w>": 4588,
  "ION</w>": 4589,
  "yn": 4590,
  "delivery</w>": 4591,
  "Asi": 4592,
  "europäische</w>": 4593,
  "top": 4594,
  "rech": 4595,
  "asse": 4596,
  "schönen</w>": 4597,
  "sign": 4598,
  "pul": 4599,
  "schutz</w>": 4600,
  "sides</w>": 4601,
  "Samsung</w>": 4602,
  "spe": 4603,
  "Mic": 4604,
  "adi": 4605,
  "physi": 4606,
  "sieht</w>": 4607,
  "gemäß</w>": 4608,
  "welcome</w>": 4609,
  "relevant</w>": 4610,
  "180</w>": 4611,
  "sprach</w>": 4612,
  "Artik": 4613,
  "eng</w>": 4614,
  "schließen</w>": 4615,
  "bach</w>": 4616,
  "Betriebs": 4617,
  "oring</w>": 4618,
  "zwei": 4619,
  "igen</w>": 4620,
  "St</w>": 4621,
  "Holz": 4622,
  "Doch</w>": 4623,
  "elements</w>": 4624,
  "gebiet</w>": 4625,
  "Sta": 4626,
  "würden</w>": 4627,
  "wasser": 4628,
  "Credit</w>": 4629,
  "größe</w>": 4630,
  "GA</w>": 4631,
  "ater</w>": 4632,
  "Ki": 4633,
  "leb": 4634,
  "win</w>": 4635,
  "cable</w>": 4636,
  "}</w>": 4637,
  "110</w>": 4638,
  "internal</w>": 4639,
  "vice</w>": 4640,
  "idea</w>": 4641,
  "schw": 4642,
  "friendly</w>": 4643,
  "clu": 4644,
  "review</w>": 4645,
  "Zeit": 4646,
  "portal</w>": 4647,
  "vintage</w>": 4648,
  "climate</w>": 4649,
  "smoking</w>": 4650,
  "six</w>": 4651,
  "temp": 4652,
  "agen": 4653,
  "FL": 4654,
  "budget</w>": 4655,
  "ams</w>": 4656,
  "Anforderungen</w>": 4657,
  "Rau": 4658,
  "lik": 4659,
  "Mur": 4660,
  "National": 4661,
  "Verkauf</w>": 4662,
  "langen</w>": 4663,
  "setz": 4664,
  "DO": 4665,
  "quickly</w>": 4666,
  "wan": 4667,
  "Total</w>": 4668,
  "Mehr": 4669,
  "cut</w>": 4670,
  "importance</w>": 4671,
  "bit": 4672,
  "Dru": 4673,
  "schriften</w>": 4674,
  "politische</w>": 4675,
  "acht": 4676,
  "Basis</w>": 4677,
  "ungs</w>": 4678,
  "Mitglied</w>": 4679,
  "Den</w>": 4680,
  "At": 4681,
  "vel</w>": 4682,
  "Besucher</w>": 4683,
  "sens": 4684,
  "Next</w>": 4685,
  "sters</w>": 4686,
  "tiges</w>": 4687,
  "39": 4688,
  "Read</w>": 4689,
  "Swi": 4690,
  "develop</w>": 4691,
  "Bat": 4692,
  "mach": 4693,
  "values</w>": 4694,
  "testen</w>": 4695,
  "rep": 4696,
  "hinter</w>": 4697,
  "eries</w>": 4698,
  "TER": 4699,
  "effects</w>": 4700,
  "medium</w>": 4701,
  "got</w>": 4702,
  "Nov": 4703,
  "Projekte</w>": 4704,
  "Stadt": 4705,
  "gelegt</w>": 4706,
  "guest</w>": 4707,
  "cket</w>": 4708,
  "dar</w>": 4709,
  "Schlüssel": 4710,
  "County</w>": 4711,
  "dicke</w>": 4712,
  "messer</w>": 4713,
  "ala</w>": 4714,
  "anische</w>": 4715,
  "Bewer": 4716,
  "CE": 4717,
  "nah": 4718,
  "PE</w>": 4719,
  "plants</w>": 4720,
  "dorf</w>": 4721,
  "Telefon</w>": 4722,
  "Pin": 4723,
  "She": 4724,
  "whose</w>": 4725,
  "earth</w>": 4726,
  "bek": 4727,
  "е": 4728,
  "Mark": 4729,
  "tools</w>": 4730,
  "tenden</w>": 4731,
  "Zahl</w>": 4732,
  "efore</w>": 4733,
  "tig": 4734,
  "sichten</w>": 4735,
  "schle": 4736,
  "thousands</w>": 4737,
  "billion</w>": 4738,
  "wa</w>": 4739,
  "ee</w>": 4740,
  "einschließlich</w>": 4741,
  "Näch": 4742,
  "Sand": 4743,
  "boy</w>": 4744,
  "gives</w>": 4745,
  "zeit": 4746,
  "dia</w>": 4747,
  "strategy</w>": 4748,
  "olog": 4749,
  "fair</w>": 4750,
  "harmon": 4751,
  "entr": 4752,
  "Forschungs": 4753,
  "Private</w>": 4754,
  "heim</w>": 4755,
  "schöne</w>": 4756,
  "comfortable</w>": 4757,
  "Miet": 4758,
  "Spanish</w>": 4759,
  "largest</w>": 4760,
  "Ant": 4761,
  "DER</w>": 4762,
  "section</w>": 4763,
  "skin</w>": 4764,
  "kat": 4765,
  "Em": 4766,
  "schutz": 4767,
  "soli": 4768,
  "ct": 4769,
  "written</w>": 4770,
  "Tuesday</w>": 4771,
  "port": 4772,
  "Nachrichten</w>": 4773,
  "losen</w>": 4774,
  "Special</w>": 4775,
  "foreign</w>": 4776,
  "Pres": 4777,
  "ral</w>": 4778,
  "Druck": 4779,
  "Port</w>": 4780,
  "Time</w>": 4781,
  "darin</w>": 4782,
  "emen</w>": 4783,
  "Lam": 4784,
  "systeme</w>": 4785,
  "signed</w>": 4786,
  "friends</w>": 4787,
  "mind</w>": 4788,
  "meters</w>": 4789,
  "moder": 4790,
  "Frühstück</w>": 4791,
  "kal": 4792,
  "Monday</w>": 4793,
  "ussy</w>": 4794,
  "letzte</w>": 4795,
  "anda</w>": 4796,
  "beste</w>": 4797,
  "Madrid</w>": 4798,
  "Christ": 4799,
  "dungs": 4800,
  "Pul": 4801,
  "cas": 4802,
  "slo": 4803,
  "Russian</w>": 4804,
  "Energy</w>": 4805,
  "Sonder": 4806,
  "hose</w>": 4807,
  "hire</w>": 4808,
  "hr</w>": 4809,
  "sprache</w>": 4810,
  "essential</w>": 4811,
  "Selbst": 4812,
  "eg</w>": 4813,
  "Funktion</w>": 4814,
  "enter": 4815,
  "sho": 4816,
  "note</w>": 4817,
  "Front</w>": 4818,
  "OP": 4819,
  "prot": 4820,
  "contains</w>": 4821,
  "Green</w>": 4822,
  "Position</w>": 4823,
  "Beitrag</w>": 4824,
  "VER": 4825,
  "Mini</w>": 4826,
  "ativen</w>": 4827,
  "Development</w>": 4828,
  "Les": 4829,
  "Wahl</w>": 4830,
  "Organ": 4831,
  "ren</w>": 4832,
  "conver": 4833,
  "Bestim": 4834,
  "Cou": 4835,
  "ace</w>": 4836,
  "ville</w>": 4837,
  "genießen</w>": 4838,
  "oh": 4839,
  "Spieler</w>": 4840,
  "fs</w>": 4841,
  "Ah</w>": 4842,
  "Mitte</w>": 4843,
  "handelt</w>": 4844,
  "basic</w>": 4845,
  "wohl</w>": 4846,
  "Organisation</w>": 4847,
  "eth": 4848,
  "club</w>": 4849,
  "iling</w>": 4850,
  "himself</w>": 4851,
  "1992</w>": 4852,
  "program": 4853,
  "responsibility</w>": 4854,
  "tten</w>": 4855,
  "Aqu": 4856,
  "tain": 4857,
  "Bus": 4858,
  "micro": 4859,
  "Not": 4860,
  "digen</w>": 4861,
  "Kap": 4862,
  "bio": 4863,
  "key": 4864,
  "Lö": 4865,
  "resi": 4866,
  "Wir": 4867,
  "enth": 4868,
  "zo": 4869,
  "demand</w>": 4870,
  "display</w>": 4871,
  "Format</w>": 4872,
  "č": 4873,
  "magne": 4874,
  "bath</w>": 4875,
  "analysis</w>": 4876,
  "Stand</w>": 4877,
  "Buy</w>": 4878,
  "tru": 4879,
  "Kroatien</w>": 4880,
  "cho": 4881,
  "mas": 4882,
  "techn": 4883,
  "uniform</w>": 4884,
  "ise</w>": 4885,
  "gleichzeitig</w>": 4886,
  "Monate</w>": 4887,
  "beds</w>": 4888,
  "wirk": 4889,
  "val</w>": 4890,
  "viol": 4891,
  "ji</w>": 4892,
  "Instru": 4893,
  "wirtschaftlichen</w>": 4894,
  "Rock</w>": 4895,
  "employees</w>": 4896,
  "Kit": 4897,
  "graph": 4898,
  "involved</w>": 4899,
  ".09.": 4900,
  "Körper</w>": 4901,
  "Roll": 4902,
  "Family</w>": 4903,
  "TM": 4904,
  "Archi": 4905,
  "ero</w>": 4906,
  "Interesse</w>": 4907,
  "ampe</w>": 4908,
  "net": 4909,
  "Old</w>": 4910,
  "uring</w>": 4911,
  "Versand": 4912,
  "stration</w>": 4913,
  "bringt</w>": 4914,
  "distri": 4915,
  "though</w>": 4916,
  "Christmas</w>": 4917,
  "hab": 4918,
  "spei": 4919,
  "anim": 4920,
  "gerne</w>": 4921,
  "Start</w>": 4922,
  "din": 4923,
  "xing</w>": 4924,
  "pieces</w>": 4925,
  "xx</w>": 4926,
  "states</w>": 4927,
  "workers</w>": 4928,
  "Is": 4929,
  "Neue</w>": 4930,
  "zentrum</w>": 4931,
  "direction</w>": 4932,
  "fire</w>": 4933,
  "Förderung</w>": 4934,
  "gebracht</w>": 4935,
  "inge</w>": 4936,
  "geeignet</w>": 4937,
  "König</w>": 4938,
  "Dienstag</w>": 4939,
  "com</w>": 4940,
  "NO": 4941,
  "lige</w>": 4942,
  "carried</w>": 4943,
  "squ": 4944,
  "person": 4945,
  "cou": 4946,
  "ae</w>": 4947,
  "ouse</w>": 4948,
  "KG</w>": 4949,
  "rat</w>": 4950,
  "unver": 4951,
  "OM": 4952,
  "significant</w>": 4953,
  "beispielsweise</w>": 4954,
  "Themen</w>": 4955,
  "V.</w>": 4956,
  "Check</w>": 4957,
  "ron</w>": 4958,
  "Kühl": 4959,
  "netz": 4960,
  "gal": 4961,
  "Zustand</w>": 4962,
  "cip": 4963,
  "schlag</w>": 4964,
  "leu": 4965,
  "Ziele</w>": 4966,
  "Cast": 4967,
  "ink</w>": 4968,
  "stellungen</w>": 4969,
  "nothing</w>": 4970,
  "Android</w>": 4971,
  "regions</w>": 4972,
  "Winter": 4973,
  "od": 4974,
  "booking</w>": 4975,
  "Media</w>": 4976,
  "dig": 4977,
  "Analy": 4978,
  "reichen</w>": 4979,
  "Ly": 4980,
  "click</w>": 4981,
  "Kultur": 4982,
  "ebenso</w>": 4983,
  "selection</w>": 4984,
  "cent</w>": 4985,
  "Stand": 4986,
  "oto</w>": 4987,
  "Plus</w>": 4988,
  "enzen</w>": 4989,
  "dürfen</w>": 4990,
  "west</w>": 4991,
  "Greece</w>": 4992,
  "ries</w>": 4993,
  "bet</w>": 4994,
  "Turkey</w>": 4995,
  "Englisch</w>": 4996,
  "kommenden</w>": 4997,
  "gte</w>": 4998,
  "bt</w>": 4999,
  "Netz": 5000,
  "Erd": 5001,
  "generation</w>": 5002,
  "add</w>": 5003,
  "inform": 5004,
  "stellte</w>": 5005,
  "Music</w>": 5006,
  "Year</w>": 5007,
  "mus": 5008,
  "houses</w>": 5009,
  "erforderlich</w>": 5010,
  "greater</w>": 5011,
  "Indi": 5012,
  "groß": 5013,
  "watch</w>": 5014,
  "activity</w>": 5015,
  "ous": 5016,
  "Ziel": 5017,
  "int": 5018,
  "ill</w>": 5019,
  "inside</w>": 5020,
  "external</w>": 5021,
  "Player</w>": 5022,
  "offered</w>": 5023,
  "Außerdem</w>": 5024,
  "Mutter</w>": 5025,
  "Menge</w>": 5026,
  "bildung</w>": 5027,
  "44": 5028,
  "ni</w>": 5029,
  "Poli": 5030,
  "LI": 5031,
  "release</w>": 5032,
  "Peru</w>": 5033,
  "appropriate</w>": 5034,
  "motor</w>": 5035,
  "uten</w>": 5036,
  "Gemeinde</w>": 5037,
  "Tel": 5038,
  "server</w>": 5039,
  "Edi": 5040,
  "ature</w>": 5041,
  "movement</w>": 5042,
  "Ani": 5043,
  "Ty": 5044,
  "Kingdom</w>": 5045,
  "49": 5046,
  "Is</w>": 5047,
  "Gesundheit</w>": 5048,
  "conditioning</w>": 5049,
  "Schal": 5050,
  "ska</w>": 5051,
  "Bos": 5052,
  "wenden</w>": 5053,
  "osen</w>": 5054,
  "pers</w>": 5055,
  "Bestell": 5056,
  "hält</w>": 5057,
  "tool</w>": 5058,
  "vs</w>": 5059,
  "Entwicklungs": 5060,
  "SK": 5061,
  "Pil": 5062,
  "Puerto</w>": 5063,
  "Silver</w>": 5064,
  "seines</w>": 5065,
  "Beach</w>": 5066,
  "Gest": 5067,
  "vielleicht</w>": 5068,
  "stars</w>": 5069,
  "move</w>": 5070,
  "Zeichen</w>": 5071,
  "Anwendungen</w>": 5072,
  "reich": 5073,
  "Rezep": 5074,
  "р": 5075,
  "ungsp": 5076,
  "winter</w>": 5077,
  "ato</w>": 5078,
  "Stock</w>": 5079,
  "Lis": 5080,
  "Geist</w>": 5081,
  "processing</w>": 5082,
  "55": 5083,
  "TC</w>": 5084,
  "schön": 5085,
  "Jahrhundert</w>": 5086,
  "AK": 5087,
  "achieve</w>": 5088,
  "Pie": 5089,
  "schreiben</w>": 5090,
  "actions</w>": 5091,
  "oma</w>": 5092,
  "context</w>": 5093,
  "160</w>": 5094,
  "steps</w>": 5095,
  "aries</w>": 5096,
  "klar</w>": 5097,
  "Montag</w>": 5098,
  "lations</w>": 5099,
  "äl": 5100,
  "Firma</w>": 5101,
  "mund</w>": 5102,
  "CD": 5103,
  "spezifi": 5104,
  "zieren</w>": 5105,
  "students</w>": 5106,
  "Sig": 5107,
  "Bauern": 5108,
  ".org</w>": 5109,
  "accord": 5110,
  "Wil": 5111,
  "numerous</w>": 5112,
  "FC</w>": 5113,
  "fish</w>": 5114,
  "Alp": 5115,
  "~</w>": 5116,
  "Wasch": 5117,
  "Roh": 5118,
  "san": 5119,
  "Wind</w>": 5120,
  "bung</w>": 5121,
  "wohnungen</w>": 5122,
  "kleiner</w>": 5123,
  "eben": 5124,
  "concept</w>": 5125,
  "2020</w>": 5126,
  "reise</w>": 5127,
  "apply</w>": 5128,
  "gesagt</w>": 5129,
  "fight</w>": 5130,
  "größten</w>": 5131,
  "schwer": 5132,
  "verbunden</w>": 5133,
  "Wer": 5134,
  "wers</w>": 5135,
  "drivers</w>": 5136,
  "н": 5137,
  "shown</w>": 5138,
  "Cover</w>": 5139,
  "purpose</w>": 5140,
  "sun</w>": 5141,
  "lives</w>": 5142,
  "Erfolg</w>": 5143,
  "tag": 5144,
  "guten</w>": 5145,
  "decided</w>": 5146,
  "mark</w>": 5147,
  "Zwei": 5148,
  "schi": 5149,
  "concerning</w>": 5150,
  "considered</w>": 5151,
  "üssen</w>": 5152,
  "temper": 5153,
  "Robert</w>": 5154,
  "Party</w>": 5155,
  "restaurants</w>": 5156,
  "Haup": 5157,
  "tät</w>": 5158,
  "feet</w>": 5159,
  "Master</w>": 5160,
  "cities</w>": 5161,
  "Druck</w>": 5162,
  "remain</w>": 5163,
  "mini": 5164,
  "rou": 5165,
  "integri": 5166,
  "highest</w>": 5167,
  "documents</w>": 5168,
  "extremely</w>": 5169,
  "s.com</w>": 5170,
  "Verbesserung</w>": 5171,
  "Place</w>": 5172,
  "Punkte</w>": 5173,
  "DS": 5174,
  "stable</w>": 5175,
  "Gleich": 5176,
  "vin": 5177,
  "verbin": 5178,
  "sozialen</w>": 5179,
  "deshalb</w>": 5180,
  "ziert</w>": 5181,
  "Blog</w>": 5182,
  "tains</w>": 5183,
  "1994</w>": 5184,
  "Go</w>": 5185,
  "selected</w>": 5186,
  "32": 5187,
  "conference</w>": 5188,
  "thanks</w>": 5189,
  "gin</w>": 5190,
  "Foundation</w>": 5191,
  "Wander": 5192,
  "anischen</w>": 5193,
  "4.</w>": 5194,
  "ita</w>": 5195,
  "bourg</w>": 5196,
  "а": 5197,
  "veröffentlicht</w>": 5198,
  "Munich</w>": 5199,
  "Jean</w>": 5200,
  "zehn</w>": 5201,
  "fic": 5202,
  "Stre": 5203,
  "ED": 5204,
  "resolution</w>": 5205,
  "cr": 5206,
  "Company</w>": 5207,
  "impact</w>": 5208,
  "IV</w>": 5209,
  "device</w>": 5210,
  "aff": 5211,
  "verk": 5212,
  "meinen</w>": 5213,
  "extra": 5214,
  "dec": 5215,
  "ers": 5216,
  "organ": 5217,
  "ku": 5218,
  "140</w>": 5219,
  "Kol": 5220,
  "Künstler</w>": 5221,
  "Supp": 5222,
  "oul": 5223,
  "con</w>": 5224,
  "tlich</w>": 5225,
  "Strategie</w>": 5226,
  "einger": 5227,
  "1.0": 5228,
  "Czech</w>": 5229,
  "MP</w>": 5230,
  "vit": 5231,
  "actually</w>": 5232,
  "Punkt</w>": 5233,
  "package</w>": 5234,
  "Klein": 5235,
  "Umwelt</w>": 5236,
  "350</w>": 5237,
  "variety</w>": 5238,
  "lights</w>": 5239,
  "zone</w>": 5240,
  "Real</w>": 5241,
  "unten</w>": 5242,
  "Mak": 5243,
  "brauchen</w>": 5244,
  "Na": 5245,
  "clearly</w>": 5246,
  "cted</w>": 5247,
  "GR": 5248,
  "stische</w>": 5249,
  "Schw": 5250,
  "Russland</w>": 5251,
  "Ost": 5252,
  "build</w>": 5253,
  "punkt</w>": 5254,
  "vollen</w>": 5255,
  "understand</w>": 5256,
  "dal": 5257,
  "High": 5258,
  "serv": 5259,
  "scale</w>": 5260,
  "Transport</w>": 5261,
  "deten</w>": 5262,
  "ago": 5263,
  "Info</w>": 5264,
  "konnten</w>": 5265,
  "Beh": 5266,
  "bat": 5267,
  "erter</w>": 5268,
  "by": 5269,
  "vorge": 5270,
  "dliche</w>": 5271,
  "Titel</w>": 5272,
  "2.0</w>": 5273,
  "ug": 5274,
  "oto": 5275,
  "Los</w>": 5276,
  "sense</w>": 5277,
  "wesen</w>": 5278,
  "Volk</w>": 5279,
  "Band</w>": 5280,
  "instead</w>": 5281,
  "Ausstellung</w>": 5282,
  "LIN": 5283,
  "bas": 5284,
  "fach": 5285,
  "stik</w>": 5286,
  "NA": 5287,
  "flexible</w>": 5288,
  "efficient</w>": 5289,
  "läs": 5290,
  "schluss</w>": 5291,
  "population</w>": 5292,
  "lernen</w>": 5293,
  "Augen</w>": 5294,
  "Ann": 5295,
  "kop": 5296,
  "alli": 5297,
  "cause</w>": 5298,
  "flow</w>": 5299,
  "doing</w>": 5300,
  "Galerie</w>": 5301,
  "Rome</w>": 5302,
  "allo": 5303,
  "bedeut": 5304,
  "sul": 5305,
  "Han": 5306,
  "Don": 5307,
  "Update</w>": 5308,
  "schrank</w>": 5309,
  "Vie": 5310,
  "facial</w>": 5311,
  "var": 5312,
  "neuer</w>": 5313,
  "rol</w>": 5314,
  "entwickeln</w>": 5315,
  "load</w>": 5316,
  "Dann</w>": 5317,
  "Lake</w>": 5318,
  "Damit</w>": 5319,
  "Steuer": 5320,
  "atz</w>": 5321,
  "Hause</w>": 5322,
  "kostenlos</w>": 5323,
  "Bou": 5324,
  "Sens": 5325,
  "secure</w>": 5326,
  "fallen</w>": 5327,
  "border</w>": 5328,
  "SM": 5329,
  "bes": 5330,
  "ear": 5331,
  "Rou": 5332,
  "Familien</w>": 5333,
  "Verk": 5334,
  "weather</w>": 5335,
  "ored</w>": 5336,
  "Hafen</w>": 5337,
  "Vereinigten</w>": 5338,
  "hier": 5339,
  "Europas</w>": 5340,
  "payment</w>": 5341,
  "ais</w>": 5342,
  "schem</w>": 5343,
  "integration</w>": 5344,
  "Motor</w>": 5345,
  "Veranstaltungen</w>": 5346,
  "atory</w>": 5347,
  "VI": 5348,
  "rot</w>": 5349,
  "geboren</w>": 5350,
  "Express</w>": 5351,
  "Behandlung</w>": 5352,
  "commercial</w>": 5353,
  "frame</w>": 5354,
  "Wer</w>": 5355,
  "Mul": 5356,
  "denken</w>": 5357,
  "efforts</w>": 5358,
  "Zo": 5359,
  "Leute</w>": 5360,
  "iel": 5361,
  "ining</w>": 5362,
  "stie": 5363,
  "Landschaft</w>": 5364,
  "esse</w>": 5365,
  "gets</w>": 5366,
  "orts</w>": 5367,
  "ases</w>": 5368,
  "Stil</w>": 5369,
  "sag": 5370,
  "Rech": 5371,
  "Arten</w>": 5372,
  "Betrieb</w>": 5373,
  "cos": 5374,
  "Parlaments</w>": 5375,
  "unge</w>": 5376,
  "visitors</w>": 5377,
  "classic</w>": 5378,
  "erie</w>": 5379,
  "Stelle</w>": 5380,
  "Vari": 5381,
  "Parkplatz</w>": 5382,
  "mindestens</w>": 5383,
  "gesamte</w>": 5384,
  "but": 5385,
  "separate</w>": 5386,
  "Mem": 5387,
  "einander</w>": 5388,
  "remains</w>": 5389,
  "street</w>": 5390,
  "rein": 5391,
  "Regionen</w>": 5392,
  "möglichkeiten</w>": 5393,
  "fli": 5394,
  "Gas": 5395,
  "Fü": 5396,
  "contra": 5397,
  "Cur": 5398,
  "ür": 5399,
  "könnten</w>": 5400,
  "Arbeiten</w>": 5401,
  "Sony</w>": 5402,
  "lets</w>": 5403,
  "alized</w>": 5404,
  "ändern</w>": 5405,
  "Lar": 5406,
  "somit</w>": 5407,
  "Gran": 5408,
  "ency</w>": 5409,
  "ade": 5410,
  "gli": 5411,
  "Western</w>": 5412,
  "ME</w>": 5413,
  "separ": 5414,
  "ame": 5415,
  "reg": 5416,
  "vote</w>": 5417,
  "bul": 5418,
  "Feld": 5419,
  "Jav": 5420,
  "notwendig</w>": 5421,
  "durchgeführt</w>": 5422,
  "Leistung</w>": 5423,
  "20.</w>": 5424,
  "efficiency</w>": 5425,
  "Las": 5426,
  "policies</w>": 5427,
  "Mod": 5428,
  "shot</w>": 5429,
  "Bahnhof</w>": 5430,
  "produce</w>": 5431,
  "Informations": 5432,
  "Dinge</w>": 5433,
  "essi": 5434,
  "neues</w>": 5435,
  "lin</w>": 5436,
  "inclu": 5437,
  "cam": 5438,
  "swimming</w>": 5439,
  "fine</w>": 5440,
  "hätte</w>": 5441,
  "Kre": 5442,
  "Social</w>": 5443,
  "Line</w>": 5444,
  "mi</w>": 5445,
  "metres</w>": 5446,
  "Medien</w>": 5447,
  "wider": 5448,
  "leistung</w>": 5449,
  "procedure</w>": 5450,
  "darf</w>": 5451,
  "regarding</w>": 5452,
  "aty</w>": 5453,
  "Federal</w>": 5454,
  "Flu": 5455,
  "RI": 5456,
  "fields</w>": 5457,
  "Auswirkungen</w>": 5458,
  "deutsch</w>": 5459,
  "optim": 5460,
  "Rat": 5461,
  "reached</w>": 5462,
  "bahn</w>": 5463,
  "Schutz": 5464,
  "Kindern</w>": 5465,
  "opinion</w>": 5466,
  "setting</w>": 5467,
  "wobei</w>": 5468,
  "schu": 5469,
  "woman</w>": 5470,
  "d.": 5471,
  "sustainable</w>": 5472,
  "10,": 5473,
  "opened</w>": 5474,
  "Vers": 5475,
  "Dabei</w>": 5476,
  "Fran": 5477,
  "ül": 5478,
  "Eff": 5479,
  "Systeme</w>": 5480,
  "Poland</w>": 5481,
  "bedroom</w>": 5482,
  "130</w>": 5483,
  "Amsterdam</w>": 5484,
  "Balkon</w>": 5485,
  "sia</w>": 5486,
  "Contact</w>": 5487,
  "ée</w>": 5488,
  "verti": 5489,
  "eingesetzt</w>": 5490,
  "Lauf": 5491,
  "erkennen</w>": 5492,
  "ances</w>": 5493,
  "dedicated</w>": 5494,
  "Mei": 5495,
  "stro": 5496,
  "Ster": 5497,
  "chtung</w>": 5498,
  "changed</w>": 5499,
  "Än": 5500,
  "si</w>": 5501,
  "interesting</w>": 5502,
  "principle</w>": 5503,
  "ov</w>": 5504,
  "closed</w>": 5505,
  "leave</w>": 5506,
  "zeiten</w>": 5507,
  "Lau": 5508,
  "ologische</w>": 5509,
  "Low</w>": 5510,
  "öl": 5511,
  "Semin": 5512,
  "Lü": 5513,
  "Kra": 5514,
  "Logi": 5515,
  "devices</w>": 5516,
  "05": 5517,
  "Att": 5518,
  "geführt</w>": 5519,
  "Jan</w>": 5520,
  "concerned</w>": 5521,
  "developing</w>": 5522,
  "connected</w>": 5523,
  "freedom</w>": 5524,
  "mg</w>": 5525,
  "Eing": 5526,
  "aim</w>": 5527,
  "Super</w>": 5528,
  "seh": 5529,
  "Only</w>": 5530,
  "Est": 5531,
  "clo": 5532,
  "ton": 5533,
  "mess": 5534,
  "bian</w>": 5535,
  "derungs": 5536,
  "Bildung</w>": 5537,
  "opp": 5538,
  "S.": 5539,
  "Wachstum</w>": 5540,
  "zweite</w>": 5541,
  "mäß": 5542,
  "Beziehungen</w>": 5543,
  "Water</w>": 5544,
  "Ram": 5545,
  "auen</w>": 5546,
  "ulation</w>": 5547,
  "serve</w>": 5548,
  "Wat": 5549,
  "mut": 5550,
  "ume</w>": 5551,
  "Find</w>": 5552,
  "Installation</w>": 5553,
  "spirit</w>": 5554,
  "Musik": 5555,
  "thought</w>": 5556,
  "flexi": 5557,
  "Kop": 5558,
  "Navig": 5559,
  "motor": 5560,
  "Linie</w>": 5561,
  "joy</w>": 5562,
  "Geräte</w>": 5563,
  "reiten</w>": 5564,
  "leader</w>": 5565,
  "ften</w>": 5566,
  "Tages": 5567,
  "gave</w>": 5568,
  "65": 5569,
  "ghts</w>": 5570,
  "independent</w>": 5571,
  "Manager</w>": 5572,
  "Over": 5573,
  "ep</w>": 5574,
  "Conc": 5575,
  "arbei": 5576,
  "Gui": 5577,
  "hidden</w>": 5578,
  "Pet": 5579,
  "euro</w>": 5580,
  "ented</w>": 5581,
  "immediately</w>": 5582,
  "Aufgabe</w>": 5583,
  "lie": 5584,
  "row</w>": 5585,
  "gemeinsamen</w>": 5586,
  "Wind": 5587,
  "frequ": 5588,
  "tly</w>": 5589,
  "mä": 5590,
  "Erfahrungen</w>": 5591,
  "covered</w>": 5592,
  "stück": 5593,
  "starting</w>": 5594,
  "spezi": 5595,
  "Flug": 5596,
  "Farb": 5597,
  "gesellschaft</w>": 5598,
  "Pau": 5599,
  "Order</w>": 5600,
  "joint</w>": 5601,
  "Lim": 5602,
  "Türkei</w>": 5603,
  "options</w>": 5604,
  "detail</w>": 5605,
  "Cop": 5606,
  "anne</w>": 5607,
  "brau": 5608,
  "Leistungs": 5609,
  "electric</w>": 5610,
  "bestimmten</w>": 5611,
  "sli": 5612,
  "99": 5613,
  "Buch</w>": 5614,
  "cy</w>": 5615,
  "Messe</w>": 5616,
  "normal</w>": 5617,
  "benefit</w>": 5618,
  "union</w>": 5619,
  "0.0": 5620,
  "deine</w>": 5621,
  "amin</w>": 5622,
  "machines</w>": 5623,
  "allerdings</w>": 5624,
  "Schwarz</w>": 5625,
  "Hotel": 5626,
  "pend": 5627,
  "yo": 5628,
  "Funktionen</w>": 5629,
  "Colle": 5630,
  "possibility</w>": 5631,
  "arten</w>": 5632,
  "nämlich</w>": 5633,
  "Neben</w>": 5634,
  "Association</w>": 5635,
  "average</w>": 5636,
  "werk": 5637,
  "throat</w>": 5638,
  "rufe</w>": 5639,
  "engine</w>": 5640,
  "medical</w>": 5641,
  "news</w>": 5642,
  "mobili": 5643,
  "Flor": 5644,
  "cle": 5645,
  "bewer": 5646,
  "treten</w>": 5647,
  "í</w>": 5648,
  "path</w>": 5649,
  "fung</w>": 5650,
  "Sonne</w>": 5651,
  "Klei": 5652,
  "asked</w>": 5653,
  "Männer</w>": 5654,
  "blo": 5655,
  "Py": 5656,
  "Jerusalem</w>": 5657,
  "dete</w>": 5658,
  "hören</w>": 5659,
  "ore": 5660,
  "unden</w>": 5661,
  "Wall": 5662,
  "spi": 5663,
  "Unter</w>": 5664,
  "Garden</w>": 5665,
  "chter</w>": 5666,
  "spar": 5667,
  "offering</w>": 5668,
  "EX": 5669,
  "ologischen</w>": 5670,
  "rö": 5671,
  "elec": 5672,
  "cute</w>": 5673,
  "meinem</w>": 5674,
  "sechs</w>": 5675,
  "historical</w>": 5676,
  "Links</w>": 5677,
  "coffee</w>": 5678,
  "Bil": 5679,
  "Gre": 5680,
  "Co</w>": 5681,
  "bevor</w>": 5682,
  "Sat": 5683,
  "5.</w>": 5684,
  "iner</w>": 5685,
  "dly</w>": 5686,
  "abzu": 5687,
  "Stuttgart</w>": 5688,
  "dige</w>": 5689,
  "stischen</w>": 5690,
  "pass": 5691,
  "verbessern</w>": 5692,
  "Prof": 5693,
  "learn</w>": 5694,
  "initiative</w>": 5695,
  "zeichnet</w>": 5696,
  "q</w>": 5697,
  "gebaut</w>": 5698,
  "save</w>": 5699,
  "height</w>": 5700,
  "mid</w>": 5701,
  "ling": 5702,
  "War</w>": 5703,
  "Johannes</w>": 5704,
  "ry": 5705,
  "unseres</w>": 5706,
  "76": 5707,
  "rit</w>": 5708,
  "poly": 5709,
  "freien</w>": 5710,
  "ermöglichen</w>": 5711,
  "tual</w>": 5712,
  "Qualitäts": 5713,
  "Photos</w>": 5714,
  "Ges": 5715,
  "A.</w>": 5716,
  "Meinung</w>": 5717,
  "Ski</w>": 5718,
  "tery</w>": 5719,
  "nahe</w>": 5720,
  "hochwer": 5721,
  "Spezial": 5722,
  "Touri": 5723,
  "supported</w>": 5724,
  "Mach": 5725,
  "Rab": 5726,
  "schal": 5727,
  "wave</w>": 5728,
  "ow</w>": 5729,
  "rap": 5730,
  "Many</w>": 5731,
  "1990</w>": 5732,
  "tees</w>": 5733,
  "größte</w>": 5734,
  "dem": 5735,
  "Rol": 5736,
  "Es": 5737,
  "Ten": 5738,
  "stigen</w>": 5739,
  "inia</w>": 5740,
  "KW</w>": 5741,
  "legislation</w>": 5742,
  "Satelli": 5743,
  "fat</w>": 5744,
  "opening</w>": 5745,
  "Eng": 5746,
  "gement</w>": 5747,
  "Griechenland</w>": 5748,
  "Stein": 5749,
  "tra</w>": 5750,
  "folgen</w>": 5751,
  "mungen</w>": 5752,
  "Integration</w>": 5753,
  "hole</w>": 5754,
  "guide</w>": 5755,
  "Tief": 5756,
  "häuser</w>": 5757,
  "Non</w>": 5758,
  "amend": 5759,
  "Besuch</w>": 5760,
  "в": 5761,
  "End": 5762,
  "aufnahme</w>": 5763,
  "eins</w>": 5764,
  "warm</w>": 5765,
  "ules</w>": 5766,
  "electronic</w>": 5767,
  "creation</w>": 5768,
  "PA</w>": 5769,
  "combination</w>": 5770,
  "aut</w>": 5771,
  "typ": 5772,
  "besuchen</w>": 5773,
  "pes</w>": 5774,
  "employment</w>": 5775,
  "stan": 5776,
  "ap</w>": 5777,
  "boots</w>": 5778,
  "coordin": 5779,
  "square</w>": 5780,
  "Monats": 5781,
  "wald</w>": 5782,
  "vehicle</w>": 5783,
  "Landes</w>": 5784,
  "constru": 5785,
  "A.": 5786,
  "Mis": 5787,
  "Pop": 5788,
  "BER": 5789,
  "ihres</w>": 5790,
  "jeweiligen</w>": 5791,
  "J.</w>": 5792,
  "Alpha": 5793,
  "ungspro": 5794,
  "erungen</w>": 5795,
  "dig</w>": 5796,
  "Gruppen</w>": 5797,
  "ading</w>": 5798,
  "nis": 5799,
  "functions</w>": 5800,
  "fru": 5801,
  "sons</w>": 5802,
  "és</w>": 5803,
  "Sli": 5804,
  "aufgenommen</w>": 5805,
  "Homepage</w>": 5806,
  "wasser</w>": 5807,
  "derzeit</w>": 5808,
  "Typ": 5809,
  "lingerie</w>": 5810,
  "get": 5811,
  "verfügen</w>": 5812,
  "Picture</w>": 5813,
  "leistungs": 5814,
  "Köln</w>": 5815,
  "instal": 5816,
  "tivity</w>": 5817,
  "stands</w>": 5818,
  "audio</w>": 5819,
  "Herz</w>": 5820,
  "isation</w>": 5821,
  "Einige</w>": 5822,
  "Silber</w>": 5823,
  "paid</w>": 5824,
  "selben</w>": 5825,
  "Two</w>": 5826,
  "sm</w>": 5827,
  "technischen</w>": 5828,
  "dlichen</w>": 5829,
  "Klasse</w>": 5830,
  "relations</w>": 5831,
  "nam": 5832,
  "brand</w>": 5833,
  "schule</w>": 5834,
  "pm</w>": 5835,
  "trock": 5836,
  "Wi</w>": 5837,
  "Kolle": 5838,
  "emo": 5839,
  "gol": 5840,
  "FO": 5841,
  "Deshalb</w>": 5842,
  "sign</w>": 5843,
  "proposed</w>": 5844,
  "worldwide</w>": 5845,
  "Card</w>": 5846,
  "08": 5847,
  "Asia</w>": 5848,
  "lichkeiten</w>": 5849,
  "VAT</w>": 5850,
  "metal</w>": 5851,
  "south</w>": 5852,
  "Sweden</w>": 5853,
  "maximal</w>": 5854,
  "mern</w>": 5855,
  "Öl</w>": 5856,
  "eting</w>": 5857,
  "schuhe</w>": 5858,
  "evening</w>": 5859,
  "plu": 5860,
  "ähr": 5861,
  "clean</w>": 5862,
  "Change</w>": 5863,
  "1993</w>": 5864,
  "heißt</w>": 5865,
  "Vertrag</w>": 5866,
  "Handel</w>": 5867,
  "Ol": 5868,
  "cti": 5869,
  "jobs</w>": 5870,
  "England</w>": 5871,
  "guarantee</w>": 5872,
  "Security</w>": 5873,
  "Test</w>": 5874,
  "sty": 5875,
  "hel": 5876,
  "cum": 5877,
  "Post": 5878,
  "iges</w>": 5879,
  "reasons</w>": 5880,
  "Ton": 5881,
  "blood</w>": 5882,
  "percent</w>": 5883,
  "Cha": 5884,
  "Amat": 5885,
  "Gol": 5886,
  "dete": 5887,
  "Slo": 5888,
  "aged</w>": 5889,
  "institu": 5890,
  "radio</w>": 5891,
  "Objekt</w>": 5892,
  "Regel</w>": 5893,
  "Investitionen</w>": 5894,
  "distribution</w>": 5895,
  "reports</w>": 5896,
  "foot": 5897,
  "Ali": 5898,
  "×</w>": 5899,
  "User</w>": 5900,
  "sk</w>": 5901,
  "Director</w>": 5902,
  "deep": 5903,
  "Stor": 5904,
  "Eigenschaften</w>": 5905,
  "trip</w>": 5906,
  "dance</w>": 5907,
  "rie": 5908,
  "wär": 5909,
  "ced</w>": 5910,
  "Scre": 5911,
  "Zer": 5912,
  "schä": 5913,
  "Heizung</w>": 5914,
  "atur": 5915,
  "Andere</w>": 5916,
  "Ringe</w>": 5917,
  "Reise</w>": 5918,
  "method</w>": 5919,
  "06": 5920,
  "mö": 5921,
  "reli": 5922,
  "lauf": 5923,
  "Nik": 5924,
  "mitteln</w>": 5925,
  "fordert</w>": 5926,
  "strand</w>": 5927,
  "Tom": 5928,
  "Preis": 5929,
  "dest": 5930,
  "maintenance</w>": 5931,
  "output</w>": 5932,
  "methods</w>": 5933,
  "military</w>": 5934,
  "ski": 5935,
  "technik</w>": 5936,
  "morning</w>": 5937,
  "Dy": 5938,
  "err": 5939,
  "ante</w>": 5940,
  "clients</w>": 5941,
  "silver</w>": 5942,
  "groß</w>": 5943,
  "aktuellen</w>": 5944,
  "Chin": 5945,
  "alone</w>": 5946,
  "nissen</w>": 5947,
  "Kampf</w>": 5948,
  "tt</w>": 5949,
  "Kontrolle</w>": 5950,
  "Kollegen</w>": 5951,
  "nor</w>": 5952,
  "daten</w>": 5953,
  "bi</w>": 5954,
  "TT": 5955,
  "ard": 5956,
  "ym": 5957,
  "ises</w>": 5958,
  "landscape</w>": 5959,
  "Seine</w>": 5960,
  "entwicklung</w>": 5961,
  "Bevölkerung</w>": 5962,
  "traffic</w>": 5963,
  "Glas": 5964,
  "Blan": 5965,
  "duction</w>": 5966,
  "Macht</w>": 5967,
  "utz": 5968,
  "Canada</w>": 5969,
  "geo": 5970,
  "entry</w>": 5971,
  "allein</w>": 5972,
  "elektri": 5973,
  "cont": 5974,
  "authenti": 5975,
  "Alexander</w>": 5976,
  "CR": 5977,
  "900</w>": 5978,
  "Inseln</w>": 5979,
  "serious</w>": 5980,
  "hands</w>": 5981,
  "Male</w>": 5982,
  "ela</w>": 5983,
  "Rom</w>": 5984,
  "sich": 5985,
  "ø": 5986,
  "welches</w>": 5987,
  "kin": 5988,
  "11.</w>": 5989,
  "ingly</w>": 5990,
  "CN": 5991,
  "ordnung</w>": 5992,
  "interested</w>": 5993,
  "tsch": 5994,
  "Oper": 5995,
  "Ih": 5996,
  "gender</w>": 5997,
  "Rem": 5998,
  "providing</w>": 5999,
  "pak": 6000,
  "Polen</w>": 6001,
  "beide</w>": 6002,
  "Gei": 6003,
  "oli": 6004,
  "ther</w>": 6005,
  "legung</w>": 6006,
  "Spa</w>": 6007,
  "Stati": 6008,
  "Brun": 6009,
  "ebo": 6010,
  "öl</w>": 6011,
  "track</w>": 6012,
  "Get": 6013,
  "telephone</w>": 6014,
  "fun</w>": 6015,
  "stry</w>": 6016,
  "1st</w>": 6017,
  "reading</w>": 6018,
  "mot": 6019,
  "Sou": 6020,
  "Prozess</w>": 6021,
  "comprehensive</w>": 6022,
  "Seh": 6023,
  "System": 6024,
  "School</w>": 6025,
  "Speci": 6026,
  "quiet</w>": 6027,
  "Radi": 6028,
  "angeboten</w>": 6029,
  "pil": 6030,
  "wes": 6031,
  "Technology</w>": 6032,
  "Dienst": 6033,
  "innov": 6034,
  "rechte</w>": 6035,
  "dex</w>": 6036,
  "Gew": 6037,
  "anderem</w>": 6038,
  "anderer</w>": 6039,
  "aturen</w>": 6040,
  "ech</w>": 6041,
  "Transport": 6042,
  "ú": 6043,
  "Wo": 6044,
  "Darüber</w>": 6045,
  "ised</w>": 6046,
  "Änderungen</w>": 6047,
  "\\</w>": 6048,
  "nahm</w>": 6049,
  "began</w>": 6050,
  "cle</w>": 6051,
  "student</w>": 6052,
  "Even</w>": 6053,
  "Hum": 6054,
  "feature</w>": 6055,
  "lon": 6056,
  "Webseite</w>": 6057,
  "inner</w>": 6058,
  "talk</w>": 6059,
  "Daher</w>": 6060,
  "ills</w>": 6061,
  "Holi": 6062,
  "VA</w>": 6063,
  "police</w>": 6064,
  "gang": 6065,
  "wirtschaftliche</w>": 6066,
  "worked</w>": 6067,
  "ening</w>": 6068,
  "onn": 6069,
  "British</w>": 6070,
  "archi": 6071,
  "Mah": 6072,
  "UT</w>": 6073,
  "Sum": 6074,
  "gliche</w>": 6075,
  "gem</w>": 6076,
  "zahlen</w>": 6077,
  "Str": 6078,
  "FS": 6079,
  "def": 6080,
  "Prakti": 6081,
  "vention</w>": 6082,
  "interests</w>": 6083,
  "bia</w>": 6084,
  "Sitz": 6085,
  "meter</w>": 6086,
  "Staats": 6087,
  "a.": 6088,
  "whom</w>": 6089,
  "Great</w>": 6090,
  "gallery</w>": 6091,
  "sische</w>": 6092,
  "ielle</w>": 6093,
  "official</w>": 6094,
  "objec": 6095,
  "ching</w>": 6096,
  "ott": 6097,
  "jugend": 6098,
  "Verantwortung</w>": 6099,
  "Plan</w>": 6100,
  "vis": 6101,
  "zahlreiche</w>": 6102,
  "Herstellung</w>": 6103,
  "reduce</w>": 6104,
  "host": 6105,
  "fel</w>": 6106,
  "Dorf</w>": 6107,
  "bedrooms</w>": 6108,
  "bisher</w>": 6109,
  "►</w>": 6110,
  "ova</w>": 6111,
  "Jes": 6112,
  "tzentrum</w>": 6113,
  "jeweils</w>": 6114,
  "oten</w>": 6115,
  "status</w>": 6116,
  "prä": 6117,
  "UC": 6118,
  "achieved</w>": 6119,
  "ners</w>": 6120,
  "Gestern</w>": 6121,
  "Each</w>": 6122,
  "erfolgt</w>": 6123,
  "colle": 6124,
  "li</w>": 6125,
  "h.</w>": 6126,
  "grenz": 6127,
  "graphy</w>": 6128,
  "verstehen</w>": 6129,
  "Elek": 6130,
  "players</w>": 6131,
  "industrie</w>": 6132,
  "Beginn</w>": 6133,
  "ien</w>": 6134,
  "numbers</w>": 6135,
  "All": 6136,
  "olo</w>": 6137,
  "lla</w>": 6138,
  "gewesen</w>": 6139,
  "Mie": 6140,
  "filter</w>": 6141,
  "deutsche</w>": 6142,
  "ec</w>": 6143,
  "expected</w>": 6144,
  "hat": 6145,
  "deep</w>": 6146,
  "opportunities</w>": 6147,
  "River</w>": 6148,
  "units</w>": 6149,
  "ann</w>": 6150,
  "ett</w>": 6151,
  "04": 6152,
  "belie": 6153,
  "Antwort</w>": 6154,
  "wichtigen</w>": 6155,
  "dit</w>": 6156,
  "usually</w>": 6157,
  "agreed</w>": 6158,
  "gesetzt</w>": 6159,
  "rement</w>": 6160,
  "15.": 6161,
  "atmosphere</w>": 6162,
  "Appar": 6163,
  "Luft</w>": 6164,
  "Lit": 6165,
  "Damen</w>": 6166,
  "privaten</w>": 6167,
  "frie": 6168,
  "gs": 6169,
  "toe</w>": 6170,
  "kung</w>": 6171,
  "heat</w>": 6172,
  "Geschle": 6173,
  "Zimmer": 6174,
  "geworden</w>": 6175,
  "refle": 6176,
  "verlei": 6177,
  "faces</w>": 6178,
  "eds</w>": 6179,
  "modernen</w>": 6180,
  "Conference</w>": 6181,
  "Mau": 6182,
  "usses</w>": 6183,
  "vorzu": 6184,
  "iniert</w>": 6185,
  "alist</w>": 6186,
  "Holy</w>": 6187,
  "Tim": 6188,
  "irt</w>": 6189,
  "Gegen": 6190,
  "mentioned</w>": 6191,
  "führer</w>": 6192,
  "thi": 6193,
  "Cho": 6194,
  "buildings</w>": 6195,
  "Quelle</w>": 6196,
  "certi": 6197,
  "anlagen</w>": 6198,
  "placed</w>": 6199,
  "aren</w>": 6200,
  "88": 6201,
  "wirtschaft</w>": 6202,
  "nungen</w>": 6203,
  "Tal": 6204,
  "dro": 6205,
  "Verkehrs": 6206,
  "erwartet</w>": 6207,
  "industri": 6208,
  "dency</w>": 6209,
  "instruments</w>": 6210,
  "Gener": 6211,
  "etten</w>": 6212,
  "Publi": 6213,
  "Public</w>": 6214,
  "Schö": 6215,
  "28.</w>": 6216,
  "stes</w>": 6217,
  "zo</w>": 6218,
  "growing</w>": 6219,
  "Mac</w>": 6220,
  "document</w>": 6221,
  "Premium</w>": 6222,
  "lack</w>": 6223,
  "comm": 6224,
  "aufen</w>": 6225,
  "Initiative</w>": 6226,
  "ED</w>": 6227,
  "fäl": 6228,
  "bers</w>": 6229,
  "digkeiten</w>": 6230,
  "Steel</w>": 6231,
  "nummer</w>": 6232,
  "Projekt": 6233,
  "Wohnzimmer</w>": 6234,
  "formen</w>": 6235,
  "spolitik</w>": 6236,
  "Fem": 6237,
  "cated</w>": 6238,
  "nit": 6239,
  "fet": 6240,
  "Anna</w>": 6241,
  "einzige</w>": 6242,
  "stei": 6243,
  "ref": 6244,
  "6.</w>": 6245,
  "balance</w>": 6246,
  "richten</w>": 6247,
  "ank</w>": 6248,
  "bestimmte</w>": 6249,
  "select</w>": 6250,
  "planning</w>": 6251,
  "Point</w>": 6252,
  "ado</w>": 6253,
  "profession": 6254,
  "Dreh": 6255,
  "Lav": 6256,
  "let": 6257,
  "Bü": 6258,
  "comments</w>": 6259,
  "wanted</w>": 6260,
  "nied": 6261,
  "Angebote</w>": 6262,
  "Stiftung</w>": 6263,
  "utter</w>": 6264,
  "reich</w>": 6265,
  "benefits</w>": 6266,
  "eyes</w>": 6267,
  "fresh</w>": 6268,
  "Vill": 6269,
  "Kno": 6270,
  "Kraft": 6271,
  "kur": 6272,
  "ständig</w>": 6273,
  "alisiert</w>": 6274,
  "sig": 6275,
  "stahl</w>": 6276,
  "article</w>": 6277,
  "everyone</w>": 6278,
  "gemeinsame</w>": 6279,
  "Air": 6280,
  "Bau</w>": 6281,
  "teur</w>": 6282,
  "büro</w>": 6283,
  "LC</w>": 6284,
  "kostenlose</w>": 6285,
  "Verordnung</w>": 6286,
  "stän": 6287,
  "chron": 6288,
  "automati": 6289,
  "richtig</w>": 6290,
  "Viele</w>": 6291,
  "spricht</w>": 6292,
  "lebende</w>": 6293,
  "Ja</w>": 6294,
  "ined</w>": 6295,
  "gerät</w>": 6296,
  "rock</w>": 6297,
  "stant</w>": 6298,
  "wear</w>": 6299,
  "öffent": 6300,
  "Dol": 6301,
  "Ireland</w>": 6302,
  "ille</w>": 6303,
  "individu": 6304,
  "Kommissar</w>": 6305,
  "tary</w>": 6306,
  "blau</w>": 6307,
  "Ga": 6308,
  "Aufenthalt</w>": 6309,
  "goes</w>": 6310,
  "Bol": 6311,
  "geschrieben</w>": 6312,
  "spring</w>": 6313,
  "middle</w>": 6314,
  "prises</w>": 6315,
  "Rö": 6316,
  "Proz": 6317,
  "mung</w>": 6318,
  "visu": 6319,
  "adju": 6320,
  "Al</w>": 6321,
  "Falls</w>": 6322,
  "prepared</w>": 6323,
  "sou": 6324,
  "sam</w>": 6325,
  "erfahren</w>": 6326,
  "technologies</w>": 6327,
  "Dim": 6328,
  "India</w>": 6329,
  "19.</w>": 6330,
  "assistance</w>": 6331,
  "mar</w>": 6332,
  "passen</w>": 6333,
  "CC": 6334,
  "theit</w>": 6335,
  "IE</w>": 6336,
  "ô": 6337,
  "Fahrzeug</w>": 6338,
  "organisation</w>": 6339,
  "zell": 6340,
  "installed</w>": 6341,
  "platform</w>": 6342,
  "kenn": 6343,
  "ollt</w>": 6344,
  "increasing</w>": 6345,
  "Die": 6346,
  "While</w>": 6347,
  "versi": 6348,
  "Kle": 6349,
  "esses</w>": 6350,
  "families</w>": 6351,
  "master</w>": 6352,
  "non": 6353,
  "Essen</w>": 6354,
  "Film": 6355,
  "nisch</w>": 6356,
  "speak</w>": 6357,
  "98": 6358,
  "seems</w>": 6359,
  "Park": 6360,
  "versuchen</w>": 6361,
  "ward</w>": 6362,
  "Lot": 6363,
  "Thus</w>": 6364,
  "aner</w>": 6365,
  "Add</w>": 6366,
  "About</w>": 6367,
  "Net</w>": 6368,
  "elling</w>": 6369,
  "Audi": 6370,
  "Wol": 6371,
  "Behörden</w>": 6372,
  "Kategorien</w>": 6373,
  "Kind</w>": 6374,
  "formation</w>": 6375,
  "recently</w>": 6376,
  "calls</w>": 6377,
  "ands</w>": 6378,
  "mie</w>": 6379,
  "Lebens</w>": 6380,
  "founded</w>": 6381,
  "VC</w>": 6382,
  "Mallorca</w>": 6383,
  "Affairs</w>": 6384,
  "thodo": 6385,
  "Schule</w>": 6386,
  "behalten</w>": 6387,
  "cies</w>": 6388,
  "Bö": 6389,
  "According</w>": 6390,
  "Haus": 6391,
  "Servi": 6392,
  "fördern</w>": 6393,
  "eil</w>": 6394,
  "contract</w>": 6395,
  "Presi": 6396,
  "24.</w>": 6397,
  "entsprechend</w>": 6398,
  "running</w>": 6399,
  "Segel": 6400,
  "Honduras</w>": 6401,
  "giving</w>": 6402,
  "hl</w>": 6403,
  "d.</w>": 6404,
  "wed</w>": 6405,
  "bes</w>": 6406,
  "dining</w>": 6407,
  "stab": 6408,
  "story</w>": 6409,
  "21.</w>": 6410,
  "Werk</w>": 6411,
  "fts</w>": 6412,
  "erfolgreich</w>": 6413,
  "haus": 6414,
  "barer</w>": 6415,
  "Roman</w>": 6416,
  "are": 6417,
  "7.</w>": 6418,
  "Produktions": 6419,
  "yourself</w>": 6420,
  "Innov": 6421,
  "maschinen</w>": 6422,
  "Erklärung</w>": 6423,
  "ately</w>": 6424,
  "Komple": 6425,
  "nat": 6426,
  "bs": 6427,
  "Professi": 6428,
  "Vergleich</w>": 6429,
  "cot": 6430,
  "email</w>": 6431,
  "Mes": 6432,
  "Mond": 6433,
  "mainly</w>": 6434,
  "physical</w>": 6435,
  "Mexico</w>": 6436,
  "68": 6437,
  "beyond</w>": 6438,
  "shopping</w>": 6439,
  "occ": 6440,
  "route</w>": 6441,
  "Bereiche</w>": 6442,
  "oper": 6443,
  "Image</w>": 6444,
  "proposals</w>": 6445,
  "kti": 6446,
  "Kab": 6447,
  "une</w>": 6448,
  "bath": 6449,
  "Policy</w>": 6450,
  "writing</w>": 6451,
  "Bes": 6452,
  "automatisch</w>": 6453,
  "xt</w>": 6454,
  "advant": 6455,
  "nungs": 6456,
  "Cro": 6457,
  "auer</w>": 6458,
  "diff": 6459,
  "produktion</w>": 6460,
  "lied</w>": 6461,
  "reisen</w>": 6462,
  "wort</w>": 6463,
  "oral</w>": 6464,
  "2.5</w>": 6465,
  "thank</w>": 6466,
  "Can</w>": 6467,
  "yacht</w>": 6468,
  "Ist</w>": 6469,
  "Eis": 6470,
  "ament</w>": 6471,
  "zierte</w>": 6472,
  "Boden</w>": 6473,
  "z.</w>": 6474,
  "Dal": 6475,
  "menten</w>": 6476,
  "vill": 6477,
  "Quar": 6478,
  "Konferenz</w>": 6479,
  "Analyse</w>": 6480,
  "bang</w>": 6481,
  "dad</w>": 6482,
  "ops</w>": 6483,
  "scheint</w>": 6484,
  "EST</w>": 6485,
  "Düsseldorf</w>": 6486,
  "Tausende</w>": 6487,
  "record</w>": 6488,
  "sischen</w>": 6489,
  "legt</w>": 6490,
  "ierung</w>": 6491,
  "artists</w>": 6492,
  "freund": 6493,
  "faith</w>": 6494,
  "father</w>": 6495,
  "59": 6496,
  "и</w>": 6497,
  "Digital</w>": 6498,
  "Daniel</w>": 6499,
  "objects</w>": 6500,
  "bilden</w>": 6501,
  "ura</w>": 6502,
  "ideas</w>": 6503,
  "CO2</w>": 6504,
  "gän": 6505,
  "Mensch</w>": 6506,
  "lost</w>": 6507,
  "gischen</w>": 6508,
  "annual</w>": 6509,
  "bikini</w>": 6510,
  "unt</w>": 6511,
  "desi": 6512,
  "Gesundheits": 6513,
  "Light</w>": 6514,
  "chern</w>": 6515,
  "applied</w>": 6516,
  "Hen": 6517,
  "ös": 6518,
  "ku</w>": 6519,
  "dus</w>": 6520,
  "books</w>": 6521,
  "darum</w>": 6522,
  "gten</w>": 6523,
  "CA</w>": 6524,
  "king": 6525,
  "Nat": 6526,
  "approximately</w>": 6527,
  "s.": 6528,
  "Index</w>": 6529,
  "Dem": 6530,
  "ans": 6531,
  "ç": 6532,
  "itation</w>": 6533,
  "Ausbildung</w>": 6534,
  "Sit": 6535,
  "Materialien</w>": 6536,
  "ros</w>": 6537,
  "Männ": 6538,
  "Innen</w>": 6539,
  "radi": 6540,
  "Kri": 6541,
  "dlich</w>": 6542,
  "Father</w>": 6543,
  "air": 6544,
  "arch": 6545,
  "quar": 6546,
  "stati": 6547,
  "völlig</w>": 6548,
  "Lag": 6549,
  "eher</w>": 6550,
  "digung</w>": 6551,
  "oss</w>": 6552,
  "presence</w>": 6553,
  "án</w>": 6554,
  "Zerti": 6555,
  "außerdem</w>": 6556,
  "ships</w>": 6557,
  "hold</w>": 6558,
  "ards</w>": 6559,
  "heating</w>": 6560,
  "Merk": 6561,
  "arity</w>": 6562,
  "technische</w>": 6563,
  "Volks": 6564,
  "Events</w>": 6565,
  "GH": 6566,
  "fig": 6567,
  "schlüsse</w>": 6568,
  "wahr": 6569,
  "part": 6570,
  "ener</w>": 6571,
  "gische</w>": 6572,
  "Einführung</w>": 6573,
  "insurance</w>": 6574,
  "Wein</w>": 6575,
  "verkehr</w>": 6576,
  "tell</w>": 6577,
  "fand</w>": 6578,
  "happy</w>": 6579,
  "pon": 6580,
  "Patienten</w>": 6581,
  "Just</w>": 6582,
  "programmes</w>": 6583,
  "ched</w>": 6584,
  "sorgen</w>": 6585,
  "Belgium</w>": 6586,
  "glichen</w>": 6587,
  "hast</w>": 6588,
  "Fla": 6589,
  "Power": 6590,
  "Pl": 6591,
  "Eli": 6592,
  "12,": 6593,
  "seiten</w>": 6594,
  "kra": 6595,
  "Ale": 6596,
  "cards</w>": 6597,
  "erklärt</w>": 6598,
  "wn</w>": 6599,
  "cheap</w>": 6600,
  "classi": 6601,
  "stal": 6602,
  "Produkten</w>": 6603,
  "lus</w>": 6604,
  "Niederlande</w>": 6605,
  "erhältlich</w>": 6606,
  "glich</w>": 6607,
  "sig</w>": 6608,
  "inal</w>": 6609,
  "Let</w>": 6610,
  "dition</w>": 6611,
  "Herren</w>": 6612,
  "erster</w>": 6613,
  "Zürich</w>": 6614,
  "Gefahr</w>": 6615,
  "alities</w>": 6616,
  "lt": 6617,
  "court</w>": 6618,
  "Innovation</w>": 6619,
  "Maschinen</w>": 6620,
  "ico</w>": 6621,
  "tem": 6622,
  "elegan": 6623,
  "loss</w>": 6624,
  "ober": 6625,
  "reifen</w>": 6626,
  "....": 6627,
  "CON": 6628,
  "leather</w>": 6629,
  "hän": 6630,
  "erer</w>": 6631,
  "north</w>": 6632,
  "any": 6633,
  "scientific</w>": 6634,
  "dadurch</w>": 6635,
  "gram": 6636,
  "finally</w>": 6637,
  "wenige</w>": 6638,
  "Meine</w>": 6639,
  "damage</w>": 6640,
  "cleaning</w>": 6641,
  "studio</w>": 6642,
  "Kabel</w>": 6643,
  "Photo": 6644,
  "erh": 6645,
  "Ky": 6646,
  "artist</w>": 6647,
  "automatically</w>": 6648,
  "Mediterranean</w>": 6649,
  "bla": 6650,
  "atives</w>": 6651,
  "graphic</w>": 6652,
  "Moon</w>": 6653,
  "Bin": 6654,
  "window</w>": 6655,
  "DV": 6656,
  "studies</w>": 6657,
  "105</w>": 6658,
  "25.</w>": 6659,
  "sets</w>": 6660,
  "animals</w>": 6661,
  "Wettbewerb</w>": 6662,
  "�</w>": 6663,
  "tritt</w>": 6664,
  "Pend": 6665,
  "Review</w>": 6666,
  "guter</w>": 6667,
  "fit</w>": 6668,
  "Hom": 6669,
  "Teilnehmer</w>": 6670,
  "Porsche</w>": 6671,
  "released</w>": 6672,
  "strength</w>": 6673,
  "objective</w>": 6674,
  "lli": 6675,
  "Malta</w>": 6676,
  "Gast": 6677,
  "56": 6678,
  "Fire": 6679,
  "å": 6680,
  "Gelegenheit</w>": 6681,
  "Post</w>": 6682,
  "Industri": 6683,
  "Jan": 6684,
  "funds</w>": 6685,
  "Himmel</w>": 6686,
  "Alb": 6687,
  "1989</w>": 6688,
  "Haar": 6689,
  "Mus": 6690,
  "Iran</w>": 6691,
  "ffe</w>": 6692,
  "chan": 6693,
  "fte</w>": 6694,
  "werke</w>": 6695,
  "district</w>": 6696,
  "teilt</w>": 6697,
  "characterist": 6698,
  "Science</w>": 6699,
  "räume</w>": 6700,
  "conclu": 6701,
  "yl</w>": 6702,
  "10.</w>": 6703,
  "nete</w>": 6704,
  "Kopf</w>": 6705,
  "wä": 6706,
  "vorhanden</w>": 6707,
  "Til": 6708,
  "consider</w>": 6709,
  "Herr": 6710,
  "eit</w>": 6711,
  "Album</w>": 6712,
  "atures</w>": 6713,
  "Gau": 6714,
  "kennen</w>": 6715,
  "län": 6716,
  "disch</w>": 6717,
  "1991</w>": 6718,
  "fem": 6719,
  "overall</w>": 6720,
  "struction</w>": 6721,
  "playing</w>": 6722,
  "besondere</w>": 6723,
  "ree</w>": 6724,
  "Double</w>": 6725,
  "dru": 6726,
  "vehicles</w>": 6727,
  "aware</w>": 6728,
  "ou</w>": 6729,
  "arium</w>": 6730,
  "sitting</w>": 6731,
  "ometer</w>": 6732,
  "goal</w>": 6733,
  "Ansicht</w>": 6734,
  "reform</w>": 6735,
  "majority</w>": 6736,
  "Oli": 6737,
  "Kos": 6738,
  "reduced</w>": 6739,
  "vergangenen</w>": 6740,
  "nahme</w>": 6741,
  "BS</w>": 6742,
  "prakti": 6743,
  "Vin": 6744,
  "essen": 6745,
  "Dres": 6746,
  "Karl</w>": 6747,
  "ativ</w>": 6748,
  "cked</w>": 6749,
  "Ex</w>": 6750,
  "voller</w>": 6751,
  "Open": 6752,
  "weite</w>": 6753,
  "offen</w>": 6754,
  "ander": 6755,
  "Adri": 6756,
  "archit": 6757,
  "Wettbewerbs": 6758,
  "§</w>": 6759,
  "Erweiterung</w>": 6760,
  "delivered</w>": 6761,
  "ome</w>": 6762,
  "omy</w>": 6763,
  "Tie": 6764,
  "Economic</w>": 6765,
  "proof</w>": 6766,
  "vollständig</w>": 6767,
  "gon</w>": 6768,
  "Pon": 6769,
  "dul</w>": 6770,
  "Wolf</w>": 6771,
  "properties</w>": 6772,
  "Generation</w>": 6773,
  "etc.</w>": 6774,
  "elegant</w>": 6775,
  "GE</w>": 6776,
  "gekommen</w>": 6777,
  "mei": 6778,
  "Fabri": 6779,
  "fundamental</w>": 6780,
  "mean</w>": 6781,
  "Government</w>": 6782,
  "scre": 6783,
  "Bot": 6784,
  "Award</w>": 6785,
  "reference</w>": 6786,
  "ffen</w>": 6787,
  "seven</w>": 6788,
  "Königreich</w>": 6789,
  "sett": 6790,
  "historischen</w>": 6791,
  "inien</w>": 6792,
  "â": 6793,
  "02": 6794,
  "cast</w>": 6795,
  "Chr": 6796,
  "pre</w>": 6797,
  "Wand": 6798,
  "bald</w>": 6799,
  "derung</w>": 6800,
  "15.</w>": 6801,
  "Click</w>": 6802,
  "kers</w>": 6803,
  "partic": 6804,
  "cker": 6805,
  "welt</w>": 6806,
  "logi": 6807,
  "Vorschriften</w>": 6808,
  "Pack": 6809,
  "maßnahmen</w>": 6810,
  "Zeitpunkt</w>": 6811,
  "river</w>": 6812,
  "Einrichtungen</w>": 6813,
  "gei": 6814,
  "grade</w>": 6815,
  "alternative</w>": 6816,
  "ater": 6817,
  "prevent</w>": 6818,
  "Fru": 6819,
  "defin": 6820,
  "zeichen</w>": 6821,
  "aktivi": 6822,
  "manufac": 6823,
  "Zy": 6824,
  "balcony</w>": 6825,
  "plastic</w>": 6826,
  "consumption</w>": 6827,
  "Australia</w>": 6828,
  "genutzt</w>": 6829,
  "dialogue</w>": 6830,
  "BA": 6831,
  "King</w>": 6832,
  "Auto": 6833,
  "itali": 6834,
  "fas": 6835,
  "kü": 6836,
  "Tari": 6837,
  "utes</w>": 6838,
  "umfasst</w>": 6839,
  "schwe": 6840,
  "cell</w>": 6841,
  "Schweden</w>": 6842,
  "Binnen": 6843,
  "43": 6844,
  "Glas</w>": 6845,
  "genen</w>": 6846,
  "lag": 6847,
  "verwen": 6848,
  "Hinblick</w>": 6849,
  "signs</w>": 6850,
  "DN": 6851,
  "tom": 6852,
  "ailed</w>": 6853,
  "won</w>": 6854,
  "categories</w>": 6855,
  "tatsächlich</w>": 6856,
  "Handels": 6857,
  "ih": 6858,
  "Tatsache</w>": 6859,
  "practi": 6860,
  "soft</w>": 6861,
  "nik</w>": 6862,
  "asy</w>": 6863,
  "purchase</w>": 6864,
  "unterschiedlichen</w>": 6865,
  "answer</w>": 6866,
  "hau": 6867,
  "Cra": 6868,
  "uner": 6869,
  "protect</w>": 6870,
  "cycle</w>": 6871,
  "stä": 6872,
  "lieren</w>": 6873,
  "protected</w>": 6874,
  "satellite</w>": 6875,
  "07": 6876,
  "ode</w>": 6877,
  "Spezi": 6878,
  "nahmen</w>": 6879,
  "Andreas</w>": 6880,
  "Art": 6881,
  "igte</w>": 6882,
  "hot": 6883,
  "ktion": 6884,
  "By": 6885,
  "waste</w>": 6886,
  "liber": 6887,
  "breite</w>": 6888,
  "linie</w>": 6889,
  "becomes</w>": 6890,
  "blick</w>": 6891,
  "Mass": 6892,
  "zunächst</w>": 6893,
  "54": 6894,
  "pli": 6895,
  "Priv": 6896,
  "leben": 6897,
  "Japanese</w>": 6898,
  "aspects</w>": 6899,
  "volume</w>": 6900,
  "Fron": 6901,
  "GPS</w>": 6902,
  "pump": 6903,
  "Werte</w>": 6904,
  "ön": 6905,
  "Abend</w>": 6906,
  "commitment</w>": 6907,
  "Haushalts": 6908,
  "decisions</w>": 6909,
  "unk": 6910,
  "12.</w>": 6911,
  "ständige</w>": 6912,
  "comfort</w>": 6913,
  "arische</w>": 6914,
  "ects</w>": 6915,
  "omet": 6916,
  "Licht": 6917,
  "proc": 6918,
  "update</w>": 6919,
  "Mand": 6920,
  "sl": 6921,
  "mierung</w>": 6922,
  "eye</w>": 6923,
  "oni</w>": 6924,
  "gruppen</w>": 6925,
  "ior</w>": 6926,
  "fal": 6927,
  "Enter": 6928,
  "Wahrheit</w>": 6929,
  "Its</w>": 6930,
  "Wetter": 6931,
  "warum</w>": 6932,
  "orig": 6933,
  "detailed</w>": 6934,
  "Pun": 6935,
  "moderne</w>": 6936,
  "220</w>": 6937,
  "entsprechenden</w>": 6938,
  "mode</w>": 6939,
  "--": 6940,
  "Itali": 6941,
  "Kapaz": 6942,
  "Wh": 6943,
  "store</w>": 6944,
  "erischen</w>": 6945,
  "tten": 6946,
  "voice</w>": 6947,
  "fizierung</w>": 6948,
  "Vertreter</w>": 6949,
  "16.</w>": 6950,
  "although</w>": 6951,
  "negotiations</w>": 6952,
  "nte</w>": 6953,
  "Joseph</w>": 6954,
  "Ep": 6955,
  "Hot": 6956,
  "techni": 6957,
  "Safety</w>": 6958,
  "Bike</w>": 6959,
  "Tür": 6960,
  "erin</w>": 6961,
  "Members</w>": 6962,
  "Preisen</w>": 6963,
  "regulation</w>": 6964,
  "pair</w>": 6965,
  "accom": 6966,
  "bestimmt</w>": 6967,
  "gelten</w>": 6968,
  "fern</w>": 6969,
  "Familien": 6970,
  "Aktu": 6971,
  "tile</w>": 6972,
  "ehr": 6973,
  "sum</w>": 6974,
  "ssen</w>": 6975,
  "Praxis</w>": 6976,
  "umin": 6977,
  "Gor": 6978,
  "schrift</w>": 6979,
  "Most</w>": 6980,
  "Brü": 6981,
  "SP</w>": 6982,
  "schau</w>": 6983,
  "supports</w>": 6984,
  "Werke</w>": 6985,
  "ath</w>": 6986,
  "SW": 6987,
  "aller": 6988,
  "Travel</w>": 6989,
  "Bewegung</w>": 6990,
  "fur</w>": 6991,
  "languages</w>": 6992,
  "Abkommen</w>": 6993,
  "Ausdruck</w>": 6994,
  "eur</w>": 6995,
  "TS": 6996,
  "eby</w>": 6997,
  "genannt</w>": 6998,
  "zustellen</w>": 6999,
  "zung</w>": 7000,
  "spr": 7001,
  "tree</w>": 7002,
  "defined</w>": 7003,
  "gegen": 7004,
  "machte</w>": 7005,
  "Detail</w>": 7006,
  "alogue</w>": 7007,
  "kurz</w>": 7008,
  "mos": 7009,
  "Frank</w>": 7010,
  "trägt</w>": 7011,
  "Prov": 7012,
  "mehreren</w>": 7013,
  "eva</w>": 7014,
  "Kids</w>": 7015,
  "Besch": 7016,
  "Fein": 7017,
  "exter": 7018,
  "Such": 7019,
  "Hall</w>": 7020,
  "folgt</w>": 7021,
  "ppen</w>": 7022,
  "Kombination</w>": 7023,
  "pump</w>": 7024,
  "correspon": 7025,
  "issen</w>": 7026,
  "komplett</w>": 7027,
  "Köni": 7028,
  "visits</w>": 7029,
  "bestehen</w>": 7030,
  "schön</w>": 7031,
  "ins": 7032,
  "Schnitt": 7033,
  "dient</w>": 7034,
  "dische</w>": 7035,
  "not": 7036,
  "ically</w>": 7037,
  "dienst</w>": 7038,
  "trieb</w>": 7039,
  "nt</w>": 7040,
  "relationship</w>": 7041,
  "Sommer": 7042,
  "soziale</w>": 7043,
  "fertigt</w>": 7044,
  "grad</w>": 7045,
  "programm</w>": 7046,
  "nation</w>": 7047,
  "beginnt</w>": 7048,
  "typical</w>": 7049,
  "extension</w>": 7050,
  "wirken</w>": 7051,
  "Islands</w>": 7052,
  "13.": 7053,
  "enable</w>": 7054,
  "schwer</w>": 7055,
  "challenges</w>": 7056,
  "zogen</w>": 7057,
  "FT": 7058,
  "gros": 7059,
  "Porto</w>": 7060,
  "log</w>": 7061,
  "edge</w>": 7062,
  "truth</w>": 7063,
  "sand": 7064,
  "Round</w>": 7065,
  "compared</w>": 7066,
  "Schi": 7067,
  "filled</w>": 7068,
  "Mc": 7069,
  "experts</w>": 7070,
  "dry</w>": 7071,
  "worth</w>": 7072,
  "powerful</w>": 7073,
  "cf": 7074,
  "schließlich</w>": 7075,
  "este</w>": 7076,
  "certainly</w>": 7077,
  "appear</w>": 7078,
  "Bundes": 7079,
  "Model</w>": 7080,
  "Schl": 7081,
  "probably</w>": 7082,
  "sicht</w>": 7083,
  "foot</w>": 7084,
  "gio</w>": 7085,
  "compet": 7086,
  "aufzu": 7087,
  "fall": 7088,
  "Area</w>": 7089,
  "fordern</w>": 7090,
  "Alt": 7091,
  "Egypt</w>": 7092,
  "Full</w>": 7093,
  "laufen</w>": 7094,
  "ardi": 7095,
  "japanische</w>": 7096,
  "ader</w>": 7097,
  "camera</w>": 7098,
  "Kommunikation</w>": 7099,
  "greifen</w>": 7100,
  "Eigen": 7101,
  "initi": 7102,
  "response</w>": 7103,
  "57": 7104,
  "leg": 7105,
  "Yesterday</w>": 7106,
  "participants</w>": 7107,
  "ligen</w>": 7108,
  "pot</w>": 7109,
  "Moun": 7110,
  "regular</w>": 7111,
  "io</w>": 7112,
  "accept</w>": 7113,
  "Stat": 7114,
  "button</w>": 7115,
  "zusätzliche</w>": 7116,
  "promote</w>": 7117,
  "Support</w>": 7118,
  "liste</w>": 7119,
  "followed</w>": 7120,
  "verantwortlich</w>": 7121,
  "ía</w>": 7122,
  "500": 7123,
  "enh": 7124,
  "mountains</w>": 7125,
  "Ori": 7126,
  "gor": 7127,
  "Elektro": 7128,
  "Mail": 7129,
  "u.</w>": 7130,
  "weder</w>": 7131,
  "offen": 7132,
  "Vel": 7133,
  "Pot": 7134,
  "abri": 7135,
  "disp": 7136,
  "fiziert</w>": 7137,
  "Fern": 7138,
  "tivi": 7139,
  "ci</w>": 7140,
  "sty</w>": 7141,
  "Fort": 7142,
  "cro": 7143,
  "otel</w>": 7144,
  "gek": 7145,
  "sucht</w>": 7146,
  "sexual</w>": 7147,
  "ik</w>": 7148,
  "died</w>": 7149,
  "Provinz</w>": 7150,
  "heard</w>": 7151,
  "konstru": 7152,
  "eme</w>": 7153,
  "associated</w>": 7154,
  "ult</w>": 7155,
  "intensi": 7156,
  "tionally</w>": 7157,
  "Rie": 7158,
  "civil</w>": 7159,
  "Tier": 7160,
  "revolution": 7161,
  "cling</w>": 7162,
  "ppel</w>": 7163,
  "thy</w>": 7164,
  "isa</w>": 7165,
  "carry</w>": 7166,
  "marketing</w>": 7167,
  "Source</w>": 7168,
  "ua</w>": 7169,
  "Belgien</w>": 7170,
  "Prüf": 7171,
  "Prüfung</w>": 7172,
  "Kenn": 7173,
  "behalf</w>": 7174,
  "Wege</w>": 7175,
  "Folge</w>": 7176,
  "Luxem": 7177,
  "jo</w>": 7178,
  "correc": 7179,
  "Fällen</w>": 7180,
  "Action</w>": 7181,
  "Letz": 7182,
  "mitted</w>": 7183,
  "Dollar</w>": 7184,
  "glob": 7185,
  "ont</w>": 7186,
  "plans</w>": 7187,
  "Nun</w>": 7188,
  "Boden": 7189,
  "Institutionen</w>": 7190,
  "gesp": 7191,
  "dert</w>": 7192,
  "tie</w>": 7193,
  "Strat": 7194,
  "Because</w>": 7195,
  "darunter</w>": 7196,
  "minimum</w>": 7197,
  "Christus</w>": 7198,
  "Project</w>": 7199,
  "otive</w>": 7200,
  "ris</w>": 7201,
  "semin": 7202,
  "satis": 7203,
  "duc": 7204,
  "sicht": 7205,
  "betrifft</w>": 7206,
  "omi": 7207,
  "skirt</w>": 7208,
  "äch": 7209,
  "avoid</w>": 7210,
  "cting</w>": 7211,
  "Änderung</w>": 7212,
  "Wirkung</w>": 7213,
  "wirtschaf": 7214,
  "★</w>": 7215,
  "ó</w>": 7216,
  "Wahr": 7217,
  "Lang": 7218,
  "Veröffent": 7219,
  "category</w>": 7220,
  "Krise</w>": 7221,
  "science</w>": 7222,
  "Anlagen</w>": 7223,
  "Dialog</w>": 7224,
  "shipping</w>": 7225,
  "Städte</w>": 7226,
  "Sprachen</w>": 7227,
  "Studie</w>": 7228,
  "item</w>": 7229,
  "farm</w>": 7230,
  "innovation</w>": 7231,
  "species</w>": 7232,
  "entspricht</w>": 7233,
  "agree</w>": 7234,
  "Strom": 7235,
  "zt</w>": 7236,
  "Finale</w>": 7237,
  "Royal</w>": 7238,
  "Cup</w>": 7239,
  "require</w>": 7240,
  "14.": 7241,
  "Lager</w>": 7242,
  "Holz</w>": 7243,
  "bein": 7244,
  "description</w>": 7245,
  "Facebook</w>": 7246,
  "sur</w>": 7247,
  "spielt</w>": 7248,
  "→</w>": 7249,
  "Netzwerk</w>": 7250,
  "xen</w>": 7251,
  "66": 7252,
  "Salvador</w>": 7253,
  "wonderful</w>": 7254,
  "Landwirtschaft</w>": 7255,
  "Anlage</w>": 7256,
  "obwohl</w>": 7257,
  "ased</w>": 7258,
  "cell": 7259,
  "außerhalb</w>": 7260,
  "quanti": 7261,
  "Lich": 7262,
  "gewählt</w>": 7263,
  "ziel": 7264,
  "ican</w>": 7265,
  "ähn": 7266,
  "Bürger": 7267,
  "ländern</w>": 7268,
  "Öl": 7269,
  "CC</w>": 7270,
  "Mr.</w>": 7271,
  "Geschwindigkeit</w>": 7272,
  "prise</w>": 7273,
  "1,5</w>": 7274,
  "Reit": 7275,
  "gia</w>": 7276,
  "target</w>": 7277,
  "practical</w>": 7278,
  "minal</w>": 7279,
  "zudem</w>": 7280,
  "Cab": 7281,
  "risks</w>": 7282,
  "swal": 7283,
  "Cham": 7284,
  "historic</w>": 7285,
  "dal</w>": 7286,
  "Tos": 7287,
  "habit": 7288,
  "Bis</w>": 7289,
  "Note</w>": 7290,
  "lock</w>": 7291,
  "shape</w>": 7292,
  "18.</w>": 7293,
  "swi": 7294,
  "Len": 7295,
  "aph": 7296,
  "ular</w>": 7297,
  "Valencia</w>": 7298,
  "requires</w>": 7299,
  "mother</w>": 7300,
  "infor": 7301,
  "einrichtungen</w>": 7302,
  "reless</w>": 7303,
  "turned</w>": 7304,
  "kel</w>": 7305,
  "desk</w>": 7306,
  "Will": 7307,
  "Health</w>": 7308,
  "platte</w>": 7309,
  "Guide</w>": 7310,
  "programs</w>": 7311,
  "cement</w>": 7312,
  "Datum</w>": 7313,
  "liegenden</w>": 7314,
  "Tap": 7315,
  "Ab</w>": 7316,
  "führte</w>": 7317,
  "persönlichen</w>": 7318,
  "registered</w>": 7319,
  "sicherheit</w>": 7320,
  "dark</w>": 7321,
  "contribution</w>": 7322,
  "Franzö": 7323,
  "kap": 7324,
  "Haut</w>": 7325,
  "lauf</w>": 7326,
  "äd": 7327,
  "butes</w>": 7328,
  "trag</w>": 7329,
  "Fenster</w>": 7330,
  "tiveness</w>": 7331,
  "Fraktion</w>": 7332,
  "tei": 7333,
  "Verhandlungen</w>": 7334,
  "Gefühl</w>": 7335,
  "gegründet</w>": 7336,
  "advantage</w>": 7337,
  "nachdem</w>": 7338,
  "xes</w>": 7339,
  "junge</w>": 7340,
  "hil": 7341,
  "girls</w>": 7342,
  "wissen": 7343,
  "sätze</w>": 7344,
  "Liber": 7345,
  "geräte</w>": 7346,
  "alley</w>": 7347,
  "Soft": 7348,
  "Foreign</w>": 7349,
  "inklusive</w>": 7350,
  "halt</w>": 7351,
  "rule</w>": 7352,
  "Kommentare</w>": 7353,
  "Professor</w>": 7354,
  "360</w>": 7355,
  "Why</w>": 7356,
  "getting</w>": 7357,
  "Budapest</w>": 7358,
  "effek": 7359,
  "58": 7360,
  "rain</w>": 7361,
  "ao</w>": 7362,
  "Moment</w>": 7363,
  "genannten</w>": 7364,
  "understanding</w>": 7365,
  "tter": 7366,
  "approved</w>": 7367,
  "lick</w>": 7368,
  "yellow</w>": 7369,
  "strap": 7370,
  "äuse</w>": 7371,
  "particip": 7372,
  "Reisen</w>": 7373,
  "lag</w>": 7374,
  "gewicht</w>": 7375,
  "memory</w>": 7376,
  "principles</w>": 7377,
  "forces</w>": 7378,
  "Verkehr</w>": 7379,
  "Rica</w>": 7380,
  "tight</w>": 7381,
  "Modelle</w>": 7382,
  "amo</w>": 7383,
  "ele</w>": 7384,
  "task</w>": 7385,
  "Fotogra": 7386,
  "Basel</w>": 7387,
  "wie": 7388,
  "hergestellt</w>": 7389,
  "Las</w>": 7390,
  "Stunde</w>": 7391,
  "fi</w>": 7392,
  "Ir": 7393,
  "Karten</w>": 7394,
  "solchen</w>": 7395,
  "sometimes</w>": 7396,
  "gate</w>": 7397,
  "influence</w>": 7398,
  "diag": 7399,
  "Gem": 7400,
  "fabri": 7401,
  "tourist</w>": 7402,
  "Fun": 7403,
  "Personal</w>": 7404,
  "older</w>": 7405,
  "ausgemacht</w>": 7406,
  "09": 7407,
  "21": 7408,
  "Fit": 7409,
  "director</w>": 7410,
  "Stoff": 7411,
  "zeug": 7412,
  "exclu": 7413,
  "fruit</w>": 7414,
  "sieben</w>": 7415,
  "dauer</w>": 7416,
  "hall</w>": 7417,
  "Castle</w>": 7418,
  "milk</w>": 7419,
  "aux</w>": 7420,
  "schen": 7421,
  "H.</w>": 7422,
  "sers</w>": 7423,
  "caused</w>": 7424,
  "eig": 7425,
  "77": 7426,
  "Mercedes</w>": 7427,
  "infrastructure</w>": 7428,
  "dt</w>": 7429,
  "mitten</w>": 7430,
  "öffentliche</w>": 7431,
  "Tod</w>": 7432,
  "GT</w>": 7433,
  "completed</w>": 7434,
  "Objekte</w>": 7435,
  "lands</w>": 7436,
  "101</w>": 7437,
  "tende</w>": 7438,
  "µ": 7439,
  "saying</w>": 7440,
  "served</w>": 7441,
  "object</w>": 7442,
  "acious</w>": 7443,
  "Mrs</w>": 7444,
  "monster</w>": 7445,
  "structures</w>": 7446,
  "background</w>": 7447,
  "13.</w>": 7448,
  "zahlreichen</w>": 7449,
  "gy": 7450,
  "450</w>": 7451,
  "Summer</w>": 7452,
  "kurze</w>": 7453,
  "reduction</w>": 7454,
  "instrument</w>": 7455,
  "Jac": 7456,
  "genug</w>": 7457,
  "sla": 7458,
  "ffer</w>": 7459,
  "experiences</w>": 7460,
  "continued</w>": 7461,
  "alisation</w>": 7462,
  "Sehr</w>": 7463,
  "Kir": 7464,
  "17.</w>": 7465,
  "Plu": 7466,
  "Neu</w>": 7467,
  "Part</w>": 7468,
  "benötigen</w>": 7469,
  "gele": 7470,
  "Pak": 7471,
  "Tou": 7472,
  "marks</w>": 7473,
  "bran": 7474,
  "14.</w>": 7475,
  "motion</w>": 7476,
  "gos</w>": 7477,
  "SH": 7478,
  "positions</w>": 7479,
  "Presse": 7480,
  "Cir": 7481,
  "ange</w>": 7482,
  "ancient</w>": 7483,
  "patients</w>": 7484,
  "auto</w>": 7485,
  "sz": 7486,
  "Zeitraum</w>": 7487,
  "Nationen</w>": 7488,
  "Sä": 7489,
  "Industrie": 7490,
  "driver</w>": 7491,
  "elli</w>": 7492,
  "amps</w>": 7493,
  "Kamera</w>": 7494,
  "vieren</w>": 7495,
  "Gam": 7496,
  "Med": 7497,
  "Play": 7498,
  "Baum": 7499,
  "unde</w>": 7500,
  "mas</w>": 7501,
  "nights</w>": 7502,
  "Formen</w>": 7503,
  "Idee</w>": 7504,
  "banks</w>": 7505,
  "Schuhe</w>": 7506,
  "lokalen</w>": 7507,
  "standing</w>": 7508,
  "Work": 7509,
  "religious</w>": 7510,
  "gelegen</w>": 7511,
  "｜</w>": 7512,
  "kraft</w>": 7513,
  "defini": 7514,
  "8.</w>": 7515,
  "dens</w>": 7516,
  "igt</w>": 7517,
  "schung</w>": 7518,
  "Performance</w>": 7519,
  "furniture</w>": 7520,
  "anders</w>": 7521,
  "Rub": 7522,
  "play": 7523,
  "Atmosphäre</w>": 7524,
  "told</w>": 7525,
  "GO</w>": 7526,
  "gleiche</w>": 7527,
  "Nachricht</w>": 7528,
  "sation</w>": 7529,
  "tur</w>": 7530,
  "kamen</w>": 7531,
  "EB": 7532,
  "las</w>": 7533,
  "yers</w>": 7534,
  "sitz</w>": 7535,
  "häufig</w>": 7536,
  "ints</w>": 7537,
  "Mont": 7538,
  "UND</w>": 7539,
  "credit</w>": 7540,
  "schlagen</w>": 7541,
  "Entfernung</w>": 7542,
  "funding</w>": 7543,
  "west": 7544,
  "acks</w>": 7545,
  "Gerät</w>": 7546,
  "correct</w>": 7547,
  "PG</w>": 7548,
  "dv": 7549,
  "Tiere</w>": 7550,
  "15,": 7551,
  "ament": 7552,
  "Straßen</w>": 7553,
  "Zwei</w>": 7554,
  "stances</w>": 7555,
  "getan</w>": 7556,
  "Di</w>": 7557,
  "explo": 7558,
  "Min</w>": 7559,
  "shes</w>": 7560,
  "wollte</w>": 7561,
  "operations</w>": 7562,
  "wet</w>": 7563,
  "Denmark</w>": 7564,
  "Sinne</w>": 7565,
  "Öffentlichkeit</w>": 7566,
  "eli": 7567,
  "Tun": 7568,
  "neten</w>": 7569,
  "Zwischen": 7570,
  "PI</w>": 7571,
  "Krieg</w>": 7572,
  "Freiheit</w>": 7573,
  "character</w>": 7574,
  "zü": 7575,
  "Fon": 7576,
  "Gas</w>": 7577,
  "Kn": 7578,
  "Teil": 7579,
  "parti": 7580,
  "comb": 7581,
  "People</w>": 7582,
  "sage</w>": 7583,
  "begann</w>": 7584,
  "lea": 7585,
  "LS</w>": 7586,
  "Ve": 7587,
  "ctive</w>": 7588,
  "lo</w>": 7589,
  "entfernen</w>": 7590,
  "Nur": 7591,
  "tured</w>": 7592,
  "verse</w>": 7593,
  "angenommen</w>": 7594,
  "anything</w>": 7595,
  "schrei": 7596,
  "gkeit</w>": 7597,
  "vie": 7598,
  "14,": 7599,
  "Ke": 7600,
  "introduced</w>": 7601,
  "trees</w>": 7602,
  "rapp": 7603,
  "tigkeiten</w>": 7604,
  "flash": 7605,
  "PH": 7606,
  "nächste</w>": 7607,
  "antie</w>": 7608,
  "rechten</w>": 7609,
  "chance</w>": 7610,
  "eres</w>": 7611,
  "FA": 7612,
  "procedures</w>": 7613,
  "Resort</w>": 7614,
  "Immobilien</w>": 7615,
  "advanced</w>": 7616,
  "doors</w>": 7617,
  "photo": 7618,
  "R.</w>": 7619,
  "erische</w>": 7620,
  "fassen</w>": 7621,
  "aktuelle</w>": 7622,
  "franzö": 7623,
  "erwarten</w>": 7624,
  "Store</w>": 7625,
  "20.": 7626,
  "stitute</w>": 7627,
  "rän": 7628,
  "rück": 7629,
  "kol": 7630,
  "Technologien</w>": 7631,
  "ple": 7632,
  "movie</w>": 7633,
  "munici": 7634,
  "Nord</w>": 7635,
  "ischer</w>": 7636,
  "dium</w>": 7637,
  "Vom</w>": 7638,
  "stal</w>": 7639,
  "nische</w>": 7640,
  "Kommentar</w>": 7641,
  "mix</w>": 7642,
  "Wohnungen</w>": 7643,
  "Hintergrund</w>": 7644,
  "battery</w>": 7645,
  "Asian</w>": 7646,
  "taste</w>": 7647,
  "Women</w>": 7648,
  "lake</w>": 7649,
  "Bru": 7650,
  "Deutschen</w>": 7651,
  "liter": 7652,
  "zut": 7653,
  "Bul": 7654,
  "zierten</w>": 7655,
  "Fir": 7656,
  "bigen</w>": 7657,
  "ending</w>": 7658,
  "ax": 7659,
  "Shirt</w>": 7660,
  "Training</w>": 7661,
  "monitoring</w>": 7662,
  "atik</w>": 7663,
  "Les</w>": 7664,
  "230</w>": 7665,
  "dres": 7666,
  "Fuß</w>": 7667,
  "mini</w>": 7668,
  "spann": 7669,
  "Statistik</w>": 7670,
  "block</w>": 7671,
  "creating</w>": 7672,
  "system": 7673,
  "Lap": 7674,
  "ising</w>": 7675,
  "Mün": 7676,
  "Cos": 7677,
  "Farm</w>": 7678,
  "degree</w>": 7679,
  "termin": 7680,
  "exist": 7681,
  "xis</w>": 7682,
  "articles</w>": 7683,
  "Kilometer</w>": 7684,
  "Osten</w>": 7685,
  "metho": 7686,
  "Middle</w>": 7687,
  "Ressourcen</w>": 7688,
  "teri": 7689,
  "blatt</w>": 7690,
  "22.</w>": 7691,
  "aktiv</w>": 7692,
  "Organisationen</w>": 7693,
  "Pic": 7694,
  "Cross</w>": 7695,
  "Standard": 7696,
  "Where</w>": 7697,
  "kri": 7698,
  "Zeich": 7699,
  "Fas": 7700,
  "Dil": 7701,
  "instru": 7702,
  "zierung</w>": 7703,
  "Flexi": 7704,
  "girlfriend</w>": 7705,
  "erenden</w>": 7706,
  "derte</w>": 7707,
  "78": 7708,
  "Medical</w>": 7709,
  "Nutzer</w>": 7710,
  "List</w>": 7711,
  "weg": 7712,
  "kit</w>": 7713,
  "combined</w>": 7714,
  "Sec": 7715,
  "Span": 7716,
  "Monte</w>": 7717,
  "richtige</w>": 7718,
  "Grenzen</w>": 7719,
  "Aufgaben</w>": 7720,
  "gers</w>": 7721,
  "Greek</w>": 7722,
  "visible</w>": 7723,
  "Theater</w>": 7724,
  "pos": 7725,
  "noti": 7726,
  "lösen</w>": 7727,
  "Warum</w>": 7728,
  "qual": 7729,
  "profile</w>": 7730,
  "europ": 7731,
  "Spa": 7732,
  "erfüllen</w>": 7733,
  "16.": 7734,
  "Drei": 7735,
  "yst": 7736,
  "zeuge</w>": 7737,
  "dienen</w>": 7738,
  "labour</w>": 7739,
  "präsentiert</w>": 7740,
  "Salzburg</w>": 7741,
  "Instrument</w>": 7742,
  "qualität</w>": 7743,
  "Sab": 7744,
  "cells</w>": 7745,
  "element</w>": 7746,
  "plate</w>": 7747,
  "sozi": 7748,
  "ahl</w>": 7749,
  "AA</w>": 7750,
  "host</w>": 7751,
  "Hon": 7752,
  "Ausstattung</w>": 7753,
  "llen</w>": 7754,
  "vac": 7755,
  "bus": 7756,
  "Tä": 7757,
  "Refer": 7758,
  "Menschenrechte</w>": 7759,
  "ered</w>": 7760,
  "cold</w>": 7761,
  "Schei": 7762,
  "besch": 7763,
  "oph": 7764,
  "länder</w>": 7765,
  "erweiter": 7766,
  "Übersicht</w>": 7767,
  "nel</w>": 7768,
  "ily</w>": 7769,
  "Diesel</w>": 7770,
  "eo</w>": 7771,
  "disease</w>": 7772,
  "ital": 7773,
  "fishing</w>": 7774,
  "Konzept</w>": 7775,
  "Herausforderungen</w>": 7776,
  "för": 7777,
  "visual</w>": 7778,
  "discussion</w>": 7779,
  "flüge</w>": 7780,
  "kul": 7781,
  "concerns</w>": 7782,
  "decken</w>": 7783,
  "Agre": 7784,
  "lers</w>": 7785,
  "Herz": 7786,
  "Dritt": 7787,
  "General": 7788,
  "Repar": 7789,
  "verkauft</w>": 7790,
  "03": 7791,
  "ook": 7792,
  "leid</w>": 7793,
  "soci": 7794,
  "Physi": 7795,
  "64": 7796,
  "Nutz": 7797,
  "Evangel": 7798,
  "üsse</w>": 7799,
  "App</w>": 7800,
  "lit</w>": 7801,
  "stability</w>": 7802,
  "arischen</w>": 7803,
  "Trade</w>": 7804,
  "dank</w>": 7805,
  "lebt</w>": 7806,
  "ž": 7807,
  "bericht</w>": 7808,
  "Frieden</w>": 7809,
  "112</w>": 7810,
  "destination</w>": 7811,
  "Dur": 7812,
  "Vergangenheit</w>": 7813,
  "improved</w>": 7814,
  "alization</w>": 7815,
  "hinsichtlich</w>": 7816,
  "Freunde</w>": 7817,
  "ists</w>": 7818,
  "Fax</w>": 7819,
  "Heiligen</w>": 7820,
  "Ag": 7821,
  "fying</w>": 7822,
  "Vorschläge</w>": 7823,
  "Kern": 7824,
  "Internet": 7825,
  "Rh": 7826,
  "Lesen</w>": 7827,
  "Sammlung</w>": 7828,
  "aming</w>": 7829,
  "Blumen</w>": 7830,
  "sell</w>": 7831,
  "representatives</w>": 7832,
  "FF</w>": 7833,
  "rad</w>": 7834,
  "Et": 7835,
  "glaube</w>": 7836,
  "regul": 7837,
  "freuen</w>": 7838,
  "alp": 7839,
  "architecture</w>": 7840,
  "Cont": 7841,
  "nes</w>": 7842,
  "spo": 7843,
  "concrete</w>": 7844,
  "scri": 7845,
  "beginnen</w>": 7846,
  "indic": 7847,
  "occup": 7848,
  "entri": 7849,
  "versorgung</w>": 7850,
  "teacher</w>": 7851,
  "vine</w>": 7852,
  "larger</w>": 7853,
  "Chap": 7854,
  "äh": 7855,
  "RT": 7856,
  "Although</w>": 7857,
  "Nap": 7858,
  "menu</w>": 7859,
  "Extre": 7860,
  "Jahrhunderts</w>": 7861,
  "dischen</w>": 7862,
  "Materi": 7863,
  "ez</w>": 7864,
  "Wäh": 7865,
  "roman": 7866,
  "mitt": 7867,
  "diverse</w>": 7868,
  "welt": 7869,
  "resort</w>": 7870,
  "line": 7871,
  "Ja": 7872,
  "Glob": 7873,
  "Sache</w>": 7874,
  "Tei": 7875,
  "extensive</w>": 7876,
  "tradition</w>": 7877,
  "geschlossen</w>": 7878,
  "edition</w>": 7879,
  "erende</w>": 7880,
  "sah</w>": 7881,
  "Hil": 7882,
  "Yes</w>": 7883,
  "advance</w>": 7884,
  "täglich</w>": 7885,
  "Leistungen</w>": 7886,
  "Gros": 7887,
  "emi": 7888,
  "Convention</w>": 7889,
  "vertreten</w>": 7890,
  "Mark</w>": 7891,
  "Very</w>": 7892,
  "Partei</w>": 7893,
  "negative</w>": 7894,
  "Struktur</w>": 7895,
  "Stahl": 7896,
  "erfüllt</w>": 7897,
  "Wur": 7898,
  "entlang</w>": 7899,
  "Fot": 7900,
  "Wunsch</w>": 7901,
  "eingerichtet</w>": 7902,
  "Vision</w>": 7903,
  "Breite</w>": 7904,
  "gl</w>": 7905,
  "är</w>": 7906,
  "speziell</w>": 7907,
  "multi</w>": 7908,
  "Student</w>": 7909,
  "priority</w>": 7910,
  "sierten</w>": 7911,
  "van": 7912,
  "gewährleisten</w>": 7913,
  "geöffnet</w>": 7914,
  "arrival</w>": 7915,
  "automatic</w>": 7916,
  "69": 7917,
  "dien": 7918,
  "Phase</w>": 7919,
  "BC</w>": 7920,
  "bour</w>": 7921,
  "FR</w>": 7922,
  "rah": 7923,
  "zig</w>": 7924,
  "Wit": 7925,
  "provisions</w>": 7926,
  "prec": 7927,
  "chain</w>": 7928,
  "eien</w>": 7929,
  "zur": 7930,
  "animal</w>": 7931,
  "berech": 7932,
  "bauen</w>": 7933,
  "Wolfgang</w>": 7934,
  "utions</w>": 7935,
  "Ech": 7936,
  "ned</w>": 7937,
  "alisieren</w>": 7938,
  "Regeln</w>": 7939,
  "tere</w>": 7940,
  "Berg</w>": 7941,
  "Grö": 7942,
  "E.</w>": 7943,
  "Market</w>": 7944,
  "Boot</w>": 7945,
  "Re</w>": 7946,
  "ahl": 7947,
  "acht</w>": 7948,
  "locations</w>": 7949,
  "applic": 7950,
  "flächen</w>": 7951,
  "glauben</w>": 7952,
  "Gewalt</w>": 7953,
  "tier</w>": 7954,
  "egenheiten</w>": 7955,
  "entrance</w>": 7956,
  "sufficient</w>": 7957,
  "bert</w>": 7958,
  "sungen</w>": 7959,
  "Thanks</w>": 7960,
  "Schritte</w>": 7961,
  "größ": 7962,
  "fixed</w>": 7963,
  "ends</w>": 7964,
  "weist</w>": 7965,
  "suite</w>": 7966,
  "danken</w>": 7967,
  "besonderen</w>": 7968,
  "LAN</w>": 7969,
  "ind</w>": 7970,
  "9.</w>": 7971,
  "Tel</w>": 7972,
  "break</w>": 7973,
  "fassung</w>": 7974,
  "Ausgabe</w>": 7975,
  "leisten</w>": 7976,
  "Country</w>": 7977,
  "dity</w>": 7978,
  "wert": 7979,
  "inde": 7980,
  "water": 7981,
  "Sü": 7982,
  "ring": 7983,
  "richtigen</w>": 7984,
  "Use</w>": 7985,
  "bodies</w>": 7986,
  "folge</w>": 7987,
  "Town</w>": 7988,
  "kungen</w>": 7989,
  "Tradition</w>": 7990,
  "announced</w>": 7991,
  "lay</w>": 7992,
  "Blu": 7993,
  "Peri": 7994,
  "amer</w>": 7995,
  "transparent</w>": 7996,
  "ea</w>": 7997,
  "Ersatz": 7998,
  "doctor</w>": 7999,
  "James</w>": 8000,
  "remove</w>": 8001,
  "Inhalte</w>": 8002,
  "Nokia</w>": 8003,
  "Aufmerksamkeit</w>": 8004,
  "Alles</w>": 8005,
  "erstellt</w>": 8006,
  "Š": 8007,
  "ausschließlich</w>": 8008,
  "wants</w>": 8009,
  "ure": 8010,
  "aker</w>": 8011,
  "iler</w>": 8012,
  "our": 8013,
  "Gru": 8014,
  "materi": 8015,
  "Wissen</w>": 8016,
  "Oil</w>": 8017,
  "aling</w>": 8018,
  "ät</w>": 8019,
  "Berichter": 8020,
  "controlled</w>": 8021,
  "jungen</w>": 8022,
  "tests</w>": 8023,
  "Viol": 8024,
  "schaft": 8025,
  "Gö": 8026,
  "Mun": 8027,
  "Marie</w>": 8028,
  "Square</w>": 8029,
  "mass</w>": 8030,
  "inten": 8031,
  "Single</w>": 8032,
  "braucht</w>": 8033,
  "Leit": 8034,
  "Folgen</w>": 8035,
  "schei": 8036,
  "viel": 8037,
  "Gesetz</w>": 8038,
  "ctors</w>": 8039,
  "Johann</w>": 8040,
  "läuft</w>": 8041,
  "Austrian</w>": 8042,
  "ush</w>": 8043,
  "sheet</w>": 8044,
  "engineering</w>": 8045,
  "aly": 8046,
  "ierte</w>": 8047,
  "Schwer": 8048,
  "eding</w>": 8049,
  "welcher</w>": 8050,
  "ush": 8051,
  "seln</w>": 8052,
  "Den": 8053,
  "79": 8054,
  "Engine": 8055,
  "Smo": 8056,
  "ag</w>": 8057,
  "u.a.</w>": 8058,
  "hä": 8059,
  "well": 8060,
  "entweder</w>": 8061,
  "nütz": 8062,
  "verkaufen</w>": 8063,
  "forschung</w>": 8064,
  "recommended</w>": 8065,
  "Schwei": 8066,
  "ffs</w>": 8067,
  "1.5</w>": 8068,
  "190</w>": 8069,
  "erneut</w>": 8070,
  "Hä": 8071,
  "Road</w>": 8072,
  "Verwaltung</w>": 8073,
  "schwar": 8074,
  "wach": 8075,
  "Nar": 8076,
  "pap": 8077,
  "Ring</w>": 8078,
  "3000</w>": 8079,
  "conveni": 8080,
  "berger</w>": 8081,
  "gewinnen</w>": 8082,
  "cz": 8083,
  "Pur": 8084,
  "forest</w>": 8085,
  "ease</w>": 8086,
  "karten</w>": 8087,
  "atische</w>": 8088,
  "villa</w>": 8089,
  "Brau": 8090,
  "Thailand</w>": 8091,
  "Demokratie</w>": 8092,
  "Stimme</w>": 8093,
  "Custom": 8094,
  "tin</w>": 8095,
  "Stru": 8096,
  "Mode</w>": 8097,
  "leads</w>": 8098,
  "ric</w>": 8099,
  "dos</w>": 8100,
  "GT": 8101,
  "Clas": 8102,
  "cross": 8103,
  "&apos;re</w>": 8104,
  "Food</w>": 8105,
  "exclusive</w>": 8106,
  "vacation</w>": 8107,
  "brei": 8108,
  "spiritual</w>": 8109,
  "asing</w>": 8110,
  "Antonio</w>": 8111,
  "Baby</w>": 8112,
  "eted</w>": 8113,
  "Stau": 8114,
  "touch</w>": 8115,
  "condi": 8116,
  "kaum</w>": 8117,
  "Friedrich</w>": 8118,
  "Hier": 8119,
  "irgend": 8120,
  "bilities</w>": 8121,
  "Elemente</w>": 8122,
  "Vene": 8123,
  "betreff": 8124,
  "stern</w>": 8125,
  "Global</w>": 8126,
  "ellen": 8127,
  "fs": 8128,
  "expensive</w>": 8129,
  "ris": 8130,
  "channel</w>": 8131,
  "stoffen</w>": 8132,
  "beru": 8133,
  "manage</w>": 8134,
  "terien</w>": 8135,
  "wichtiger</w>": 8136,
  "onic</w>": 8137,
  "Schaffung</w>": 8138,
  "otter</w>": 8139,
  "Agri": 8140,
  "demo": 8141,
  "ć</w>": 8142,
  "Indien</w>": 8143,
  "cin": 8144,
  "angle</w>": 8145,
  "agreements</w>": 8146,
  "Hungary</w>": 8147,
  "Leipzig</w>": 8148,
  "elte</w>": 8149,
  "participation</w>": 8150,
  "sources</w>": 8151,
  "komb": 8152,
  "democracy</w>": 8153,
  "Law</w>": 8154,
  "Sprach": 8155,
  "ätze</w>": 8156,
  "Baden</w>": 8157,
  "Ham": 8158,
  "exactly</w>": 8159,
  "erstes</w>": 8160,
  "Charles</w>": 8161,
  "Ess": 8162,
  "exten": 8163,
  "bre</w>": 8164,
  "convert</w>": 8165,
  "mission": 8166,
  "Betten</w>": 8167,
  "mag</w>": 8168,
  "tenen</w>": 8169,
  "fertig</w>": 8170,
  "Fortschritte</w>": 8171,
  "affected</w>": 8172,
  "Dist": 8173,
  "Are</w>": 8174,
  "endes</w>": 8175,
  "possi": 8176,
  "Mar</w>": 8177,
  "ände</w>": 8178,
  "hang</w>": 8179,
  "brown</w>": 8180,
  "walls</w>": 8181,
  "Franz</w>": 8182,
  "PP</w>": 8183,
  "Afrika</w>": 8184,
  "gezeigt</w>": 8185,
  "oriz": 8186,
  "Fr": 8187,
  "els": 8188,
  "Marke</w>": 8189,
  "presentation</w>": 8190,
  "Dresden</w>": 8191,
  "spaces</w>": 8192,
  "MH": 8193,
  "respective</w>": 8194,
  "bequ": 8195,
  "iel</w>": 8196,
  "einfache</w>": 8197,
  "learning</w>": 8198,
  "exhi": 8199,
  "prior</w>": 8200,
  "allgemeinen</w>": 8201,
  "Obje": 8202,
  "stets</w>": 8203,
  "benutzt</w>": 8204,
  "jan</w>": 8205,
  "tioned</w>": 8206,
  "Milliarden</w>": 8207,
  "Interessen</w>": 8208,
  "zahlung</w>": 8209,
  "acts</w>": 8210,
  "Fahrer</w>": 8211,
  "rolled</w>": 8212,
  "versteckt</w>": 8213,
  "verlassen</w>": 8214,
  "20,": 8215,
  "wu": 8216,
  "fini": 8217,
  "Portal</w>": 8218,
  "hoher</w>": 8219,
  "Anschluss</w>": 8220,
  "relation</w>": 8221,
  "Budd": 8222,
  "Diag": 8223,
  "angel": 8224,
  ".08.": 8225,
  "Parti": 8226,
  "starke</w>": 8227,
  "graphi": 8228,
  "Galaxy</w>": 8229,
  "Contin": 8230,
  "Austin</w>": 8231,
  "Table</w>": 8232,
  "SG</w>": 8233,
  "ran</w>": 8234,
  "tate</w>": 8235,
  "actual</w>": 8236,
  "Dazu</w>": 8237,
  "zel": 8238,
  "Verwaltungs": 8239,
  "Logo</w>": 8240,
  "stabili": 8241,
  "chs": 8242,
  "D.</w>": 8243,
  "agu": 8244,
  "Jer": 8245,
  "depth</w>": 8246,
  "Hot</w>": 8247,
  "Part": 8248,
  "angezeigt</w>": 8249,
  "Arbeit": 8250,
  "title</w>": 8251,
  "activ": 8252,
  "ersch": 8253,
  "Dre": 8254,
  "tigungs": 8255,
  "hinter": 8256,
  "ktive</w>": 8257,
  "67": 8258,
  "client</w>": 8259,
  "Auth": 8260,
  "aqu": 8261,
  "diejenigen</w>": 8262,
  "Cl": 8263,
  "Style</w>": 8264,
  "Schlaf": 8265,
  "figures</w>": 8266,
  "Plattform</w>": 8267,
  "Display</w>": 8268,
  "Industrial</w>": 8269,
  "organic</w>": 8270,
  "Chemi": 8271,
  "sicheren</w>": 8272,
  "Bosch</w>": 8273,
  "schn": 8274,
  "ong": 8275,
  "democratic</w>": 8276,
  "Sn": 8277,
  "sigkeit</w>": 8278,
  "Obwohl</w>": 8279,
  "Wissenschaft</w>": 8280,
  "Kapitel</w>": 8281,
  "Mig": 8282,
  "coast</w>": 8283,
  "multiple</w>": 8284,
  "experienced</w>": 8285,
  "üb": 8286,
  "wörter</w>": 8287,
  "George</w>": 8288,
  "trägen</w>": 8289,
  "Batter": 8290,
  "dan</w>": 8291,
  "Funk": 8292,
  "angeb": 8293,
  "Disp": 8294,
  "günstig": 8295,
  "schli": 8296,
  "consumer</w>": 8297,
  "schools</w>": 8298,
  "copy</w>": 8299,
  "eta</w>": 8300,
  "Solar": 8301,
  "Cul": 8302,
  "gent": 8303,
  "difference</w>": 8304,
  "29.</w>": 8305,
  "jer": 8306,
  "ith</w>": 8307,
  "bie</w>": 8308,
  "Bett</w>": 8309,
  "availability</w>": 8310,
  "Space</w>": 8311,
  "patent</w>": 8312,
  "richtung</w>": 8313,
  "Kas": 8314,
  "äs": 8315,
  "ü</w>": 8316,
  "Sicht</w>": 8317,
  "Ds</w>": 8318,
  "poor</w>": 8319,
  "Bahn</w>": 8320,
  "ells</w>": 8321,
  "Christi": 8322,
  "Opti": 8323,
  "maxim": 8324,
  "Bay</w>": 8325,
  "esi": 8326,
  "Entwick": 8327,
  "hervorra": 8328,
  "deals</w>": 8329,
  "virtu": 8330,
  "deb": 8331,
  "Filme</w>": 8332,
  "castle</w>": 8333,
  "po</w>": 8334,
  "consumers</w>": 8335,
  "18.": 8336,
  "May": 8337,
  "baby</w>": 8338,
  "240</w>": 8339,
  "xi</w>": 8340,
  "Maxim": 8341,
  "lern</w>": 8342,
  "Strom</w>": 8343,
  "Keine</w>": 8344,
  "Koch": 8345,
  "strength": 8346,
  "alism</w>": 8347,
  "amt</w>": 8348,
  "Class</w>": 8349,
  "lier</w>": 8350,
  "fing</w>": 8351,
  "festival</w>": 8352,
  "Worte</w>": 8353,
  "Small</w>": 8354,
  "scape</w>": 8355,
  "Cru": 8356,
  "Assi": 8357,
  "aden</w>": 8358,
  "läu": 8359,
  "Basketball</w>": 8360,
  "trags</w>": 8361,
  "Lor": 8362,
  "origin": 8363,
  "19.": 8364,
  "owner</w>": 8365,
  "smus</w>": 8366,
  "challenge</w>": 8367,
  "üh": 8368,
  "Beau": 8369,
  "Kam": 8370,
  "geschichte</w>": 8371,
  "ulate</w>": 8372,
  "Freude</w>": 8373,
  "Feld</w>": 8374,
  "shoes</w>": 8375,
  "Academy</w>": 8376,
  "Einrichtung</w>": 8377,
  "gla": 8378,
  "kun": 8379,
  "wenigen</w>": 8380,
  "tea</w>": 8381,
  "pic": 8382,
  "bezüglich</w>": 8383,
  "manner</w>": 8384,
  "Architektur</w>": 8385,
  "Network</w>": 8386,
  "Sound</w>": 8387,
  "ema</w>": 8388,
  "statement</w>": 8389,
  "t.": 8390,
  "fee</w>": 8391,
  "decor": 8392,
  "Steu": 8393,
  "uttle</w>": 8394,
  "essed</w>": 8395,
  "Route</w>": 8396,
  "loaded</w>": 8397,
  "ost": 8398,
  "handel</w>": 8399,
  "Verpack": 8400,
  "Stahl</w>": 8401,
  "hou</w>": 8402,
  "170</w>": 8403,
  "klasse</w>": 8404,
  "Ari": 8405,
  "schauen</w>": 8406,
  "Brazil</w>": 8407,
  "Veranstaltung</w>": 8408,
  "DF": 8409,
  "optimal</w>": 8410,
  "reliable</w>": 8411,
  "Verbraucher</w>": 8412,
  "experim": 8413,
  "Vielzahl</w>": 8414,
  "toilet</w>": 8415,
  "evol": 8416,
  "ened</w>": 8417,
  "zuver": 8418,
  "Irland</w>": 8419,
  "rufen</w>": 8420,
  "HS</w>": 8421,
  "Anspruch</w>": 8422,
  "lor": 8423,
  "Every</w>": 8424,
  "tattoo</w>": 8425,
  "removed</w>": 8426,
  "stärker</w>": 8427,
  "pleasant</w>": 8428,
  "effort</w>": 8429,
  "deck": 8430,
  "audi": 8431,
  "winds</w>": 8432,
  "Wild": 8433,
  "bottom</w>": 8434,
  "ax</w>": 8435,
  "Cour": 8436,
  "Rund": 8437,
  "operate</w>": 8438,
  "Viel": 8439,
  "accessories</w>": 8440,
  "feu": 8441,
  "quarter</w>": 8442,
  "Bonn</w>": 8443,
  "papers</w>": 8444,
  "Mik": 8445,
  "Palace</w>": 8446,
  "courses</w>": 8447,
  "Mich": 8448,
  "swe": 8449,
  "Grün": 8450,
  "Maß": 8451,
  "mittels</w>": 8452,
  "Wissen": 8453,
  "identi": 8454,
  "luxury</w>": 8455,
  "pot": 8456,
  "zeichnung</w>": 8457,
  "belon": 8458,
  "ā": 8459,
  "contribute</w>": 8460,
  "Wohl": 8461,
  "anced</w>": 8462,
  "Esp": 8463,
  "equal</w>": 8464,
  "kommunik": 8465,
  "tschech": 8466,
  "interior</w>": 8467,
  "Colombia</w>": 8468,
  "fuel</w>": 8469,
  "passed</w>": 8470,
  "Nummer</w>": 8471,
  "recommend</w>": 8472,
  "ended</w>": 8473,
  "Eltern</w>": 8474,
  "billi": 8475,
  "deposit</w>": 8476,
  "Kanada</w>": 8477,
  "17.": 8478,
  "haften</w>": 8479,
  "heavy</w>": 8480,
  "◄</w>": 8481,
  "figure</w>": 8482,
  "flight</w>": 8483,
  "id": 8484,
  "dic</w>": 8485,
  "Metal</w>": 8486,
  "kannst</w>": 8487,
  "vent": 8488,
  "indeed</w>": 8489,
  "leidung</w>": 8490,
  "itable</w>": 8491,
  "wahrscheinlich</w>": 8492,
  "Lux": 8493,
  "Famili": 8494,
  "schützen</w>": 8495,
  "discover</w>": 8496,
  "Renn": 8497,
  "haft</w>": 8498,
  "sche": 8499,
  "benötigt</w>": 8500,
  "Before</w>": 8501,
  "es.com</w>": 8502,
  "Gesetz": 8503,
  "AND": 8504,
  "Gemeinschafts": 8505,
  "festen</w>": 8506,
  "uation</w>": 8507,
  "Angaben</w>": 8508,
  "sn": 8509,
  "forder": 8510,
  "versions</w>": 8511,
  "aro": 8512,
  "write</w>": 8513,
  "upper</w>": 8514,
  "steh": 8515,
  "ERN</w>": 8516,
  "useful</w>": 8517,
  "jeans</w>": 8518,
  "ection</w>": 8519,
  "wirkt</w>": 8520,
  "Kaffee</w>": 8521,
  "Girl</w>": 8522,
  "claim</w>": 8523,
  "resistance</w>": 8524,
  "&apos;ll</w>": 8525,
  "Halle</w>": 8526,
  "sequ": 8527,
  "sige</w>": 8528,
  "purposes</w>": 8529,
  "engen</w>": 8530,
  "Aufnahme</w>": 8531,
  "I.</w>": 8532,
  "Kolumbien</w>": 8533,
  "tiv</w>": 8534,
  "schar": 8535,
  "sierte</w>": 8536,
  "Unternehmens</w>": 8537,
  "Dänemark</w>": 8538,
  "skills</w>": 8539,
  "leaders</w>": 8540,
  "disc": 8541,
  "organization</w>": 8542,
  "bliothek</w>": 8543,
  "Gesell": 8544,
  "Besu": 8545,
  "Sin": 8546,
  ".07.": 8547,
  "manufacturing</w>": 8548,
  "ternal</w>": 8549,
  "owners</w>": 8550,
  "Tschech": 8551,
  "Rights</w>": 8552,
  "Pel": 8553,
  "kan</w>": 8554,
  "elt": 8555,
  "anderes</w>": 8556,
  "exc": 8557,
  "Van</w>": 8558,
  "Latin</w>": 8559,
  "L.</w>": 8560,
  "Dienst</w>": 8561,
  "überra": 8562,
  "kurs</w>": 8563,
  "geschaffen</w>": 8564,
  "African</w>": 8565,
  "Schla": 8566,
  "amerikanischen</w>": 8567,
  "Großbritannien</w>": 8568,
  "Tätigkeit</w>": 8569,
  "duced</w>": 8570,
  "dere</w>": 8571,
  "Age</w>": 8572,
  "Moreover</w>": 8573,
  "Inn</w>": 8574,
  "Anpass": 8575,
  "Anzeige</w>": 8576,
  "therapy</w>": 8577,
  "89": 8578,
  "FT</w>": 8579,
  "sized</w>": 8580,
  "terung</w>": 8581,
  "Schloss</w>": 8582,
  "walking</w>": 8583,
  "P.</w>": 8584,
  "heutigen</w>": 8585,
  "von": 8586,
  "fren": 8587,
  "bridge</w>": 8588,
  "stim": 8589,
  "cles</w>": 8590,
  "16,": 8591,
  "electricity</w>": 8592,
  "tätig</w>": 8593,
  "tend</w>": 8594,
  "Distri": 8595,
  "Nav": 8596,
  "Once</w>": 8597,
  "achten</w>": 8598,
  "jene</w>": 8599,
  "Nachdem</w>": 8600,
  "Anti</w>": 8601,
  "schul": 8602,
  "unknown</w>": 8603,
  "tischer</w>": 8604,
  "regulations</w>": 8605,
  "11,": 8606,
  "Unternehmens": 8607,
  "vely</w>": 8608,
  "suche</w>": 8609,
  "angebote</w>": 8610,
  "Apple</w>": 8611,
  "Meer": 8612,
  "sofa</w>": 8613,
  "BM": 8614,
  "Notwendigkeit</w>": 8615,
  "sold</w>": 8616,
  "Der": 8617,
  "begin</w>": 8618,
  "bot": 8619,
  "BP</w>": 8620,
  "Sekunden</w>": 8621,
  "bilität</w>": 8622,
  "fran": 8623,
  "PR</w>": 8624,
  "wick": 8625,
  "Stell": 8626,
  "Bedien": 8627,
  "taxi</w>": 8628,
  "Ball": 8629,
  "Autor</w>": 8630,
  "husband</w>": 8631,
  "association</w>": 8632,
  "beträgt</w>": 8633,
  "wheel</w>": 8634,
  "zel</w>": 8635,
  "loses</w>": 8636,
  "misch</w>": 8637,
  "Justice</w>": 8638,
  "2,5</w>": 8639,
  "Var": 8640,
  "José</w>": 8641,
  "pped</w>": 8642,
  "17,": 8643,
  "formed</w>": 8644,
  "Straßen": 8645,
  "names</w>": 8646,
  "Leg": 8647,
  "contro": 8648,
  "Report</w>": 8649,
  "fly</w>": 8650,
  "versucht</w>": 8651,
  "DR</w>": 8652,
  "Flüge</w>": 8653,
  "möglicherweise</w>": 8654,
  "intended</w>": 8655,
  "zuvor</w>": 8656,
  "blich</w>": 8657,
  "Tat": 8658,
  "Gründen</w>": 8659,
  "Band": 8660,
  "colours</w>": 8661,
  "elev": 8662,
  "gan</w>": 8663,
  "facili": 8664,
  "takti": 8665,
  "denke</w>": 8666,
  "osla": 8667,
  "implemented</w>": 8668,
  "day": 8669,
  "Society</w>": 8670,
  "Gold": 8671,
  "Cit": 8672,
  "erhöhen</w>": 8673,
  "oli</w>": 8674,
  "farbe</w>": 8675,
  "hafte</w>": 8676,
  "sprach": 8677,
  "factory</w>": 8678,
  "criteria</w>": 8679,
  "schi</w>": 8680,
  "inische</w>": 8681,
  "Schri": 8682,
  "Chal": 8683,
  "punkte</w>": 8684,
  "favour</w>": 8685,
  "heraus</w>": 8686,
  "submitted</w>": 8687,
  "ambi": 8688,
  "erforder": 8689,
  "Gab": 8690,
  "elten</w>": 8691,
  "Rose</w>": 8692,
  "Hung": 8693,
  "cool": 8694,
  "Alte</w>": 8695,
  "ket</w>": 8696,
  "signal</w>": 8697,
  "ertes</w>": 8698,
  "31.</w>": 8699,
  "tzu": 8700,
  "gnisse</w>": 8701,
  "eff": 8702,
  "administration</w>": 8703,
  "eigentlich</w>": 8704,
  "lediglich</w>": 8705,
  "Haf": 8706,
  "ritten</w>": 8707,
  "mul": 8708,
  "ul</w>": 8709,
  "gemein": 8710,
  "schau": 8711,
  "organisations</w>": 8712,
  "Richard</w>": 8713,
  "Comple": 8714,
  "draw</w>": 8715,
  "tari": 8716,
  "Zentral": 8717,
  "sectors</w>": 8718,
  "dering</w>": 8719,
  "Schlag": 8720,
  "marked</w>": 8721,
  "weak</w>": 8722,
  "Wä": 8723,
  "Get</w>": 8724,
  "Free": 8725,
  "alists</w>": 8726,
  "holidays</w>": 8727,
  "bessere</w>": 8728,
  "utili": 8729,
  "sitzen</w>": 8730,
  "journey</w>": 8731,
  "gentle": 8732,
  "freun": 8733,
  "ständigen</w>": 8734,
  "onieren</w>": 8735,
  "PRE": 8736,
  "Hoh": 8737,
  "Vide": 8738,
  "sole</w>": 8739,
  "camp</w>": 8740,
  "iell</w>": 8741,
  "Waren</w>": 8742,
  "Aufbau</w>": 8743,
  "solar</w>": 8744,
  "stehenden</w>": 8745,
  "Eastern</w>": 8746,
  "Lehr": 8747,
  "simul": 8748,
  "beitragen</w>": 8749,
  "heraus": 8750,
  "Anbieter</w>": 8751,
  "Electric</w>": 8752,
  "listed</w>": 8753,
  "vas</w>": 8754,
  "parents</w>": 8755,
  "lichem</w>": 8756,
  "fonds</w>": 8757,
  "Punkten</w>": 8758,
  "Fund</w>": 8759,
  "Treffen</w>": 8760,
  "frag": 8761,
  "Ideen</w>": 8762,
  "Contro": 8763,
  "verpflichtet</w>": 8764,
  "Schweizer</w>": 8765,
  "planned</w>": 8766,
  "ail</w>": 8767,
  "Good</w>": 8768,
  "Option</w>": 8769,
  "fications</w>": 8770,
  "female</w>": 8771,
  "welle</w>": 8772,
  "hervor": 8773,
  "spezielle</w>": 8774,
  "Wes": 8775,
  "kos": 8776,
  "aya</w>": 8777,
  "prof": 8778,
  "expres": 8779,
  "strategic</w>": 8780,
  "dynamic</w>": 8781,
  "grat": 8782,
  "mäßig</w>": 8783,
  "cla": 8784,
  "developments</w>": 8785,
  "offices</w>": 8786,
  "produc": 8787,
  "kel": 8788,
  "Zie": 8789,
  "evi": 8790,
  "gerungen</w>": 8791,
  "presents</w>": 8792,
  "Leder</w>": 8793,
  "Zahlen</w>": 8794,
  "chemical</w>": 8795,
  "führenden</w>": 8796,
  "orange</w>": 8797,
  "rom</w>": 8798,
  "großes</w>": 8799,
  "Staat</w>": 8800,
  "Tak": 8801,
  "ario</w>": 8802,
  "eral</w>": 8803,
  "wards</w>": 8804,
  "internation": 8805,
  "Steuern</w>": 8806,
  "30.</w>": 8807,
  "kit": 8808,
  "Temper": 8809,
  "ital</w>": 8810,
  "hear</w>": 8811,
  "tiven</w>": 8812,
  "tically</w>": 8813,
  "dation</w>": 8814,
  "else</w>": 8815,
  "Standards</w>": 8816,
  "nischen</w>": 8817,
  "Recht": 8818,
  "index</w>": 8819,
  "distinc": 8820,
  "friend</w>": 8821,
  "Weihnachten</w>": 8822,
  "ordin": 8823,
  "manager</w>": 8824,
  "fach</w>": 8825,
  "sau": 8826,
  "leider</w>": 8827,
  "iPhone</w>": 8828,
  "heels</w>": 8829,
  "east</w>": 8830,
  "199": 8831,
  "financing</w>": 8832,
  "Papier</w>": 8833,
  "linge</w>": 8834,
  "fill</w>": 8835,
  "seeing</w>": 8836,
  "geladen</w>": 8837,
  "violence</w>": 8838,
  "Tickets</w>": 8839,
  "fir": 8840,
  "13,": 8841,
  "IM</w>": 8842,
  "accepted</w>": 8843,
  "inte": 8844,
  "ktes</w>": 8845,
  "kran": 8846,
  "benutzen</w>": 8847,
  "Ungarn</w>": 8848,
  "clock</w>": 8849,
  "Einheit</w>": 8850,
  "stellungs": 8851,
  "abroad</w>": 8852,
  "onto</w>": 8853,
  "Opfer</w>": 8854,
  "op</w>": 8855,
  "Spring</w>": 8856,
  "mac": 8857,
  "legi": 8858,
  "Maschine</w>": 8859,
  "Morning</w>": 8860,
  "lungs": 8861,
  "contemporary</w>": 8862,
  "desig": 8863,
  "Mobil": 8864,
  "digitalen</w>": 8865,
  "Geld": 8866,
  "pen</w>": 8867,
  "riffen</w>": 8868,
  "Gebrau": 8869,
  "measure</w>": 8870,
  "bestimm": 8871,
  "seri": 8872,
  "Mieten</w>": 8873,
  "otherwise</w>": 8874,
  "überhaupt</w>": 8875,
  "establish</w>": 8876,
  "Hall": 8877,
  "Meinungen</w>": 8878,
  "networks</w>": 8879,
  "dene</w>": 8880,
  "committed</w>": 8881,
  "Rest": 8882,
  "vi</w>": 8883,
  "Tren": 8884,
  "real": 8885,
  "IO": 8886,
  "attractive</w>": 8887,
  "claims</w>": 8888,
  "permanent</w>": 8889,
  "hn": 8890,
  "wait</w>": 8891,
  "natürlichen</w>": 8892,
  "Domin": 8893,
  "Autos</w>": 8894,
  "perhaps</w>": 8895,
  "tief": 8896,
  "manufacturer</w>": 8897,
  "ited</w>": 8898,
  "pure</w>": 8899,
  "E.": 8900,
  "Ner": 8901,
  "Raum": 8902,
  "testing</w>": 8903,
  "Set": 8904,
  "mü": 8905,
  "pel": 8906,
  "DM</w>": 8907,
  "Parteien</w>": 8908,
  "manufacturers</w>": 8909,
  "tioning</w>": 8910,
  "pet": 8911,
  "Tourismus</w>": 8912,
  "rin": 8913,
  "Sün": 8914,
  "kle": 8915,
  "Ford</w>": 8916,
  "ousness</w>": 8917,
  "conduc": 8918,
  "panel</w>": 8919,
  "cast": 8920,
  "big": 8921,
  "ère</w>": 8922,
  "biggest</w>": 8923,
  "jection</w>": 8924,
  "lia</w>": 8925,
  "750</w>": 8926,
  "ons": 8927,
  "funktioniert</w>": 8928,
  "vielfäl": 8929,
  "letter</w>": 8930,
  "Rico</w>": 8931,
  "Advent": 8932,
  "described</w>": 8933,
  "follows</w>": 8934,
  "Berei": 8935,
  "Tele": 8936,
  "alien</w>": 8937,
  "finished</w>": 8938,
  "Beratung</w>": 8939,
  "atten": 8940,
  "isches</w>": 8941,
  "frage</w>": 8942,
  "schlag": 8943,
  "erstellen</w>": 8944,
  "hydr": 8945,
  "Tisch</w>": 8946,
  "gift</w>": 8947,
  "Lon": 8948,
  "zahl": 8949,
  "menschlichen</w>": 8950,
  "secu": 8951,
  "ester": 8952,
  "Finally</w>": 8953,
  "gain</w>": 8954,
  "ourselves</w>": 8955,
  "aktu": 8956,
  "Natural</w>": 8957,
  "für": 8958,
  "Entscheidungen</w>": 8959,
  "Son</w>": 8960,
  "außer</w>": 8961,
  "concern</w>": 8962,
  "iser</w>": 8963,
  "extrem</w>": 8964,
  "lang": 8965,
  "Funktion": 8966,
  "looks</w>": 8967,
  "Beschäftigung</w>": 8968,
  "Take</w>": 8969,
  "set": 8970,
  "Simp": 8971,
  "teilweise</w>": 8972,
  "limit</w>": 8973,
  "Jordan</w>": 8974,
  "teren</w>": 8975,
  "refer": 8976,
  "extent</w>": 8977,
  "Bit": 8978,
  "dienst": 8979,
  "kept</w>": 8980,
  "±</w>": 8981,
  "steigen</w>": 8982,
  "soul</w>": 8983,
  "Lear": 8984,
  "fire": 8985,
  "Stefan</w>": 8986,
  "tain</w>": 8987,
  "Past": 8988,
  "23.</w>": 8989,
  "Seele</w>": 8990,
  "Abenteuer</w>": 8991,
  "KA</w>": 8992,
  "sü": 8993,
  "Art.</w>": 8994,
  "verän": 8995,
  "Korea</w>": 8996,
  "nish</w>": 8997,
  "Aussch": 8998,
  "Büro</w>": 8999,
  "bist</w>": 9000,
  "Tages</w>": 9001,
  "kali": 9002,
  "ami</w>": 9003,
  "critical</w>": 9004,
  "IL</w>": 9005,
  "Eri": 9006,
  "hydro": 9007,
  "onien</w>": 9008,
  "Experten</w>": 9009,
  "vertheless</w>": 9010,
  "covers</w>": 9011,
  "extended</w>": 9012,
  "onik</w>": 9013,
  "oven</w>": 9014,
  "instance</w>": 9015,
  "ank": 9016,
  "meaning</w>": 9017,
  "verring": 9018,
  "HL</w>": 9019,
  "Pierre</w>": 9020,
  "thousand</w>": 9021,
  "spend</w>": 9022,
  "wat": 9023,
  "spread</w>": 9024,
  "bereit": 9025,
  "Mary</w>": 9026,
  "bilder</w>": 9027,
  "num": 9028,
  "aku": 9029,
  "ius</w>": 9030,
  "Pictures</w>": 9031,
  "trotz</w>": 9032,
  "stations</w>": 9033,
  "Stock": 9034,
  "Schön": 9035,
  "beachten</w>": 9036,
  "Days</w>": 9037,
  "leistungen</w>": 9038,
  "Marketing</w>": 9039,
  "railway</w>": 9040,
  "BS": 9041,
  "gebung</w>": 9042,
  "greg": 9043,
  "Feh": 9044,
  "Elektr": 9045,
  "sible</w>": 9046,
  "satz": 9047,
  "existence</w>": 9048,
  "behandelt</w>": 9049,
  "tau": 9050,
  "Verhältnis</w>": 9051,
  "spec": 9052,
  "psych": 9053,
  "tasks</w>": 9054,
  "conflict</w>": 9055,
  "ja": 9056,
  "fair": 9057,
  "ebs": 9058,
  "1988</w>": 9059,
  "free": 9060,
  "tered</w>": 9061,
  "trä": 9062,
  "Workshop</w>": 9063,
  "Inte": 9064,
  "druck": 9065,
  "Second</w>": 9066,
  "W.</w>": 9067,
  "Kontakt": 9068,
  "shared</w>": 9069,
  "Netz</w>": 9070,
  "occasion</w>": 9071,
  "mic": 9072,
  "schten</w>": 9073,
  "Hälfte</w>": 9074,
  "zip</w>": 9075,
  "vorher": 9076,
  "dam": 9077,
  "preparation</w>": 9078,
  "smaller</w>": 9079,
  "chosen</w>": 9080,
  "prüfen</w>": 9081,
  "Spaß</w>": 9082,
  "Romania</w>": 9083,
  "was": 9084,
  "verz": 9085,
  "represents</w>": 9086,
  "iron</w>": 9087,
  "Jahres": 9088,
  "Richt": 9089,
  "grey</w>": 9090,
  "altern": 9091,
  "ula</w>": 9092,
  "heits": 9093,
  "Kredit": 9094,
  "managed</w>": 9095,
  "yes</w>": 9096,
  "Methode</w>": 9097,
  "MC</w>": 9098,
  "Sem": 9099,
  "angeneh": 9100,
  "Mitteilung</w>": 9101,
  "Kauf": 9102,
  "drawn</w>": 9103,
  "rest": 9104,
  "linked</w>": 9105,
  "stände</w>": 9106,
  "Partner": 9107,
  "ossen</w>": 9108,
  "gens</w>": 9109,
  "domin": 9110,
  "fan": 9111,
  "seg": 9112,
  "19,": 9113,
  "Präsidenten</w>": 9114,
  "Both</w>": 9115,
  "elim": 9116,
  "CS": 9117,
  "tourism</w>": 9118,
  "driving</w>": 9119,
  "sions": 9120,
  "Kenntnis</w>": 9121,
  "zy</w>": 9122,
  "entstehen</w>": 9123,
  "linder</w>": 9124,
  "Brand": 9125,
  "seconds</w>": 9126,
  "lah</w>": 9127,
  "gic</w>": 9128,
  "zahl</w>": 9129,
  "sus</w>": 9130,
  "ergän": 9131,
  "Australien</w>": 9132,
  "Hannover</w>": 9133,
  "Große</w>": 9134,
  "gene": 9135,
  "express</w>": 9136,
  "tionary</w>": 9137,
  "Avi": 9138,
  "bestätigt</w>": 9139,
  "Dire": 9140,
  "Pension</w>": 9141,
  "individuell</w>": 9142,
  "unterschiedliche</w>": 9143,
  "800": 9144,
  "demands</w>": 9145,
  "istischen</w>": 9146,
  "renew": 9147,
  "stitu": 9148,
  "Texte</w>": 9149,
  "exklu": 9150,
  "bun": 9151,
  "Ausland</w>": 9152,
  "whe": 9153,
  "Übernach": 9154,
  "erleben</w>": 9155,
  "Proper": 9156,
  "Morgen</w>": 9157,
  "chi</w>": 9158,
  "lots</w>": 9159,
  "Long</w>": 9160,
  "graphie</w>": 9161,
  "tries</w>": 9162,
  "Kreuz": 9163,
  "danach</w>": 9164,
  "umps</w>": 9165,
  "fällt</w>": 9166,
  "outstanding</w>": 9167,
  "Standort</w>": 9168,
  "produkte</w>": 9169,
  "Abstimmung</w>": 9170,
  "erhält</w>": 9171,
  "mp</w>": 9172,
  "wider</w>": 9173,
  "preser": 9174,
  "grundle": 9175,
  "verbessert</w>": 9176,
  "103</w>": 9177,
  "iled</w>": 9178,
  "changing</w>": 9179,
  "102</w>": 9180,
  "Oberfläche</w>": 9181,
  "forum</w>": 9182,
  "lan</w>": 9183,
  "gerich": 9184,
  "eten</w>": 9185,
  "1945</w>": 9186,
  "Abschluss</w>": 9187,
  "entdecken</w>": 9188,
  "Kurz": 9189,
  "Cath": 9190,
  "Reh": 9191,
  "bag</w>": 9192,
  "staat</w>": 9193,
  "mine</w>": 9194,
  "successfully</w>": 9195,
  "Flach": 9196,
  "Sty": 9197,
  "Os": 9198,
  "verhindern</w>": 9199,
  "Rest</w>": 9200,
  "Anteil</w>": 9201,
  "musi": 9202,
  "businesses</w>": 9203,
  "Gallery</w>": 9204,
  "Aspekte</w>": 9205,
  "Zahn": 9206,
  "Wo</w>": 9207,
  "bars</w>": 9208,
  "ference</w>": 9209,
  "bol": 9210,
  "gnis</w>": 9211,
  "zusätzlich</w>": 9212,
  "boden</w>": 9213,
  "Ägypten</w>": 9214,
  "Bekämpfung</w>": 9215,
  "geld</w>": 9216,
  "gigen</w>": 9217,
  "Human</w>": 9218,
  "continues</w>": 9219,
  "alu": 9220,
  "entered</w>": 9221,
  "Miner": 9222,
  "hre</w>": 9223,
  "Fläche</w>": 9224,
  "Sitz</w>": 9225,
  "lebens": 9226,
  "annten</w>": 9227,
  "Metall": 9228,
  "größere</w>": 9229,
  "uten": 9230,
  "Zusätzlich</w>": 9231,
  "profit</w>": 9232,
  "Dub": 9233,
  "Zudem</w>": 9234,
  "entscheiden</w>": 9235,
  "s.</w>": 9236,
  "differ": 9237,
  "rose</w>": 9238,
  "thor": 9239,
  "schla": 9240,
  "änder</w>": 9241,
  "Proje": 9242,
  "dach": 9243,
  "Opel</w>": 9244,
  "rubber</w>": 9245,
  "absor": 9246,
  "ander</w>": 9247,
  "abe</w>": 9248,
  "wild</w>": 9249,
  "Status</w>": 9250,
  "Hör": 9251,
  "seat</w>": 9252,
  "eria</w>": 9253,
  "laws</w>": 9254,
  "telef": 9255,
  "Ed": 9256,
  "Herbst</w>": 9257,
  "äußerst</w>": 9258,
  "Solar</w>": 9259,
  "Kontin": 9260,
  "caught</w>": 9261,
  "itor</w>": 9262,
  "surrounding</w>": 9263,
  "Georg</w>": 9264,
  "Kath": 9265,
  "erhöht</w>": 9266,
  "orienti": 9267,
  "gemü": 9268,
  "drawing</w>": 9269,
  "Mechan": 9270,
  "ject</w>": 9271,
  "Stellen</w>": 9272,
  "transportation</w>": 9273,
  "eight</w>": 9274,
  "Förder": 9275,
  "quet</w>": 9276,
  "Sul": 9277,
  "eure</w>": 9278,
  "alised</w>": 9279,
  "beaches</w>": 9280,
  "hibi": 9281,
  "icial</w>": 9282,
  "ZE": 9283,
  "fälle</w>": 9284,
  "Jeder</w>": 9285,
  "Wald": 9286,
  "Direct</w>": 9287,
  "ple</w>": 9288,
  "lam": 9289,
  "Dienste</w>": 9290,
  "Konstru": 9291,
  "performed</w>": 9292,
  "fitness</w>": 9293,
  "bö": 9294,
  "osa</w>": 9295,
  "ohn": 9296,
  "Under": 9297,
  "straight</w>": 9298,
  "Kru": 9299,
  "Pay": 9300,
  "Has": 9301,
  "ă": 9302,
  "trust</w>": 9303,
  "emissions</w>": 9304,
  "starken</w>": 9305,
  "Zweck</w>": 9306,
  "Eigent": 9307,
  "Revolution</w>": 9308,
  "Grenz": 9309,
  "pas": 9310,
  "Event</w>": 9311,
  "app</w>": 9312,
  "nami": 9313,
  "210</w>": 9314,
  "Eingang</w>": 9315,
  "Einfluss</w>": 9316,
  "Him": 9317,
  "Beim</w>": 9318,
  "Spin": 9319,
  "kids</w>": 9320,
  "dent</w>": 9321,
  "Walter</w>": 9322,
  "oning</w>": 9323,
  "ladies</w>": 9324,
  "Lebensmittel": 9325,
  "Posi": 9326,
  "likely</w>": 9327,
  "Meeres": 9328,
  "Symp": 9329,
  "dritten</w>": 9330,
  "BE</w>": 9331,
  "puts</w>": 9332,
  "tit": 9333,
  "135</w>": 9334,
  "lip": 9335,
  "tierung</w>": 9336,
  "nten</w>": 9337,
  "buted</w>": 9338,
  "appears</w>": 9339,
  "Phili": 9340,
  "tagen</w>": 9341,
  "lift</w>": 9342,
  "wil": 9343,
  "fashion</w>": 9344,
  "bor</w>": 9345,
  "Tech</w>": 9346,
  "loser</w>": 9347,
  "icious</w>": 9348,
  "stress</w>": 9349,
  "tis": 9350,
  "horn</w>": 9351,
  "significantly</w>": 9352,
  "handle</w>": 9353,
  "deri": 9354,
  "ness": 9355,
  "Simon</w>": 9356,
  "ktions": 9357,
  "Video": 9358,
  "History</w>": 9359,
  "Ü</w>": 9360,
  "flowers</w>": 9361,
  "Cin": 9362,
  "lay": 9363,
  "Regierungen</w>": 9364,
  "NA</w>": 9365,
  "grün</w>": 9366,
  "mech": 9367,
  "wels</w>": 9368,
  "Finanzierung</w>": 9369,
  "Gü": 9370,
  "sonst</w>": 9371,
  "ram</w>": 9372,
  "Berliner</w>": 9373,
  "database</w>": 9374,
  "Gall": 9375,
  "determined</w>": 9376,
  "maintain</w>": 9377,
  "Amp": 9378,
  "Panama</w>": 9379,
  "wäl": 9380,
  "bezieh": 9381,
  "exce": 9382,
  "decide</w>": 9383,
  "ließ</w>": 9384,
  "nearly</w>": 9385,
  "sin": 9386,
  "Vielfalt</w>": 9387,
  "orders</w>": 9388,
  "tern": 9389,
  "zeugen</w>": 9390,
  "l.</w>": 9391,
  "Strecke</w>": 9392,
  "establi": 9393,
  "contain</w>": 9394,
  "Adv": 9395,
  "Tus": 9396,
  "felt</w>": 9397,
  "Fox</w>": 9398,
  "Racing</w>": 9399,
  "parks</w>": 9400,
  "cour": 9401,
  "generally</w>": 9402,
  "Who</w>": 9403,
  "Gla": 9404,
  "geeig": 9405,
  "mand": 9406,
  "Kompet": 9407,
  "illu": 9408,
  "Head</w>": 9409,
  "gni": 9410,
  "festi": 9411,
  "healthy</w>": 9412,
  "zeichnen</w>": 9413,
  "vergleichen</w>": 9414,
  "Vul": 9415,
  "Gün": 9416,
  "Individu": 9417,
  "ungefähr</w>": 9418,
  "mon</w>": 9419,
  "Chile</w>": 9420,
  "к": 9421,
  "wand</w>": 9422,
  "nuclear</w>": 9423,
  "kommens</w>": 9424,
  "glo": 9425,
  "vergessen</w>": 9426,
  "ole": 9427,
  "visited</w>": 9428,
  "eignet</w>": 9429,
  "Catholic</w>": 9430,
  "Vertrauen</w>": 9431,
  "wrong</w>": 9432,
  "error</w>": 9433,
  "Effizi": 9434,
  "Differ": 9435,
  "expect</w>": 9436,
  "warten</w>": 9437,
  "recht": 9438,
  "nearby</w>": 9439,
  "vid</w>": 9440,
  "appeal</w>": 9441,
  "Valley</w>": 9442,
  "Ze": 9443,
  "ewi": 9444,
  "Wür": 9445,
  "ys": 9446,
  "spunkt</w>": 9447,
  "boards</w>": 9448,
  "moved</w>": 9449,
  "Swe": 9450,
  "geschützt</w>": 9451,
  "Tochter</w>": 9452,
  "matters</w>": 9453,
  "Under</w>": 9454,
  "ache</w>": 9455,
  "hea": 9456,
  "accessible</w>": 9457,
  "Brasilien</w>": 9458,
  "tique</w>": 9459,
  "м": 9460,
  "admi": 9461,
  "ow": 9462,
  "missing</w>": 9463,
  "stom</w>": 9464,
  "equ": 9465,
  "income</w>": 9466,
  "Maschinen": 9467,
  "geräu": 9468,
  "Comm": 9469,
  "cutting</w>": 9470,
  "OK</w>": 9471,
  "updated</w>": 9472,
  "fear</w>": 9473,
  "ysi": 9474,
  "abili": 9475,
  "Mir": 9476,
  "Deli": 9477,
  "Ministry</w>": 9478,
  "Boot": 9479,
  "cha": 9480,
  "itä": 9481,
  "Ny": 9482,
  "tours</w>": 9483,
  "Chor": 9484,
  "session</w>": 9485,
  "temporary</w>": 9486,
  "exist</w>": 9487,
  "Seiten": 9488,
  "Armb": 9489,
  "Ji": 9490,
  "minister</w>": 9491,
  "Lig": 9492,
  "leiden</w>": 9493,
  "spa": 9494,
  "Liz": 9495,
  "überall</w>": 9496,
  "wahl</w>": 9497,
  "öffnen</w>": 9498,
  "teilung</w>": 9499,
  "installiert</w>": 9500,
  "Pflanzen</w>": 9501,
  "115</w>": 9502,
  "öff": 9503,
  "nern</w>": 9504,
  "eigen": 9505,
  "bedarf</w>": 9506,
  "dä": 9507,
  "spot</w>": 9508,
  "Environment</w>": 9509,
  "Falle</w>": 9510,
  "urban</w>": 9511,
  "stück</w>": 9512,
  "Zug</w>": 9513,
  "bestehenden</w>": 9514,
  "topic</w>": 9515,
  "erend</w>": 9516,
  "wünschen</w>": 9517,
  "Anzeigen</w>": 9518,
  "tan</w>": 9519,
  "21.": 9520,
  "sigen</w>": 9521,
  "eat</w>": 9522,
  "connec": 9523,
  "jederzeit</w>": 9524,
  "stechnik</w>": 9525,
  "communications</w>": 9526,
  "flights</w>": 9527,
  "assung</w>": 9528,
  "tun": 9529,
  "Sci": 9530,
  "tane": 9531,
  "euros</w>": 9532,
  "Muse": 9533,
  "mem": 9534,
  "sson</w>": 9535,
  "Vertrags": 9536,
  "Coun": 9537,
  "raised</w>": 9538,
  "Smart</w>": 9539,
  "Nutzen</w>": 9540,
  "pleased</w>": 9541,
  "quick</w>": 9542,
  "Sz": 9543,
  "dick</w>": 9544,
  "eil": 9545,
  "assessment</w>": 9546,
  "schafts": 9547,
  "waiting</w>": 9548,
  "angebot</w>": 9549,
  "Fast</w>": 9550,
  "returned</w>": 9551,
  "tom</w>": 9552,
  "Müller</w>": 9553,
  "authority</w>": 9554,
  "zentrale</w>": 9555,
  "luxuri": 9556,
  "she": 9557,
  "miles</w>": 9558,
  "anischer</w>": 9559,
  "mobil": 9560,
  "meist</w>": 9561,
  "oria</w>": 9562,
  "ile": 9563,
  "Schönheit</w>": 9564,
  "listen</w>": 9565,
  "produziert</w>": 9566,
  "erfahr": 9567,
  "v.</w>": 9568,
  "neither</w>": 9569,
  "netz</w>": 9570,
  "sektor</w>": 9571,
  "sprech": 9572,
  "das": 9573,
  "viert</w>": 9574,
  "discip": 9575,
  "carbon</w>": 9576,
  "Bä": 9577,
  "Leiter</w>": 9578,
  "Children</w>": 9579,
  "glasses</w>": 9580,
  "dents</w>": 9581,
  "gefügt</w>": 9582,
  "skinny</w>": 9583,
  "Sein</w>": 9584,
  "Hir": 9585,
  "Tonnen</w>": 9586,
  "counter": 9587,
  "Fuß": 9588,
  "yed</w>": 9589,
  "gro</w>": 9590,
  "wich": 9591,
  "Saison</w>": 9592,
  "appearance</w>": 9593,
  "nachhal": 9594,
  "birth</w>": 9595,
  "author</w>": 9596,
  "publi": 9597,
  "character": 9598,
  "miteinander</w>": 9599,
  "partnership</w>": 9600,
  "bal</w>": 9601,
  "stones</w>": 9602,
  "depending</w>": 9603,
  "Inv": 9604,
  "sparen</w>": 9605,
  "join</w>": 9606,
  "kö": 9607,
  "Jung": 9608,
  "Department</w>": 9609,
  "Bern": 9610,
  "Arts</w>": 9611,
  "Sili": 9612,
  "intensive</w>": 9613,
  "alls</w>": 9614,
  ".A.</w>": 9615,
  "interpre": 9616,
  "schwi": 9617,
  "guaran": 9618,
  "nationale</w>": 9619,
  "ök": 9620,
  "liefern</w>": 9621,
  "männ": 9622,
  "baut</w>": 9623,
  "ria</w>": 9624,
  "album</w>": 9625,
  "leaves</w>": 9626,
  "Education</w>": 9627,
  "grün": 9628,
  "Zwe": 9629,
  "increasingly</w>": 9630,
  "stau": 9631,
  "2nd</w>": 9632,
  "fühlen</w>": 9633,
  "Präsidentin</w>": 9634,
  "anien</w>": 9635,
  "länge</w>": 9636,
  "advertising</w>": 9637,
  "ș": 9638,
  "pack</w>": 9639,
  "vermeiden</w>": 9640,
  "entliche</w>": 9641,
  "Methoden</w>": 9642,
  "tili": 9643,
  "represented</w>": 9644,
  "dream</w>": 9645,
  "shor": 9646,
  "1200</w>": 9647,
  "grounds</w>": 9648,
  "ash</w>": 9649,
  "rely</w>": 9650,
  "körper": 9651,
  "Lady</w>": 9652,
  "kne": 9653,
  "intel": 9654,
  "Visi": 9655,
  "unabhängig</w>": 9656,
  "mail": 9657,
  "governments</w>": 9658,
  "moving</w>": 9659,
  "Schne": 9660,
  "mögliche</w>": 9661,
  "addi": 9662,
  "flug": 9663,
  "ensu": 9664,
  "deckung</w>": 9665,
  "assembly</w>": 9666,
  "factors</w>": 9667,
  "Freie</w>": 9668,
  "notice</w>": 9669,
  "übertragen</w>": 9670,
  "Vis": 9671,
  "gespeich": 9672,
  "Mitglied": 9673,
  "pop": 9674,
  "bottle</w>": 9675,
  "scen": 9676,
  "Tat</w>": 9677,
  "Bak": 9678,
  "sey</w>": 9679,
  "ured</w>": 9680,
  "xel</w>": 9681,
  "Wall</w>": 9682,
  "Over</w>": 9683,
  "Wider": 9684,
  "arin</w>": 9685,
  "parallel</w>": 9686,
  "dent": 9687,
  "subsidi": 9688,
  "Francisco</w>": 9689,
  "ham</w>": 9690,
  "eption</w>": 9691,
  "a.</w>": 9692,
  "Norden</w>": 9693,
  "üch": 9694,
  "FF": 9695,
  "scope</w>": 9696,
  "speaking</w>": 9697,
  "Vorbereitung</w>": 9698,
  "consequences</w>": 9699,
  "beinhal": 9700,
  "Young</w>": 9701,
  "elem": 9702,
  "Körper": 9703,
  "Dach": 9704,
  "yn</w>": 9705,
  "Village</w>": 9706,
  "320</w>": 9707,
  "earlier</w>": 9708,
  "Bulgaria</w>": 9709,
  "Garten": 9710,
  "pment</w>": 9711,
  "früher</w>": 9712,
  "wur": 9713,
  "elek": 9714,
  "anna</w>": 9715,
  "л": 9716,
  "Moz": 9717,
  "urt</w>": 9718,
  "Stabili": 9719,
  "hoffe</w>": 9720,
  "matic</w>": 9721,
  "setzte</w>": 9722,
  "Amerika</w>": 9723,
  "Electron": 9724,
  "diversity</w>": 9725,
  "han": 9726,
  "anni</w>": 9727,
  "endlich</w>": 9728,
  "Ruhe</w>": 9729,
  "manu": 9730,
  "funktion": 9731,
  "26.</w>": 9732,
  "üs": 9733,
  "immer": 9734,
  "Ansatz</w>": 9735,
  "Catal": 9736,
  "new": 9737,
  "Maße</w>": 9738,
  "Paket</w>": 9739,
  "surrounded</w>": 9740,
  "bewahr": 9741,
  "Optionen</w>": 9742,
  "spie": 9743,
  "administrative</w>": 9744,
  "Lun": 9745,
  "Wär": 9746,
  "mia</w>": 9747,
  "Gedanken</w>": 9748,
  "klein": 9749,
  "mes": 9750,
  "Schie": 9751,
  "fein": 9752,
  "Harmon": 9753,
  "super</w>": 9754,
  "entsprechende</w>": 9755,
  "feeling</w>": 9756,
  "esa</w>": 9757,
  "harm": 9758,
  "Botschaft</w>": 9759,
  "vent</w>": 9760,
  "loc": 9761,
  "Ves": 9762,
  "sprü": 9763,
  "egi": 9764,
  "Oc": 9765,
  "yoga</w>": 9766,
  "Küste</w>": 9767,
  "corporate</w>": 9768,
  "strö": 9769,
  "echn": 9770,
  "ban</w>": 9771,
  "absolute</w>": 9772,
  "Instrumente</w>": 9773,
  "circumstances</w>": 9774,
  "voc": 9775,
  "wise</w>": 9776,
  "Fund": 9777,
  "Direkt": 9778,
  "Eur": 9779,
  "Love</w>": 9780,
  "Verlag</w>": 9781,
  "Jugend": 9782,
  "Another</w>": 9783,
  "perfekt</w>": 9784,
  "Internationale</w>": 9785,
  "unds</w>": 9786,
  "stel</w>": 9787,
  "Wach": 9788,
  "Veränderungen</w>": 9789,
  "antrag</w>": 9790,
  "ems</w>": 9791,
  "Kurs</w>": 9792,
  "exercise</w>": 9793,
  "EA</w>": 9794,
  "broad</w>": 9795,
  "erscheint</w>": 9796,
  "G.</w>": 9797,
  "alia</w>": 9798,
  "Universal</w>": 9799,
  "enni": 9800,
  "Tour": 9801,
  "möglichen</w>": 9802,
  "starts</w>": 9803,
  "Wet": 9804,
  "extreme</w>": 9805,
  "ktoren</w>": 9806,
  "scene</w>": 9807,
  "Il": 9808,
  "stattung</w>": 9809,
  "Augen": 9810,
  "hen": 9811,
  "Kä": 9812,
  "appen</w>": 9813,
  "introduction</w>": 9814,
  "Cuba</w>": 9815,
  "wechsel</w>": 9816,
  "compar": 9817,
  "Debatte</w>": 9818,
  "monum": 9819,
  "weib": 9820,
  "Luxemburg</w>": 9821,
  "Auftrag</w>": 9822,
  "jec": 9823,
  "Flug</w>": 9824,
  "reserved</w>": 9825,
  "CEO</w>": 9826,
  "easier</w>": 9827,
  "Glauben</w>": 9828,
  "geni": 9829,
  "Blut": 9830,
  "award</w>": 9831,
  "Kie": 9832,
  "ings": 9833,
  "zählen</w>": 9834,
  "unterschie": 9835,
  "dead</w>": 9836,
  "Dam": 9837,
  "Teilen</w>": 9838,
  "Black": 9839,
  "forced</w>": 9840,
  "od</w>": 9841,
  "Aussicht</w>": 9842,
  "Bedro": 9843,
  "Medien": 9844,
  "Lom": 9845,
  "bern</w>": 9846,
  "ager</w>": 9847,
  "Taxi</w>": 9848,
  "Marken</w>": 9849,
  "monitor</w>": 9850,
  "utter": 9851,
  "laid</w>": 9852,
  "Cav": 9853,
  "Make</w>": 9854,
  "texts</w>": 9855,
  "akers</w>": 9856,
  "firm</w>": 9857,
  "Programms</w>": 9858,
  "mieren</w>": 9859,
  "sexu": 9860,
  "Geschmack</w>": 9861,
  "renov": 9862,
  "cians</w>": 9863,
  "participate</w>": 9864,
  "PM": 9865,
  "Schwan": 9866,
  "schuss</w>": 9867,
  "staaten</w>": 9868,
  "lierung</w>": 9869,
  "hub</w>": 9870,
  "zunehmen</w>": 9871,
  "sorgt</w>": 9872,
  "despite</w>": 9873,
  "stin</w>": 9874,
  "ray</w>": 9875,
  "Archiv</w>": 9876,
  "named</w>": 9877,
  "zurückzu": 9878,
  "1980</w>": 9879,
  "Temperatur</w>": 9880,
  "windows</w>": 9881,
  "Burg</w>": 9882,
  "asp": 9883,
  "samen</w>": 9884,
  "tested</w>": 9885,
  "tennis</w>": 9886,
  "ktiven</w>": 9887,
  "Alber": 9888,
  "dates</w>": 9889,
  "Roma</w>": 9890,
  "Jewish</w>": 9891,
  "diges</w>": 9892,
  "thinking</w>": 9893,
  "scht</w>": 9894,
  "Sing": 9895,
  "library</w>": 9896,
  "sili": 9897,
  "meetings</w>": 9898,
  "alisi": 9899,
  "Ide": 9900,
  "übernehmen</w>": 9901,
  "register</w>": 9902,
  "aum</w>": 9903,
  "implement</w>": 9904,
  "Prophe": 9905,
  "See": 9906,
  "surro": 9907,
  "jährlich</w>": 9908,
  "Dutch</w>": 9909,
  "aims</w>": 9910,
  "aga</w>": 9911,
  "nations</w>": 9912,
  "funk": 9913,
  "sport": 9914,
  "onal": 9915,
  "vis</w>": 9916,
  "SN": 9917,
  "flower</w>": 9918,
  "roll</w>": 9919,
  "mün": 9920,
  "öh": 9921,
  "films</w>": 9922,
  "Bremen</w>": 9923,
  "manchmal</w>": 9924,
  "hood</w>": 9925,
  "compare</w>": 9926,
  "integr": 9927,
  "‑</w>": 9928,
  "FA</w>": 9929,
  "Konz": 9930,
  "carto": 9931,
  "fr": 9932,
  "besitzt</w>": 9933,
  "ms": 9934,
  "ori</w>": 9935,
  "dlicher</w>": 9936,
  "ults</w>": 9937,
  "arms</w>": 9938,
  "650</w>": 9939,
  "Hinweis</w>": 9940,
  "Fig": 9941,
  "justice</w>": 9942,
  "äm": 9943,
  "tron": 9944,
  "globalen</w>": 9945,
  "eröffnet</w>": 9946,
  "rei</w>": 9947,
  "inations</w>": 9948,
  "Sach": 9949,
  "ump</w>": 9950,
  "Louis</w>": 9951,
  "ques</w>": 9952,
  "Lissabon</w>": 9953,
  "hilft</w>": 9954,
  "Feu": 9955,
  "schir": 9956,
  "Kosovo</w>": 9957,
  "discussed</w>": 9958,
  "Geist": 9959,
  "hätten</w>": 9960,
  "arab": 9961,
  "bought</w>": 9962,
  "ney</w>": 9963,
  "tierten</w>": 9964,
  "Natürlich</w>": 9965,
  "aben</w>": 9966,
  "granted</w>": 9967,
  "thu": 9968,
  "wedding</w>": 9969,
  "paint</w>": 9970,
  "dog</w>": 9971,
  "Polish</w>": 9972,
  "election</w>": 9973,
  "them": 9974,
  "factor</w>": 9975,
  "22.": 9976,
  "farben</w>": 9977,
  "Dokumente</w>": 9978,
  "Verkauf": 9979,
  "ential</w>": 9980,
  "gehöri": 9981,
  "advice</w>": 9982,
  "Neues</w>": 9983,
  "zw": 9984,
  "Equi": 9985,
  "eigenes</w>": 9986,
  "organis": 9987,
  "Profil</w>": 9988,
  "Hat</w>": 9989,
  "represent</w>": 9990,
  "treated</w>": 9991,
  "lived</w>": 9992,
  ".02.": 9993,
  "Vereinbarung</w>": 9994,
  "Schle": 9995,
  "hi</w>": 9996,
  "reception</w>": 9997,
  "cru": 9998,
  "feed</w>": 9999,
  "missionen</w>": 10000,
  "verwal": 10001,
  "kts</w>": 10002,
  "lieben</w>": 10003,
  "erklärte</w>": 10004,
  "mostly</w>": 10005,
  "Pad": 10006,
  "bte</w>": 10007,
  "Bemühungen</w>": 10008,
  "rear</w>": 10009,
  "homes</w>": 10010,
  "evalu": 10011,
  "layer</w>": 10012,
  "virus</w>": 10013,
  "supporting</w>": 10014,
  "Earth</w>": 10015,
  "Turkish</w>": 10016,
  "handling</w>": 10017,
  "trying</w>": 10018,
  "liebe</w>": 10019,
  "Pom": 10020,
  "lion</w>": 10021,
  "leidet</w>": 10022,
  "wooden</w>": 10023,
  "Mexiko</w>": 10024,
  "Forsch": 10025,
  "106</w>": 10026,
  "deliver</w>": 10027,
  "rein</w>": 10028,
  "fun": 10029,
  "Neben": 10030,
  "Untersuchung</w>": 10031,
  "mehr": 10032,
  "aboli": 10033,
  "brings</w>": 10034,
  "Hoffnung</w>": 10035,
  "competitive</w>": 10036,
  "Nations</w>": 10037,
  "establishment</w>": 10038,
  "organized</w>": 10039,
  "1985</w>": 10040,
  "zieht</w>": 10041,
  "regar": 10042,
  "Rich": 10043,
  "abilities</w>": 10044,
  "Culture</w>": 10045,
  "atori": 10046,
  "Gir": 10047,
  "lem</w>": 10048,
  "beziehen</w>": 10049,
  "mente</w>": 10050,
  "draft</w>": 10051,
  "Identi": 10052,
  "bewusst</w>": 10053,
  "Wahl": 10054,
  "redu": 10055,
  "üchtig</w>": 10056,
  "cture</w>": 10057,
  "Infrastruktur</w>": 10058,
  "Menschen": 10059,
  "creative</w>": 10060,
  "ano": 10061,
  "schwan": 10062,
  "Internationalen</w>": 10063,
  "Tabelle</w>": 10064,
  "ł": 10065,
  "aw": 10066,
  "Wechsel": 10067,
  "F.</w>": 10068,
  "regelmäßig</w>": 10069,
  "Arena</w>": 10070,
  "dishes</w>": 10071,
  "cial</w>": 10072,
  "ves": 10073,
  "Schwimmb": 10074,
  "éri": 10075,
  "with": 10076,
  "nutz": 10077,
  "kinds</w>": 10078,
  "zeichnete</w>": 10079,
  "calcul": 10080,
  "Well</w>": 10081,
  "bow</w>": 10082,
  "restri": 10083,
  "California</w>": 10084,
  "berühmten</w>": 10085,
  "dor</w>": 10086,
  "verloren</w>": 10087,
  "hum": 10088,
  "splatz</w>": 10089,
  "concert</w>": 10090,
  "überprüfen</w>": 10091,
  "fr</w>": 10092,
  "gelt</w>": 10093,
  "Fähigkeit</w>": 10094,
  "Augu": 10095,
  "Rennen</w>": 10096,
  "Gay</w>": 10097,
  "Å</w>": 10098,
  "schwei": 10099,
  "docum": 10100,
  "Kauf</w>": 10101,
  "Sinn</w>": 10102,
  "nachhaltige</w>": 10103,
  "Lad": 10104,
  "solid</w>": 10105,
  "turing</w>": 10106,
  "Ay": 10107,
  "tlicher</w>": 10108,
  "stel": 10109,
  "kulturellen</w>": 10110,
  "spannen</w>": 10111,
  "Stro": 10112,
  "AB</w>": 10113,
  "beu": 10114,
  "bewegen</w>": 10115,
  "president</w>": 10116,
  "Bücher</w>": 10117,
  "xer</w>": 10118,
  "lösung</w>": 10119,
  "Three</w>": 10120,
  "bst": 10121,
  "gehalten</w>": 10122,
  "fern": 10123,
  "ika</w>": 10124,
  "holen</w>": 10125,
  "command</w>": 10126,
  "bildet</w>": 10127,
  "Mehrheit</w>": 10128,
  "DU": 10129,
  "cook": 10130,
  "spent</w>": 10131,
  "abgeschlossen</w>": 10132,
  "guard</w>": 10133,
  "inch</w>": 10134,
  "Süden</w>": 10135,
  "ahead</w>": 10136,
  "western</w>": 10137,
  "ARD</w>": 10138,
  "Dublin</w>": 10139,
  "edback</w>": 10140,
  "Bik": 10141,
  "Orchest": 10142,
  "circu": 10143,
  "dest</w>": 10144,
  "Chance</w>": 10145,
  "Shanghai</w>": 10146,
  "Trop": 10147,
  "Cruz</w>": 10148,
  "unk</w>": 10149,
  "endung</w>": 10150,
  "Moscow</w>": 10151,
  "Entwicklungen</w>": 10152,
  "custo": 10153,
  "Antworten</w>": 10154,
  "Nie": 10155,
  "evidence</w>": 10156,
  "platten</w>": 10157,
  "GS</w>": 10158,
  "Diskussion</w>": 10159,
  "gänge</w>": 10160,
  "U.S.</w>": 10161,
  "identifi": 10162,
  "Sant": 10163,
  "1987</w>": 10164,
  "remote</w>": 10165,
  "corner</w>": 10166,
  "Grenze</w>": 10167,
  "Aktion": 10168,
  "strengthen</w>": 10169,
  "geschoss</w>": 10170,
  "mel</w>": 10171,
  "foundation</w>": 10172,
  "pfen</w>": 10173,
  "1984</w>": 10174,
  "sprachen</w>": 10175,
  "ott</w>": 10176,
  "cep": 10177,
  "hoben</w>": 10178,
  "Finan": 10179,
  "Berge</w>": 10180,
  "proce": 10181,
  "step": 10182,
  "enheit</w>": 10183,
  "Kopf": 10184,
  "helps</w>": 10185,
  "veget": 10186,
  "ather</w>": 10187,
  "Spitze</w>": 10188,
  "Dokument</w>": 10189,
  "spru": 10190,
  "Ausschuss</w>": 10191,
  "entlich</w>": 10192,
  "Lok": 10193,
  "weiterer</w>": 10194,
  "Trau": 10195,
  "lish</w>": 10196,
  "evil</w>": 10197,
  "gelangen</w>": 10198,
  "match</w>": 10199,
  "ati</w>": 10200,
  "myself</w>": 10201,
  "seller</w>": 10202,
  "Umfang</w>": 10203,
  "Num": 10204,
  "usi": 10205,
  "stated</w>": 10206,
  "Gy": 10207,
  "pretation</w>": 10208,
  "bild": 10209,
  "diger</w>": 10210,
  "führungen</w>": 10211,
  "reicht</w>": 10212,
  "Stich": 10213,
  "except</w>": 10214,
  "Agency</w>": 10215,
  "entwickelten</w>": 10216,
  "launched</w>": 10217,
  "Allerdings</w>": 10218,
  "insu": 10219,
  "Modell": 10220,
  "oo</w>": 10221,
  "rie</w>": 10222,
  "vals</w>": 10223,
  "Priester</w>": 10224,
  "ports</w>": 10225,
  "ungsh": 10226,
  "stech": 10227,
  "II.</w>": 10228,
  "nd</w>": 10229,
  "Klaus</w>": 10230,
  "gg</w>": 10231,
  "Mission</w>": 10232,
  "breiten</w>": 10233,
  "Bedürfnisse</w>": 10234,
  "traditionellen</w>": 10235,
  "Anhänger</w>": 10236,
  "kraft": 10237,
  "veri": 10238,
  "Zimmern</w>": 10239,
  "Welche</w>": 10240,
  "committee</w>": 10241,
  "comment</w>": 10242,
  "Brenn": 10243,
  "unterstütz": 10244,
  "surprise</w>": 10245,
  "erzielt</w>": 10246,
  "Gegend</w>": 10247,
  "recei": 10248,
  "ison</w>": 10249,
  "kings</w>": 10250,
  "Bible</w>": 10251,
  "arm</w>": 10252,
  "organisiert</w>": 10253,
  "stehend</w>": 10254,
  "Rumänien</w>": 10255,
  "Paar</w>": 10256,
  "einhei": 10257,
  "zia</w>": 10258,
  "ierten</w>": 10259,
  "Hauptstadt</w>": 10260,
  "ökono": 10261,
  "appe</w>": 10262,
  "124": 10263,
  "1500</w>": 10264,
  "garten</w>": 10265,
  "104</w>": 10266,
  "gewün": 10267,
  "Schmuck</w>": 10268,
  "Cau": 10269,
  "orie</w>": 10270,
  "strate": 10271,
  "IG</w>": 10272,
  "facing</w>": 10273,
  "bright</w>": 10274,
  "switch</w>": 10275,
  "Krist": 10276,
  "Firmen</w>": 10277,
  "garantiert</w>": 10278,
  "desire</w>": 10279,
  "meines</w>": 10280,
  "Dien": 10281,
  "1968</w>": 10282,
  "französischen</w>": 10283,
  "mie": 10284,
  "remember</w>": 10285,
  "tech</w>": 10286,
  "Planung</w>": 10287,
  "Estate</w>": 10288,
  "hör": 10289,
  "ras": 10290,
  "begrüßt</w>": 10291,
  "Ah": 10292,
  "klang</w>": 10293,
  "aj": 10294,
  "lated</w>": 10295,
  "angemessen": 10296,
  "expression</w>": 10297,
  "runs</w>": 10298,
  "navig": 10299,
[...]
